{
  "version": "1.0",
  "truncation": null,
  "padding": null,
  "added_tokens": [
    {
      "id": 0,
      "content": "<unk>",
      "single_word": false,
      "lstrip": false,
      "rstrip": false,
      "normalized": true,
      "special": true
    },
    {
      "id": 1,
      "content": "<s>",
      "single_word": false,
      "lstrip": false,
      "rstrip": false,
      "normalized": true,
      "special": true
    },
    {
      "id": 2,
      "content": "</s>",
      "single_word": false,
      "lstrip": false,
      "rstrip": false,
      "normalized": true,
      "special": true
    },
    {
      "id": 3,
      "content": "<pad>",
      "single_word": false,
      "lstrip": false,
      "rstrip": false,
      "normalized": true,
      "special": true
    },
    {
      "id": 4,
      "content": "<|endoftext|>",
      "single_word": false,
      "lstrip": false,
      "rstrip": false,
      "normalized": false,
      "special": false
    },
    {
      "id": 5,
      "content": "<|mask|>",
      "single_word": false,
      "lstrip": false,
      "rstrip": false,
      "normalized": true,
      "special": true
    },
    {
      "id": 6,
      "content": "<|system|>",
      "single_word": false,
      "lstrip": false,
      "rstrip": false,
      "normalized": false,
      "special": false
    },
    {
      "id": 7,
      "content": "<|user|>",
      "single_word": false,
      "lstrip": false,
      "rstrip": false,
      "normalized": false,
      "special": false
    },
    {
      "id": 8,
      "content": "<|assistant|>",
      "single_word": false,
      "lstrip": false,
      "rstrip": false,
      "normalized": false,
      "special": false
    },
    {
      "id": 9,
      "content": "<|ipython|>",
      "single_word": false,
      "lstrip": false,
      "rstrip": false,
      "normalized": false,
      "special": false
    },
    {
      "id": 10,
      "content": "<|endofmessage|>",
      "single_word": false,
      "lstrip": false,
      "rstrip": false,
      "normalized": false,
      "special": false
    },
    {
      "id": 11,
      "content": "<|python_call|>",
      "single_word": false,
      "lstrip": false,
      "rstrip": false,
      "normalized": false,
      "special": false
    },
    {
      "id": 12,
      "content": "<|reserved_6|>",
      "single_word": false,
      "lstrip": false,
      "rstrip": false,
      "normalized": false,
      "special": false
    },
    {
      "id": 13,
      "content": "<|reserved_7|>",
      "single_word": false,
      "lstrip": false,
      "rstrip": false,
      "normalized": false,
      "special": false
    },
    {
      "id": 14,
      "content": "<|reserved_8|>",
      "single_word": false,
      "lstrip": false,
      "rstrip": false,
      "normalized": false,
      "special": false
    },
    {
      "id": 15,
      "content": "<|reserved_9|>",
      "single_word": false,
      "lstrip": false,
      "rstrip": false,
      "normalized": false,
      "special": false
    }
  ],
  "normalizer": null,
  "pre_tokenizer": {
    "type": "Metaspace",
    "replacement": "▁",
    "prepend_scheme": "first",
    "split": false
  },
  "post_processor": {
    "type": "TemplateProcessing",
    "single": [
      {
        "SpecialToken": {
          "id": "<s>",
          "type_id": 0
        }
      },
      {
        "Sequence": {
          "id": "A",
          "type_id": 0
        }
      },
      {
        "SpecialToken": {
          "id": "</s>",
          "type_id": 0
        }
      }
    ],
    "pair": [
      {
        "SpecialToken": {
          "id": "<s>",
          "type_id": 0
        }
      },
      {
        "Sequence": {
          "id": "A",
          "type_id": 0
        }
      },
      {
        "SpecialToken": {
          "id": "</s>",
          "type_id": 0
        }
      },
      {
        "SpecialToken": {
          "id": "<s>",
          "type_id": 1
        }
      },
      {
        "Sequence": {
          "id": "B",
          "type_id": 1
        }
      },
      {
        "SpecialToken": {
          "id": "</s>",
          "type_id": 1
        }
      }
    ],
    "special_tokens": {
      "</s>": {
        "id": "</s>",
        "ids": [
          2
        ],
        "tokens": [
          "</s>"
        ]
      },
      "<s>": {
        "id": "<s>",
        "ids": [
          1
        ],
        "tokens": [
          "<s>"
        ]
      }
    }
  },
  "decoder": {
    "type": "Sequence",
    "decoders": [
      {
        "type": "Replace",
        "pattern": {
          "String": "▁"
        },
        "content": " "
      },
      {
        "type": "ByteFallback"
      },
      {
        "type": "Fuse"
      },
      {
        "type": "Strip",
        "content": " ",
        "start": 1,
        "stop": 0
      }
    ]
  },
  "model": {
    "type": "BPE",
    "dropout": null,
    "unk_token": "<unk>",
    "continuing_subword_prefix": null,
    "end_of_word_suffix": null,
    "fuse_unk": true,
    "byte_fallback": true,
    "ignore_merges": false,
    "vocab": {
      "<unk>": 0,
      "<s>": 1,
      "</s>": 2,
      "<pad>": 3,
      "<|endoftext|>": 4,
      "<|mask|>": 5,
      "<|system|>": 6,
      "<|user|>": 7,
      "<|assistant|>": 8,
      "<|ipython|>": 9,
      "<|endofmessage|>": 10,
      "<|python_call|>": 11,
      "<|reserved_6|>": 12,
      "<|reserved_7|>": 13,
      "<|reserved_8|>": 14,
      "<|reserved_9|>": 15,
      "<0x00>": 16,
      "<0x01>": 17,
      "<0x02>": 18,
      "<0x03>": 19,
      "<0x04>": 20,
      "<0x05>": 21,
      "<0x06>": 22,
      "<0x07>": 23,
      "<0x08>": 24,
      "<0x09>": 25,
      "<0x0A>": 26,
      "<0x0B>": 27,
      "<0x0C>": 28,
      "<0x0D>": 29,
      "<0x0E>": 30,
      "<0x0F>": 31,
      "<0x10>": 32,
      "<0x11>": 33,
      "<0x12>": 34,
      "<0x13>": 35,
      "<0x14>": 36,
      "<0x15>": 37,
      "<0x16>": 38,
      "<0x17>": 39,
      "<0x18>": 40,
      "<0x19>": 41,
      "<0x1A>": 42,
      "<0x1B>": 43,
      "<0x1C>": 44,
      "<0x1D>": 45,
      "<0x1E>": 46,
      "<0x1F>": 47,
      "<0x20>": 48,
      "<0x21>": 49,
      "<0x22>": 50,
      "<0x23>": 51,
      "<0x24>": 52,
      "<0x25>": 53,
      "<0x26>": 54,
      "<0x27>": 55,
      "<0x28>": 56,
      "<0x29>": 57,
      "<0x2A>": 58,
      "<0x2B>": 59,
      "<0x2C>": 60,
      "<0x2D>": 61,
      "<0x2E>": 62,
      "<0x2F>": 63,
      "<0x30>": 64,
      "<0x31>": 65,
      "<0x32>": 66,
      "<0x33>": 67,
      "<0x34>": 68,
      "<0x35>": 69,
      "<0x36>": 70,
      "<0x37>": 71,
      "<0x38>": 72,
      "<0x39>": 73,
      "<0x3A>": 74,
      "<0x3B>": 75,
      "<0x3C>": 76,
      "<0x3D>": 77,
      "<0x3E>": 78,
      "<0x3F>": 79,
      "<0x40>": 80,
      "<0x41>": 81,
      "<0x42>": 82,
      "<0x43>": 83,
      "<0x44>": 84,
      "<0x45>": 85,
      "<0x46>": 86,
      "<0x47>": 87,
      "<0x48>": 88,
      "<0x49>": 89,
      "<0x4A>": 90,
      "<0x4B>": 91,
      "<0x4C>": 92,
      "<0x4D>": 93,
      "<0x4E>": 94,
      "<0x4F>": 95,
      "<0x50>": 96,
      "<0x51>": 97,
      "<0x52>": 98,
      "<0x53>": 99,
      "<0x54>": 100,
      "<0x55>": 101,
      "<0x56>": 102,
      "<0x57>": 103,
      "<0x58>": 104,
      "<0x59>": 105,
      "<0x5A>": 106,
      "<0x5B>": 107,
      "<0x5C>": 108,
      "<0x5D>": 109,
      "<0x5E>": 110,
      "<0x5F>": 111,
      "<0x60>": 112,
      "<0x61>": 113,
      "<0x62>": 114,
      "<0x63>": 115,
      "<0x64>": 116,
      "<0x65>": 117,
      "<0x66>": 118,
      "<0x67>": 119,
      "<0x68>": 120,
      "<0x69>": 121,
      "<0x6A>": 122,
      "<0x6B>": 123,
      "<0x6C>": 124,
      "<0x6D>": 125,
      "<0x6E>": 126,
      "<0x6F>": 127,
      "<0x70>": 128,
      "<0x71>": 129,
      "<0x72>": 130,
      "<0x73>": 131,
      "<0x74>": 132,
      "<0x75>": 133,
      "<0x76>": 134,
      "<0x77>": 135,
      "<0x78>": 136,
      "<0x79>": 137,
      "<0x7A>": 138,
      "<0x7B>": 139,
      "<0x7C>": 140,
      "<0x7D>": 141,
      "<0x7E>": 142,
      "<0x7F>": 143,
      "<0x80>": 144,
      "<0x81>": 145,
      "<0x82>": 146,
      "<0x83>": 147,
      "<0x84>": 148,
      "<0x85>": 149,
      "<0x86>": 150,
      "<0x87>": 151,
      "<0x88>": 152,
      "<0x89>": 153,
      "<0x8A>": 154,
      "<0x8B>": 155,
      "<0x8C>": 156,
      "<0x8D>": 157,
      "<0x8E>": 158,
      "<0x8F>": 159,
      "<0x90>": 160,
      "<0x91>": 161,
      "<0x92>": 162,
      "<0x93>": 163,
      "<0x94>": 164,
      "<0x95>": 165,
      "<0x96>": 166,
      "<0x97>": 167,
      "<0x98>": 168,
      "<0x99>": 169,
      "<0x9A>": 170,
      "<0x9B>": 171,
      "<0x9C>": 172,
      "<0x9D>": 173,
      "<0x9E>": 174,
      "<0x9F>": 175,
      "<0xA0>": 176,
      "<0xA1>": 177,
      "<0xA2>": 178,
      "<0xA3>": 179,
      "<0xA4>": 180,
      "<0xA5>": 181,
      "<0xA6>": 182,
      "<0xA7>": 183,
      "<0xA8>": 184,
      "<0xA9>": 185,
      "<0xAA>": 186,
      "<0xAB>": 187,
      "<0xAC>": 188,
      "<0xAD>": 189,
      "<0xAE>": 190,
      "<0xAF>": 191,
      "<0xB0>": 192,
      "<0xB1>": 193,
      "<0xB2>": 194,
      "<0xB3>": 195,
      "<0xB4>": 196,
      "<0xB5>": 197,
      "<0xB6>": 198,
      "<0xB7>": 199,
      "<0xB8>": 200,
      "<0xB9>": 201,
      "<0xBA>": 202,
      "<0xBB>": 203,
      "<0xBC>": 204,
      "<0xBD>": 205,
      "<0xBE>": 206,
      "<0xBF>": 207,
      "<0xC0>": 208,
      "<0xC1>": 209,
      "<0xC2>": 210,
      "<0xC3>": 211,
      "<0xC4>": 212,
      "<0xC5>": 213,
      "<0xC6>": 214,
      "<0xC7>": 215,
      "<0xC8>": 216,
      "<0xC9>": 217,
      "<0xCA>": 218,
      "<0xCB>": 219,
      "<0xCC>": 220,
      "<0xCD>": 221,
      "<0xCE>": 222,
      "<0xCF>": 223,
      "<0xD0>": 224,
      "<0xD1>": 225,
      "<0xD2>": 226,
      "<0xD3>": 227,
      "<0xD4>": 228,
      "<0xD5>": 229,
      "<0xD6>": 230,
      "<0xD7>": 231,
      "<0xD8>": 232,
      "<0xD9>": 233,
      "<0xDA>": 234,
      "<0xDB>": 235,
      "<0xDC>": 236,
      "<0xDD>": 237,
      "<0xDE>": 238,
      "<0xDF>": 239,
      "<0xE0>": 240,
      "<0xE1>": 241,
      "<0xE2>": 242,
      "<0xE3>": 243,
      "<0xE4>": 244,
      "<0xE5>": 245,
      "<0xE6>": 246,
      "<0xE7>": 247,
      "<0xE8>": 248,
      "<0xE9>": 249,
      "<0xEA>": 250,
      "<0xEB>": 251,
      "<0xEC>": 252,
      "<0xED>": 253,
      "<0xEE>": 254,
      "<0xEF>": 255,
      "<0xF0>": 256,
      "<0xF1>": 257,
      "<0xF2>": 258,
      "<0xF3>": 259,
      "<0xF4>": 260,
      "<0xF5>": 261,
      "<0xF6>": 262,
      "<0xF7>": 263,
      "<0xF8>": 264,
      "<0xF9>": 265,
      "<0xFA>": 266,
      "<0xFB>": 267,
      "<0xFC>": 268,
      "<0xFD>": 269,
      "<0xFE>": 270,
      "<0xFF>": 271,
      "▁t": 272,
      "in": 273,
      "▁a": 274,
      "he": 275,
      "re": 276,
      "on": 277,
      "er": 278,
      "at": 279,
      "▁the": 280,
      "▁s": 281,
      "en": 282,
      "it": 283,
      "▁c": 284,
      "or": 285,
      "▁w": 286,
      "▁.": 287,
      "an": 288,
      "is": 289,
      "es": 290,
      "▁이": 291,
      "▁o": 292,
      "▁p": 293,
      "al": 294,
      "ed": 295,
      "▁f": 296,
      "ing": 297,
      "▁b": 298,
      "ar": 299,
      "▁에": 300,
      "▁다": 301,
      "▁in": 302,
      "ou": 303,
      "▁d": 304,
      "▁an": 305,
      "▁는": 306,
      "le": 307,
      "▁m": 308,
      "ic": 309,
      "ion": 310,
      "▁of": 311,
      "▁to": 312,
      "▁을": 313,
      "as": 314,
      "▁의": 315,
      "ro": 316,
      "▁and": 317,
      "▁하": 318,
      "▁(": 319,
      "▁h": 320,
      "▁,": 321,
      "ent": 322,
      "▁th": 323,
      "ct": 324,
      "st": 325,
      "om": 326,
      "▁n": 327,
      "et": 328,
      "▁re": 329,
      "▁가": 330,
      "id": 331,
      "el": 332,
      "▁고": 333,
      "▁를": 334,
      "▁l": 335,
      "▁\\": 336,
      "il": 337,
      "▁한": 338,
      "▁은": 339,
      "▁\"": 340,
      "▁e": 341,
      "ut": 342,
      ".\\": 343,
      "ra": 344,
      "ve": 345,
      "im": 346,
      "ot": 347,
      "▁지": 348,
      "▁)": 349,
      "▁g": 350,
      "▁T": 351,
      "ol": 352,
      "▁I": 353,
      "▁기": 354,
      "ig": 355,
      "▁is": 356,
      "ow": 357,
      "us": 358,
      "▁있": 359,
      "am": 360,
      "▁S": 361,
      "ur": 362,
      "ation": 363,
      "\\\"": 364,
      "▁으": 365,
      "▁'": 366,
      "ly": 367,
      "un": 368,
      "ce": 369,
      "▁대": 370,
      "▁A": 371,
      "▁for": 372,
      "▁on": 373,
      "\\\\": 374,
      "ver": 375,
      "▁도": 376,
      "▁C": 377,
      "ch": 378,
      "▁be": 379,
      "ad": 380,
      "▁으로": 381,
      "▁st": 382,
      "▁that": 383,
      "▁수": 384,
      "ay": 385,
      "ul": 386,
      "ith": 387,
      "▁사": 388,
      "▁전": 389,
      "▁시": 390,
      "▁y": 391,
      "▁로": 392,
      "os": 393,
      "▁인": 394,
      "ter": 395,
      "▁with": 396,
      "▁에서": 397,
      "if": 398,
      "▁M": 399,
      "pe": 400,
      "od": 401,
      "▁일": 402,
      "em": 403,
      "um": 404,
      "▁it": 405,
      "▁con": 406,
      "ir": 407,
      "▁했": 408,
      "▁들": 409,
      "▁P": 410,
      "▁과": 411,
      "▁as": 412,
      "ag": 413,
      "▁v": 414,
      "ate": 415,
      "▁pro": 416,
      "ac": 417,
      "\":": 418,
      "▁=": 419,
      "▁해": 420,
      "ab": 421,
      "red": 422,
      "▁B": 423,
      "▁de": 424,
      "▁al": 425,
      "▁제": 426,
      "ew": 427,
      "est": 428,
      "qu": 429,
      "▁he": 430,
      "▁어": 431,
      "▁wh": 432,
      "ri": 433,
      "▁we": 434,
      "▁적": 435,
      "res": 436,
      "▁부": 437,
      "▁you": 438,
      "te": 439,
      "▁-": 440,
      "▁아": 441,
      "▁것": 442,
      "▁보": 443,
      "se": 444,
      "▁상": 445,
      "▁com": 446,
      "op": 447,
      "ist": 448,
      "▁D": 449,
      "nt": 450,
      "▁$": 451,
      "oc": 452,
      "ers": 453,
      "▁자": 454,
      "▁ex": 455,
      "ill": 456,
      "ke": 457,
      "▁정": 458,
      "ld": 459,
      "--": 460,
      "▁그": 461,
      "pp": 462,
      "▁위": 463,
      "▁F": 464,
      "th": 465,
      "and": 466,
      "▁주": 467,
      "▁se": 468,
      "▁at": 469,
      "ht": 470,
      "▁되": 471,
      "▁H": 472,
      "▁The": 473,
      "iv": 474,
      "her": 475,
      "▁R": 476,
      "▁W": 477,
      "rom": 478,
      "ity": 479,
      "▁경": 480,
      "▁was": 481,
      "ore": 482,
      "ant": 483,
      "▁ha": 484,
      "▁등": 485,
      "▁r": 486,
      "▁공": 487,
      "▁[": 488,
      "nd": 489,
      "▁are": 490,
      "ess": 491,
      "ction": 492,
      "ment": 493,
      ";\\": 494,
      "▁N": 495,
      "xt": 496,
      "ub": 497,
      "▁만": 498,
      "▁된": 499,
      "ain": 500,
      "ort": 501,
      "▁와": 502,
      "▁this": 503,
      "▁us": 504,
      "▁or": 505,
      "▁L": 506,
      "ive": 507,
      "▁여": 508,
      "pt": 509,
      "▁E": 510,
      "▁by": 511,
      "▁할": 512,
      "▁중": 513,
      "▁나": 514,
      "▁면": 515,
      "ated": 516,
      "▁라": 517,
      "▁게": 518,
      "▁개": 519,
      "end": 520,
      "▁G": 521,
      "art": 522,
      "▁조": 523,
      "▁not": 524,
      "ang": 525,
      ":\\": 526,
      "▁from": 527,
      "▁have": 528,
      "pl": 529,
      "▁ch": 530,
      "▁\\\"": 531,
      "og": 532,
      "▁k": 533,
      "ud": 534,
      "ight": 535,
      "▁sh": 536,
      "ould": 537,
      "▁관": 538,
      "dit": 539,
      "ial": 540,
      "ies": 541,
      "tit": 542,
      "▁un": 543,
      "▁원": 544,
      "fe": 545,
      "ine": 546,
      "all": 547,
      "',": 548,
      "ack": 549,
      "nT": 550,
      "\",": 551,
      "▁can": 552,
      "▁연": 553,
      "▁le": 554,
      "ell": 555,
      "ure": 556,
      "▁성": 557,
      "▁한다": 558,
      "▁O": 559,
      "up": 560,
      "ust": 561,
      "▁서": 562,
      "▁국": 563,
      "▁내": 564,
      "▁유": 565,
      "▁en": 566,
      "▁구": 567,
      "ost": 568,
      "out": 569,
      "▁발": 570,
      "니다": 571,
      "ord": 572,
      "ue": 573,
      "iz": 574,
      "ame": 575,
      "▁ne": 576,
      "ical": 577,
      "▁j": 578,
      "]\\": 579,
      "rou": 580,
      "ass": 581,
      "▁소": 582,
      "▁재": 583,
      "ty": 584,
      "▁오": 585,
      "age": 586,
      "▁년": 587,
      "nI": 588,
      "ib": 589,
      "▁비": 590,
      "ap": 591,
      "▁ab": 592,
      "▁모": 593,
      "nA": 594,
      "our": 595,
      "▁방": 596,
      "com": 597,
      "ans": 598,
      "▁U": 599,
      "ult": 600,
      "▁신": 601,
      "▁cl": 602,
      "▁J": 603,
      "▁res": 604,
      "▁do": 605,
      "▁무": 606,
      "ast": 607,
      "ard": 608,
      "▁통": 609,
      "▁im": 610,
      "ase": 611,
      "ide": 612,
      "▁예": 613,
      "ich": 614,
      "ind": 615,
      "▁ad": 616,
      "▁pl": 617,
      "ia": 618,
      "▁선": 619,
      "ak": 620,
      "▁su": 621,
      "title": 622,
      "▁whe": 623,
      "▁but": 624,
      "▁었": 625,
      "reddit": 626,
      "▁has": 627,
      "cre": 628,
      "▁마": 629,
      "▁<": 630,
      "▁분": 631,
      "▁%": 632,
      "cl": 633,
      "▁실": 634,
      "▁장": 635,
      "act": 636,
      "▁및": 637,
      "orm": 638,
      "▁comp": 639,
      "▁며": 640,
      "low": 641,
      ")\\": 642,
      "per": 643,
      "▁['": 644,
      "▁배": 645,
      "able": 646,
      "']\\": 647,
      "ork": 648,
      "▁세": 649,
      "ign": 650,
      "ry": 651,
      "▁were": 652,
      "ile": 653,
      "ok": 654,
      "av": 655,
      "ph": 656,
      "▁미": 657,
      "ong": 658,
      "▁명": 659,
      "▁me": 660,
      "▁qu": 661,
      "▁cont": 662,
      "▁거": 663,
      "ount": 664,
      "ome": 665,
      "text": 666,
      "▁K": 667,
      "▁\\\\": 668,
      "cc": 669,
      "▁금": 670,
      ");\\": 671,
      "ice": 672,
      "▁will": 673,
      "▁회": 674,
      "▁{": 675,
      "ip": 676,
      "==": 677,
      "▁화": 678,
      "▁동": 679,
      "ents": 680,
      "//": 681,
      "----": 682,
      "▁단": 683,
      "}\\": 684,
      "ff": 685,
      "one": 686,
      "ime": 687,
      "int": 688,
      "ther": 689,
      "▁int": 690,
      "▁안": 691,
      "▁sa": 692,
      "are": 693,
      "ous": 694,
      "▁스": 695,
      "▁go": 696,
      "ge": 697,
      "▁않": 698,
      "ect": 699,
      "ress": 700,
      "▁말": 701,
      "▁문": 702,
      "con": 703,
      "ary": 704,
      "nThe": 705,
      "port": 706,
      "der": 707,
      "▁out": 708,
      "▁생": 709,
      "▁월": 710,
      "ie": 711,
      "ear": 712,
      "ions": 713,
      "du": 714,
      "▁·": 715,
      "▁바": 716,
      "ens": 717,
      "ns": 718,
      "▁which": 719,
      "raw": 720,
      "ations": 721,
      "▁최": 722,
      "▁차": 723,
      ">\\": 724,
      "▁따": 725,
      "ep": 726,
      "▁교": 727,
      "so": 728,
      "▁:": 729,
      "▁all": 730,
      "▁계": 731,
      "▁영": 732,
      "▁per": 733,
      "▁In": 734,
      "▁없": 735,
      "▁”": 736,
      "▁진": 737,
      "▁dis": 738,
      "=\\\"": 739,
      "▁if": 740,
      "▁’": 741,
      "▁당": 742,
      "ru": 743,
      "lic": 744,
      "ber": 745,
      "gh": 746,
      "▁new": 747,
      "ire": 748,
      "▁포": 749,
      "ail": 750,
      "type": 751,
      "▁때": 752,
      "▁li": 753,
      "▁우": 754,
      "▁“": 755,
      "ally": 756,
      "▁강": 757,
      "▁습": 758,
      "ite": 759,
      "▁입": 760,
      "ence": 761,
      "▁현": 762,
      "▁Th": 763,
      "ace": 764,
      "▁결": 765,
      "ose": 766,
      "▁V": 767,
      "▁one": 768,
      "ance": 769,
      "▁‘": 770,
      "ath": 771,
      "▁more": 772,
      "▁they": 773,
      "▁up": 774,
      ",\\": 775,
      "les": 776,
      "ely": 777,
      "▁ar": 778,
      ").": 779,
      "▁저": 780,
      "▁tr": 781,
      "ata": 782,
      "ach": 783,
      "ren": 784,
      "▁ev": 785,
      "▁so": 786,
      "nreddit": 787,
      "▁확": 788,
      "ake": 789,
      "▁>": 790,
      "▁their": 791,
      "▁습니다": 792,
      "▁your": 793,
      "▁까": 794,
      "ys": 795,
      "\"}": 796,
      "▁said": 797,
      "{\"": 798,
      "vel": 799,
      "ory": 800,
      "form": 801,
      "ll": 802,
      "▁his": 803,
      "▁설": 804,
      "▁app": 805,
      "▁/": 806,
      "▁까지": 807,
      "tp": 808,
      "ne": 809,
      "▁반": 810,
      "ww": 811,
      "▁sp": 812,
      "▁St": 813,
      "▁would": 814,
      "▁추": 815,
      "ook": 816,
      "▁받": 817,
      "▁또": 818,
      "▁work": 819,
      "very": 820,
      "▁ag": 821,
      "ors": 822,
      "▁형": 823,
      "fter": 824,
      "▁감": 825,
      "),": 826,
      "ob": 827,
      "▁매": 828,
      "ck": 829,
      "▁된다": 830,
      "▁who": 831,
      "eth": 832,
      "▁my": 833,
      "▁후": 834,
      "▁pre": 835,
      "erv": 836,
      "▁get": 837,
      "▁특": 838,
      "..": 839,
      "de": 840,
      "▁더": 841,
      "▁te": 842,
      "▁there": 843,
      "▁노": 844,
      "ound": 845,
      "ject": 846,
      "▁about": 847,
      "ays": 848,
      "▁{\\": 849,
      "iew": 850,
      "we": 851,
      "rent": 852,
      "▁같": 853,
      "▁part": 854,
      "ple": 855,
      "▁sc": 856,
      "▁been": 857,
      "ring": 858,
      "▁=>": 859,
      "▁본": 860,
      "▁man": 861,
      "ode": 862,
      "▁대한": 863,
      "_{": 864,
      "▁co": 865,
      "own": 866,
      "▁other": 867,
      "row": 868,
      "▁건": 869,
      "▁than": 870,
      "▁불": 871,
      "▁also": 872,
      "wo": 873,
      "▁던": 874,
      "ft": 875,
      "▁no": 876,
      "aus": 877,
      "reat": 878,
      "▁like": 879,
      "▁]": 880,
      "▁when": 881,
      "▁some": 882,
      "▁am": 883,
      "▁상기": 884,
      "://": 885,
      "nS": 886,
      "▁any": 887,
      "▁다고": 888,
      "▁fun": 889,
      "son": 890,
      "▁지난": 891,
      "▁over": 892,
      "ific": 893,
      "▁에게": 894,
      "ree": 895,
      "▁함": 896,
      "▁Y": 897,
      "lect": 898,
      "irst": 899,
      "▁투": 900,
      "▁면서": 901,
      "ick": 902,
      "▁bet": 903,
      "▁had": 904,
      "▁sy": 905,
      "▁뉴": 906,
      "▁ob": 907,
      "▁its": 908,
      "get": 909,
      "▁증": 910,
      "ates": 911,
      "▁use": 912,
      "▁time": 913,
      "ink": 914,
      "▁달": 915,
      "▁@": 916,
      "ark": 917,
      "▁김": 918,
      "▁year": 919,
      "pect": 920,
      "vers": 921,
      "▁dif": 922,
      "▁학": 923,
      "▁코": 924,
      "ian": 925,
      "▁지만": 926,
      "▁억": 927,
      "▁off": 928,
      "fect": 929,
      "▁될": 930,
      "▁출": 931,
      "ces": 932,
      "▁처": 933,
      "▁위해": 934,
      "▁됐": 935,
      "ram": 936,
      "ont": 937,
      "ati": 938,
      "▁pe": 939,
      "ttp": 940,
      "▁inter": 941,
      "?\\": 942,
      "▁after": 943,
      "▁Ch": 944,
      "▁겠": 945,
      "▁&": 946,
      "▁요": 947,
      "ange": 948,
      "ov": 949,
      "▁평": 950,
      "ild": 951,
      "▁ass": 952,
      "▁았": 953,
      "▁val": 954,
      "mer": 955,
      "▁간": 956,
      "▁라고": 957,
      "ced": 958,
      "▁산": 959,
      "urn": 960,
      "▁행": 961,
      "▁into": 962,
      "▁act": 963,
      "▁물": 964,
      "▁다는": 965,
      "▁pol": 966,
      "▁rec": 967,
      "▁http": 968,
      "ict": 969,
      "▁권": 970,
      "▁기자": 971,
      "▁올": 972,
      "▁데": 973,
      "▁what": 974,
      "▁two": 975,
      "▁프": 976,
      "li": 977,
      "ock": 978,
      "ident": 979,
      "ove": 980,
      "▁It": 981,
      "▁?": 982,
      "ular": 983,
      "▁ph": 984,
      "▁acc": 985,
      "▁+": 986,
      "▁kn": 987,
      "▁col": 988,
      "▁밝": 989,
      "▁just": 990,
      "▁운": 991,
      "ari": 992,
      "▁only": 993,
      "▁금지": 994,
      "ish": 995,
      "▁열": 996,
      "▁des": 997,
      "▁stud": 998,
      "pec": 999,
      "▁need": 1000,
      "▁tra": 1001,
      "▁la": 1002,
      "erm": 1003,
      "▁판": 1004,
      "over": 1005,
      "nW": 1006,
      "rib": 1007,
      "▁ret": 1008,
      "▁how": 1009,
      "ings": 1010,
      "▁mod": 1011,
      "cs": 1012,
      "pon": 1013,
      "▁파": 1014,
      "word": 1015,
      "▁알": 1016,
      "▁them": 1017,
      "▁ro": 1018,
      "ublic": 1019,
      "▁청": 1020,
      "ec": 1021,
      "▁법": 1022,
      "▁외": 1023,
      "▁부터": 1024,
      "▁서울": 1025,
      "▁ra": 1026,
      "▁작": 1027,
      "▁참": 1028,
      "url": 1029,
      "▁사업": 1030,
      "**": 1031,
      "igh": 1032,
      "▁경우": 1033,
      "che": 1034,
      "▁first": 1035,
      "▁남": 1036,
      "ual": 1037,
      "▁점": 1038,
      "rit": 1039,
      "▁bl": 1040,
      "roup": 1041,
      "▁업": 1042,
      "▁무단": 1043,
      "ews": 1044,
      "iss": 1045,
      "▁i": 1046,
      "ause": 1047,
      "▁gen": 1048,
      "▁pos": 1049,
      "▁using": 1050,
      "stem": 1051,
      "ased": 1052,
      "▁용": 1053,
      "▁직": 1054,
      "▁한국": 1055,
      "▁피": 1056,
      "▁전재": 1057,
      "▁$\\\\": 1058,
      "ople": 1059,
      "cy": 1060,
      "pro": 1061,
      "ative": 1062,
      "▁종": 1063,
      "====": 1064,
      "▁comm": 1065,
      "▁set": 1066,
      "▁통해": 1067,
      "▁pr": 1068,
      "ble": 1069,
      "ffect": 1070,
      "nl": 1071,
      "▁fol": 1072,
      "──": 1073,
      "olog": 1074,
      "▁want": 1075,
      "▁배포": 1076,
      "ics": 1077,
      "▁검": 1078,
      "clud": 1079,
      "ition": 1080,
      "▁합": 1081,
      "▁inv": 1082,
      "▁diffe": 1083,
      "oint": 1084,
      "▁호": 1085,
      "▁많": 1086,
      "▁sub": 1087,
      "count": 1088,
      "▁체": 1089,
      "▁reg": 1090,
      "▁활": 1091,
      "▁could": 1092,
      "ax": 1093,
      "▁trans": 1094,
      "▁변": 1095,
      "▁function": 1096,
      "▁사용": 1097,
      "▁}\\": 1098,
      "▁under": 1099,
      "▁지역": 1100,
      "▁역": 1101,
      "▁our": 1102,
      "▁pres": 1103,
      "▁각": 1104,
      "▁class": 1105,
      "▁cons": 1106,
      "ert": 1107,
      "▁em": 1108,
      "▁경제": 1109,
      "▁협": 1110,
      "▁data": 1111,
      "old": 1112,
      "ex": 1113,
      "ox": 1114,
      "▁필": 1115,
      "▁ac": 1116,
      "▁두": 1117,
      "▁show": 1118,
      "▁att": 1119,
      "▁We": 1120,
      "▁번": 1121,
      "{\\\\": 1122,
      "ption": 1123,
      "--------": 1124,
      "}$": 1125,
      "▁도록": 1126,
      "▁총": 1127,
      "The": 1128,
      "▁pati": 1129,
      "▁시장": 1130,
      "nH": 1131,
      "▁ind": 1132,
      "oth": 1133,
      "▁sign": 1134,
      "ater": 1135,
      "▁집": 1136,
      "▁people": 1137,
      "json": 1138,
      "▁result": 1139,
      "▁민": 1140,
      "ating": 1141,
      "▁det": 1142,
      "iel": 1143,
      "▁양": 1144,
      "▁where": 1145,
      "▁리": 1146,
      "day": 1147,
      "▁보다": 1148,
      "▁아니": 1149,
      "\\\",": 1150,
      "▁This": 1151,
      "()": 1152,
      "▁규": 1153,
      "ues": 1154,
      "▁가능": 1155,
      "▁임": 1156,
      "▁rel": 1157,
      "▁these": 1158,
      "▁def": 1159,
      "▁밝혔": 1160,
      "put": 1161,
      "▁박": 1162,
      "ween": 1163,
      "round": 1164,
      "▁then": 1165,
      "▁위원": 1166,
      "ning": 1167,
      "▁should": 1168,
      "▁씨": 1169,
      "▁대해": 1170,
      "cess": 1171,
      "▁~": 1172,
      "▁cor": 1173,
      "ss": 1174,
      "▁치": 1175,
      "ution": 1176,
      "ied": 1177,
      "</": 1178,
      "▁her": 1179,
      "elf": 1180,
      "▁초": 1181,
      "ump": 1182,
      "▁sim": 1183,
      "created": 1184,
      "▁add": 1185,
      "co": 1186,
      "▁may": 1187,
      "ible": 1188,
      "▁따라": 1189,
      "nsub": 1190,
      "ype": 1191,
      "nC": 1192,
      "▁때문": 1193,
      "▁between": 1194,
      "nurl": 1195,
      "titles": 1196,
      "▁follow": 1197,
      "fore": 1198,
      "zst": 1199,
      "nword": 1200,
      "▁표": 1201,
      "reddits": 1202,
      "nlang": 1203,
      "jsonl": 1204,
      "utcs": 1205,
      "nsubreddits": 1206,
      "ility": 1207,
      "ood": 1208,
      "▁He": 1209,
      "txt": 1210,
      "▁라는": 1211,
      "uring": 1212,
      "ting": 1213,
      "▁sur": 1214,
      "▁|": 1215,
      "▁num": 1216,
      "ek": 1217,
      "ons": 1218,
      "ug": 1219,
      "▁환": 1220,
      "ough": 1221,
      "▁기업": 1222,
      "ize": 1223,
      "▁bec": 1224,
      "▁back": 1225,
      "▁높": 1226,
      "St": 1227,
      "ng": 1228,
      "▁지원": 1229,
      "ma": 1230,
      "▁위한": 1231,
      "▁call": 1232,
      "inal": 1233,
      "ise": 1234,
      "ments": 1235,
      "▁심": 1236,
      "▁rem": 1237,
      "▁fe": 1238,
      "▁does": 1239,
      "ious": 1240,
      "▁inst": 1241,
      "▁Re": 1242,
      "▁supp": 1243,
      "▁관련": 1244,
      "▁par": 1245,
      "▁는데": 1246,
      "ull": 1247,
      "▁사람": 1248,
      "amp": 1249,
      "▁exp": 1250,
      "ix": 1251,
      "hat": 1252,
      "▁광": 1253,
      "▁most": 1254,
      "▁이상": 1255,
      "▁end": 1256,
      "▁이름": 1257,
      "ield": 1258,
      "▁way": 1259,
      "hen": 1260,
      "ank": 1261,
      "▁시간": 1262,
      "ade": 1263,
      "▁대표": 1264,
      "▁know": 1265,
      "▁타": 1266,
      "uc": 1267,
      "▁group": 1268,
      "▁였": 1269,
      "▁play": 1270,
      "▁복": 1271,
      "▁정부": 1272,
      "▁patients": 1273,
      "nB": 1274,
      "▁form": 1275,
      "▁she": 1276,
      "orld": 1277,
      "▁관계": 1278,
      "▁디": 1279,
      "▁언": 1280,
      "als": 1281,
      "▁cell": 1282,
      "▁ser": 1283,
      "▁Tr": 1284,
      "▁뉴스": 1285,
      "read": 1286,
      "▁fl": 1287,
      "ient": 1288,
      "oy": 1289,
      "ures": 1290,
      "▁포함": 1291,
      "▁includ": 1292,
      "▁앞": 1293,
      "▁또는": 1294,
      "▁spec": 1295,
      "io": 1296,
      "▁정보": 1297,
      "▁실시": 1298,
      "▁el": 1299,
      "▁because": 1300,
      "▁문제": 1301,
      "(\\\"": 1302,
      "▁우리": 1303,
      "▁음": 1304,
      "ities": 1305,
      "▁천": 1306,
      "nM": 1307,
      "ism": 1308,
      "let": 1309,
      "ational": 1310,
      "ract": 1311,
      "▁used": 1312,
      "▁di": 1313,
      "▁ke": 1314,
      "rough": 1315,
      "nF": 1316,
      "▁목": 1317,
      "▁system": 1318,
      "▁측": 1319,
      "▁effect": 1320,
      "to": 1321,
      "▁make": 1322,
      "▁약": 1323,
      "▁don": 1324,
      "ins": 1325,
      "ful": 1326,
      "▁mon": 1327,
      "▁again": 1328,
      "err": 1329,
      "cent": 1330,
      "tern": 1331,
      "▁카": 1332,
      "^{": 1333,
      "its": 1334,
      "▁새": 1335,
      "ric": 1336,
      "ray": 1337,
      "▁char": 1338,
      "▁different": 1339,
      "▁did": 1340,
      "▁look": 1341,
      "▁드": 1342,
      "be": 1343,
      "ethod": 1344,
      "▁prov": 1345,
      "▁못": 1346,
      "▁ext": 1347,
      "▁same": 1348,
      "atch": 1349,
      "uch": 1350,
      "▁}": 1351,
      "ically": 1352,
      "▁발명": 1353,
      "ement": 1354,
      "the": 1355,
      "right": 1356,
      "riv": 1357,
      "▁now": 1358,
      "sc": 1359,
      "hed": 1360,
      "arch": 1361,
      "ton": 1362,
      "ever": 1363,
      "flow": 1364,
      "▁years": 1365,
      "▁cur": 1366,
      "▁high": 1367,
      "ger": 1368,
      "▁접": 1369,
      "▁produ": 1370,
      "oad": 1371,
      "velop": 1372,
      "ined": 1373,
      "▁기술": 1374,
      "ines": 1375,
      "rac": 1376,
      "▁such": 1377,
      "ash": 1378,
      "▁온": 1379,
      "▁ent": 1380,
      "lp": 1381,
      "▁incre": 1382,
      "▁return": 1383,
      "ower": 1384,
      "▁채": 1385,
      "imes": 1386,
      "www": 1387,
      "▁well": 1388,
      "ef": 1389,
      "▁메": 1390,
      "▁report": 1391,
      "ince": 1392,
      "pr": 1393,
      "▁제공": 1394,
      "▁through": 1395,
      "▁이용": 1396,
      "▁bu": 1397,
      "통령": 1398,
      "▁every": 1399,
      "▁함께": 1400,
      "▁트": 1401,
      "▁sol": 1402,
      "ars": 1403,
      "▁see": 1404,
      "vent": 1405,
      "▁크": 1406,
      "wn": 1407,
      "▁sm": 1408,
      "ized": 1409,
      "▁med": 1410,
      "▁requ": 1411,
      "▁even": 1412,
      "▁min": 1413,
      "▁test": 1414,
      "▁Un": 1415,
      "irect": 1416,
      "rol": 1417,
      "other": 1418,
      "레이": 1419,
      "ta": 1420,
      "▁che": 1421,
      "▁식": 1422,
      "권자": 1423,
      "▁취": 1424,
      "▁미국": 1425,
      "▁대통령": 1426,
      "ruct": 1427,
      "ER": 1428,
      "ctions": 1429,
      "ample": 1430,
      "▁교육": 1431,
      "app": 1432,
      "▁항": 1433,
      "ited": 1434,
      "▁find": 1435,
      "ional": 1436,
      "▁run": 1437,
      "▁저작": 1438,
      "atic": 1439,
      "nIn": 1440,
      "▁gener": 1441,
      "▁som": 1442,
      "ases": 1443,
      "nP": 1444,
      "ages": 1445,
      "gg": 1446,
      "▁right": 1447,
      "▁found": 1448,
      "▁long": 1449,
      "ml": 1450,
      "▁public": 1451,
      "▁ap": 1452,
      "▁연구": 1453,
      "▁start": 1454,
      "▁군": 1455,
      "cept": 1456,
      "▁vari": 1457,
      "▁다른": 1458,
      "▁투자": 1459,
      "▁point": 1460,
      "yn": 1461,
      "▁야": 1462,
      "▁conf": 1463,
      "▁ins": 1464,
      "▁code": 1465,
      "▁필요": 1466,
      ".\\\"": 1467,
      "stack": 1468,
      "▁help": 1469,
      "blem": 1470,
      "▁both": 1471,
      "ute": 1472,
      "ale": 1473,
      "▁속": 1474,
      "▁bel": 1475,
      "uss": 1476,
      "▁살": 1477,
      "cer": 1478,
      "cond": 1479,
      "▁those": 1480,
      "▁좋": 1481,
      "▁during": 1482,
      "▁프로": 1483,
      "▁맞": 1484,
      "ared": 1485,
      "pos": 1486,
      "▁aut": 1487,
      "view": 1488,
      "overflow": 1489,
      "▁him": 1490,
      "▁being": 1491,
      "▁순": 1492,
      "ann": 1493,
      "val": 1494,
      "nD": 1495,
      "▁북": 1496,
      "▁fact": 1497,
      "▁사회": 1498,
      "pen": 1499,
      "▁계획": 1500,
      "ron": 1501,
      "nO": 1502,
      "news": 1503,
      "▁cre": 1504,
      "▁very": 1505,
      "▁here": 1506,
      "]{": 1507,
      "▁count": 1508,
      "aking": 1509,
      "In": 1510,
      "oci": 1511,
      "stackoverflow": 1512,
      "▁설명": 1513,
      "▁Se": 1514,
      "▁*": 1515,
      "▁inf": 1516,
      "▁respon": 1517,
      "▁x": 1518,
      "▁충": 1519,
      "oid": 1520,
      "▁dec": 1521,
      "itt": 1522,
      "▁value": 1523,
      "▁ⓒ": 1524,
      "▁loc": 1525,
      "▁개발": 1526,
      "his": 1527,
      "▁dist": 1528,
      "▁별": 1529,
      "▁method": 1530,
      "▁해야": 1531,
      "▁think": 1532,
      "▁before": 1533,
      "▁case": 1534,
      "▁의원": 1535,
      "▁many": 1536,
      "▁develop": 1537,
      "▁//": 1538,
      "▁진행": 1539,
      "sh": 1540,
      "▁조사": 1541,
      "▁while": 1542,
      "▁each": 1543,
      "ool": 1544,
      "▁편": 1545,
      "▁last": 1546,
      "ason": 1547,
      "}\\\\": 1548,
      "▁창": 1549,
      "min": 1550,
      "▁try": 1551,
      "▁car": 1552,
      "▁problem": 1553,
      "any": 1554,
      "▁prog": 1555,
      "ily": 1556,
      "tr": 1557,
      "▁z": 1558,
      "▁세계": 1559,
      "▁저작권자": 1560,
      "▁str": 1561,
      "me": 1562,
      "rence": 1563,
      "ivity": 1564,
      "▁number": 1565,
      "▁돼": 1566,
      "▁결과": 1567,
      "ven": 1568,
      "ran": 1569,
      "ator": 1570,
      "▁하나": 1571,
      "▁손": 1572,
      "▁model": 1573,
      "yp": 1574,
      "▁효": 1575,
      "math": 1576,
      "▁플": 1577,
      "▁백": 1578,
      "▁근": 1579,
      "set": 1580,
      "alth": 1581,
      "ists": 1582,
      "▁이나": 1583,
      "▁네": 1584,
      "▁exper": 1585,
      "▁ele": 1586,
      "('": 1587,
      "▁And": 1588,
      "▁농": 1589,
      "▁study": 1590,
      "▁절": 1591,
      "▁anal": 1592,
      "▁줄": 1593,
      "▁mem": 1594,
      "▁fil": 1595,
      "ner": 1596,
      "ead": 1597,
      "sp": 1598,
      "ave": 1599,
      "air": 1600,
      "▁삼": 1601,
      "▁나타": 1602,
      "▁토": 1603,
      "ral": 1604,
      "▁quest": 1605,
      "rest": 1606,
      "eb": 1607,
      "▁준": 1608,
      "▁But": 1609,
      "ward": 1610,
      "▁돌": 1611,
      "erson": 1612,
      "\\\"\\": 1613,
      "▁down": 1614,
      "▁국민": 1615,
      "▁est": 1616,
      "▁경기": 1617,
      "oun": 1618,
      "nE": 1619,
      "ery": 1620,
      "▁관리": 1621,
      "ually": 1622,
      "▁센": 1623,
      "▁Al": 1624,
      "yl": 1625,
      "▁Pro": 1626,
      "ices": 1627,
      "▁패": 1628,
      "▁level": 1629,
      "▁poss": 1630,
      "eng": 1631,
      "▁much": 1632,
      "nN": 1633,
      "▁</": 1634,
      "▁구성": 1635,
      "uff": 1636,
      "▁own": 1637,
      "▁Com": 1638,
      "▁질": 1639,
      "▁post": 1640,
      "▁giv": 1641,
      "비스": 1642,
      "▁Trump": 1643,
      "▁입니다": 1644,
      "ature": 1645,
      "▁!": 1646,
      "oot": 1647,
      "▁say": 1648,
      "▁appro": 1649,
      "▁ant": 1650,
      "▁생각": 1651,
      "ript": 1652,
      "ody": 1653,
      "▁이번": 1654,
      "▁line": 1655,
      "▁도시": 1656,
      "▁대상": 1657,
      "▁뒤": 1658,
      "ration": 1659,
      "부터": 1660,
      "▁dep": 1661,
      "ization": 1662,
      "▁사이": 1663,
      "▁const": 1664,
      "ively": 1665,
      "▁발생": 1666,
      "gin": 1667,
      "▁이후": 1668,
      "▁inte": 1669,
      "▁담": 1670,
      "▁급": 1671,
      "▁X": 1672,
      "ier": 1673,
      "▁prote": 1674,
      ",\\\"": 1675,
      "nR": 1676,
      "roid": 1677,
      "gan": 1678,
      "▁따른": 1679,
      "raph": 1680,
      "▁중국": 1681,
      "man": 1682,
      "▁상황": 1683,
      "gy": 1684,
      "ument": 1685,
      "bl": 1686,
      "aj": 1687,
      "▁lead": 1688,
      "med": 1689,
      "ential": 1690,
      "ten": 1691,
      "ik": 1692,
      "▁#": 1693,
      "ency": 1694,
      "frac": 1695,
      "▁병": 1696,
      "▁gu": 1697,
      "az": 1698,
      "▁kr": 1699,
      "▁독": 1700,
      "▁후보": 1701,
      "lear": 1702,
      "▁lar": 1703,
      "▁type": 1704,
      "▁read": 1705,
      "▁버": 1706,
      "ters": 1707,
      "▁week": 1708,
      "{\\": 1709,
      "▁three": 1710,
      "ah": 1711,
      "▁서비스": 1712,
      "par": 1713,
      "▁stat": 1714,
      "();\\": 1715,
      "▁state": 1716,
      "▁invest": 1717,
      "▁Q": 1718,
      "▁good": 1719,
      "▁av": 1720,
      "▁still": 1721,
      "▁following": 1722,
      "▁import": 1723,
      "▁가장": 1724,
      "rid": 1725,
      "▁signific": 1726,
      "▁support": 1727,
      "▁https": 1728,
      "ved": 1729,
      "▁아이": 1730,
      "▁완": 1731,
      "▁누": 1732,
      "error": 1733,
      "ants": 1734,
      "alk": 1735,
      "▁file": 1736,
      "▁For": 1737,
      "▁시작": 1738,
      "ST": 1739,
      "ames": 1740,
      "land": 1741,
      "▁으며": 1742,
      "▁non": 1743,
      "▁process": 1744,
      "__": 1745,
      "name": 1746,
      "ife": 1747,
      "▁hand": 1748,
      "IN": 1749,
      "▁dem": 1750,
      "▁against": 1751,
      "▁If": 1752,
      "▁second": 1753,
      "hes": 1754,
      ")$": 1755,
      "▁승": 1756,
      "▁list": 1757,
      "▁갖": 1758,
      "AT": 1759,
      "▁걸": 1760,
      "▁tri": 1761,
      "way": 1762,
      "ts": 1763,
      "스트": 1764,
      "▁name": 1765,
      "roll": 1766,
      "▁expl": 1767,
      "ital": 1768,
      "ym": 1769,
      "▁니": 1770,
      "chn": 1771,
      "nL": 1772,
      "▁partic": 1773,
      "▁You": 1774,
      "ouse": 1775,
      "▁ear": 1776,
      "meric": 1777,
      "ond": 1778,
      "of": 1779,
      "▁운영": 1780,
      "▁잘": 1781,
      "ression": 1782,
      "ulation": 1783,
      "▁made": 1784,
      "▁예정": 1785,
      "vern": 1786,
      "▁rep": 1787,
      "ider": 1788,
      "line": 1789,
      "▁How": 1790,
      "▁산업": 1791,
      "▁현재": 1792,
      "ote": 1793,
      "▁국내": 1794,
      "formation": 1795,
      "ething": 1796,
      "}}": 1797,
      "▁통신": 1798,
      "▁커": 1799,
      "▁금융": 1800,
      ".\"}": 1801,
      "ource": 1802,
      "bb": 1803,
      "ava": 1804,
      "str": 1805,
      "]{}": 1806,
      "ets": 1807,
      "ole": 1808,
      "▁pass": 1809,
      "▁논": 1810,
      "▁연합": 1811,
      "▁serv": 1812,
      "▁브": 1813,
      "로나": 1814,
      "▁gl": 1815,
      "▁significant": 1816,
      "led": 1817,
      "▁results": 1818,
      "▁ref": 1819,
      "▁형성": 1820,
      "▁direct": 1821,
      "▁Is": 1822,
      "▁que": 1823,
      "▁Z": 1824,
      "▁ed": 1825,
      "ser": 1826,
      "▁cent": 1827,
      "▁거나": 1828,
      "▁take": 1829,
      "▁기준": 1830,
      "▁장치": 1831,
      "ON": 1832,
      "▁층": 1833,
      "▁met": 1834,
      "▁가지": 1835,
      "▁main": 1836,
      "▁문화": 1837,
      "ium": 1838,
      "▁del": 1839,
      "agn": 1840,
      "▁govern": 1841,
      "hip": 1842,
      "▁정책": 1843,
      "▁따르": 1844,
      "uro": 1845,
      "ality": 1846,
      "abel": 1847,
      "▁그러": 1848,
      "▁current": 1849,
      "▁향": 1850,
      "ired": 1851,
      "▁mat": 1852,
      "div": 1853,
      "▁곳": 1854,
      "ified": 1855,
      "▁전문": 1856,
      "▁As": 1857,
      "for": 1858,
      "▁An": 1859,
      "que": 1860,
      "▁without": 1861,
      "▁방법": 1862,
      "▁iss": 1863,
      "▁equ": 1864,
      "▁평가": 1865,
      "▁자신": 1866,
      "▁모두": 1867,
      "▁늘": 1868,
      "aw": 1869,
      "▁chang": 1870,
      "========": 1871,
      "▁다양": 1872,
      "ross": 1873,
      "▁지난해": 1874,
      "acter": 1875,
      "▁테": 1876,
      "▁기관": 1877,
      "▁es": 1878,
      "und": 1879,
      "ext": 1880,
      "▁Sh": 1881,
      "rap": 1882,
      "▁사실": 1883,
      "▁perform": 1884,
      "serv": 1885,
      "tic": 1886,
      "ained": 1887,
      "▁Ar": 1888,
      "▁child": 1889,
      "▁폭": 1890,
      "▁month": 1891,
      "illion": 1892,
      "ats": 1893,
      "▁관계자": 1894,
      "/\\": 1895,
      "ems": 1896,
      "ology": 1897,
      "▁going": 1898,
      "View": 1899,
      "▁정도": 1900,
      "▁disc": 1901,
      "▁태": 1902,
      "▁는다": 1903,
      "au": 1904,
      "▁treat": 1905,
      "▁team": 1906,
      "▁US": 1907,
      "▁Americ": 1908,
      ").\\": 1909,
      "come": 1910,
      "▁mark": 1911,
      "▁코로나": 1912,
      "ane": 1913,
      "▁증가": 1914,
      "▁사진": 1915,
      "▁change": 1916,
      "}{": 1917,
      "▁국가": 1918,
      "▁et": 1919,
      "opy": 1920,
      "ify": 1921,
      "▁글": 1922,
      "▁큰": 1923,
      "▁something": 1924,
      "▁축": 1925,
      "▁meas": 1926,
      "▁since": 1927,
      "▁world": 1928,
      "ior": 1929,
      "▁mult": 1930,
      "▁says": 1931,
      "▁Ph": 1932,
      "▁시스": 1933,
      "▁결정": 1934,
      "▁라며": 1935,
      "▁범": 1936,
      "NA": 1937,
      "▁길": 1938,
      "ask": 1939,
      "▁기록": 1940,
      "ina": 1941,
      "▁날": 1942,
      "omen": 1943,
      "▁great": 1944,
      "▁Cl": 1945,
      "ving": 1946,
      "▁De": 1947,
      "add": 1948,
      "].": 1949,
      "ather": 1950,
      "nY": 1951,
      "▁대학": 1952,
      "ffic": 1953,
      "akes": 1954,
      "bers": 1955,
      "ision": 1956,
      "▁control": 1957,
      "▁허": 1958,
      "▁open": 1959,
      "ience": 1960,
      "▁이라": 1961,
      "▁만들": 1962,
      "▁올해": 1963,
      "▁상태": 1964,
      "▁찾": 1965,
      "▁field": 1966,
      "arent": 1967,
      "▁Wh": 1968,
      "▁려": 1969,
      "gen": 1970,
      "▁넘": 1971,
      "▁fin": 1972,
      "▁allow": 1973,
      "ness": 1974,
      "▁around": 1975,
      "▁example": 1976,
      "이터": 1977,
      "vert": 1978,
      "▁이날": 1979,
      "▁New": 1980,
      "▁fam": 1981,
      "▁단계": 1982,
      "시스": 1983,
      "ording": 1984,
      "▁Le": 1985,
      "▁hum": 1986,
      "▁contin": 1987,
      "뉴스": 1988,
      "dd": 1989,
      "icro": 1990,
      "▁oper": 1991,
      "▁present": 1992,
      "▁rele": 1993,
      "▁최근": 1994,
      "▁확인": 1995,
      "▁sugg": 1996,
      ".,": 1997,
      "▁민주": 1998,
      "▁시스템": 1999,
      "▁suggest": 2000,
      "▁tem": 2001,
      "▁눈": 2002,
      "oh": 2003,
      "▁과정": 2004,
      "▁같이": 2005,
      "▁팀": 2006,
      "cur": 2007,
      "▁위원회": 2008,
      "▁추진": 2009,
      "▁object": 2010,
      "────": 2011,
      "\\\":": 2012,
      "rad": 2013,
      "LE": 2014,
      "dition": 2015,
      "(\\\\": 2016,
      "▁책": 2017,
      "▁힘": 2018,
      "arm": 2019,
      "fc": 2020,
      "▁beh": 2021,
      "vious": 2022,
      "▁proper": 2023,
      "▁another": 2024,
      "▁일본": 2025,
      "▁corre": 2026,
      "▁cells": 2027,
      "att": 2028,
      "▁그리": 2029,
      "ID": 2030,
      "ains": 2031,
      "▁day": 2032,
      "▁어서": 2033,
      "rop": 2034,
      "nThis": 2035,
      "▁업체": 2036,
      "play": 2037,
      "▁order": 2038,
      "▁appe": 2039,
      "▁내용": 2040,
      "itive": 2041,
      "▁엔": 2042,
      "AR": 2043,
      "▁pot": 2044,
      "▁제품": 2045,
      "lex": 2046,
      "▁cour": 2047,
      "▁care": 2048,
      "▁다음": 2049,
      "▁cr": 2050,
      "▁느": 2051,
      "ere": 2052,
      "▁really": 2053,
      "ense": 2054,
      "▁규모": 2055,
      "▁오후": 2056,
      "ght": 2057,
      "ives": 2058,
      "work": 2059,
      "▁ident": 2060,
      "▁real": 2061,
      "시아": 2062,
      "▁베": 2063,
      "▁활동": 2064,
      "▁small": 2065,
      "▁top": 2066,
      "▁happ": 2067,
      "▁question": 2068,
      "cont": 2069,
      "▁시키": 2070,
      "▁program": 2071,
      "▁elect": 2072,
      "▁head": 2073,
      "▁bre": 2074,
      "▁offic": 2075,
      "▁pop": 2076,
      "ured": 2077,
      "here": 2078,
      "eral": 2079,
      "▁might": 2080,
      "It": 2081,
      "ged": 2082,
      "▁해서": 2083,
      "▁law": 2084,
      "▁game": 2085,
      "▁합니다": 2086,
      "▁adv": 2087,
      "isk": 2088,
      ".\\\"\\": 2089,
      "lam": 2090,
      "▁친": 2091,
      "ivers": 2092,
      "ination": 2093,
      "▁구조": 2094,
      "▁let": 2095,
      "▁health": 2096,
      "OR": 2097,
      "▁There": 2098,
      "ysis": 2099,
      "▁철": 2100,
      "ccess": 2101,
      "bf": 2102,
      "idth": 2103,
      "▁국회": 2104,
      "▁person": 2105,
      "lish": 2106,
      "wit": 2107,
      "▁sing": 2108,
      "ault": 2109,
      "ability": 2110,
      "▁put": 2111,
      "not": 2112,
      "thing": 2113,
      "ately": 2114,
      "▁언론": 2115,
      "▁stand": 2116,
      "▁techn": 2117,
      "▁지금": 2118,
      "ides": 2119,
      "▁애": 2120,
      "rm": 2121,
      "▁뉴시스": 2122,
      "$,": 2123,
      "stand": 2124,
      "bs": 2125,
      "▁다시": 2126,
      "▁vis": 2127,
      "▁government": 2128,
      "▁view": 2129,
      "이스": 2130,
      "▁이라고": 2131,
      "▁redu": 2132,
      "▁환경": 2133,
      "지만": 2134,
      "▁vers": 2135,
      "▁desc": 2136,
      "bd": 2137,
      "▁센터": 2138,
      "aut": 2139,
      "▁information": 2140,
      "▁best": 2141,
      "▁레": 2142,
      "ung": 2143,
      "▁imp": 2144,
      "▁--": 2145,
      "▁term": 2146,
      "▁eng": 2147,
      "ots": 2148,
      "▁。": 2149,
      "▁분석": 2150,
      "ern": 2151,
      "ural": 2152,
      "▁인터": 2153,
      "▁possible": 2154,
      "▁볼": 2155,
      "iness": 2156,
      "ocument": 2157,
      "▁sit": 2158,
      "▁의해": 2159,
      "urs": 2160,
      "▁시설": 2161,
      "▁including": 2162,
      "anc": 2163,
      "amet": 2164,
      "\\\\]": 2165,
      "▁Ind": 2166,
      "▁막": 2167,
      "duct": 2168,
      "▁investig": 2169,
      "▁user": 2170,
      "orth": 2171,
      "▁들어": 2172,
      "ene": 2173,
      "----------------": 2174,
      "col": 2175,
      "▁;": 2176,
      "▁few": 2177,
      "▁발표": 2178,
      "▁less": 2179,
      "▁홍": 2180,
      "indow": 2181,
      "▁commun": 2182,
      "▁참여": 2183,
      "▁grow": 2184,
      "ently": 2185,
      "▁판매": 2186,
      "▁설치": 2187,
      "▁cal": 2188,
      "ilar": 2189,
      "▁associ": 2190,
      "my": 2191,
      "ves": 2192,
      "hor": 2193,
      "▁거래": 2194,
      "CT": 2195,
      "'\\": 2196,
      "ream": 2197,
      "▁효과": 2198,
      "▁이어": 2199,
      "▁위치": 2200,
      "▁블": 2201,
      "▁학교": 2202,
      "▁으면": 2203,
      "▁경찰": 2204,
      "nHow": 2205,
      "▁추가": 2206,
      "▁Con": 2207,
      "ways": 2208,
      "▁better": 2209,
      "▁ask": 2210,
      "date": 2211,
      "$\\\\": 2212,
      "▁부분": 2213,
      "\\\">": 2214,
      "▁next": 2215,
      "▁place": 2216,
      "▁정치": 2217,
      "▁행사": 2218,
      "▁expect": 2219,
      "af": 2220,
      "운데": 2221,
      "▁동안": 2222,
      "Con": 2223,
      "plic": 2224,
      "▁회의": 2225,
      "▁연합뉴스": 2226,
      "▁left": 2227,
      "▁클": 2228,
      "yt": 2229,
      "▁wr": 2230,
      "▁mean": 2231,
      "▁오전": 2232,
      "lication": 2233,
      "▁hig": 2234,
      "http": 2235,
      "orn": 2236,
      "pha": 2237,
      "ps": 2238,
      "▁공급": 2239,
      "oss": 2240,
      "▁sk": 2241,
      "ission": 2242,
      "▁rece": 2243,
      "▁Ex": 2244,
      "▁ide": 2245,
      "▁탄": 2246,
      "ably": 2247,
      "arget": 2248,
      "PA": 2249,
      "▁given": 2250,
      "▁방향": 2251,
      "▁low": 2252,
      "▁too": 2253,
      "ustom": 2254,
      "▁project": 2255,
      "▁지방": 2256,
      "▁가운데": 2257,
      "▁장관": 2258,
      "▁일부": 2259,
      "left": 2260,
      "Re": 2261,
      "▁페": 2262,
      "▁spe": 2263,
      "▁확대": 2264,
      "▁키": 2265,
      "▁u": 2266,
      "▁각각": 2267,
      "lu": 2268,
      "less": 2269,
      "▁가격": 2270,
      "▁달러": 2271,
      "cul": 2272,
      "▁power": 2273,
      "ially": 2274,
      "▁보이": 2275,
      "▁build": 2276,
      "▁이미": 2277,
      "▁처럼": 2278,
      "els": 2279,
      "▁기간": 2280,
      "ploy": 2281,
      "▁hy": 2282,
      "▁회사": 2283,
      "Name": 2284,
      "ends": 2285,
      "\\\">\\": 2286,
      "▁안전": 2287,
      "▁머": 2288,
      "IT": 2289,
      "hib": 2290,
      "ush": 2291,
      "리아": 2292,
      "▁데이터": 2293,
      "▁sl": 2294,
      "▁leg": 2295,
      "▁lim": 2296,
      "▁big": 2297,
      "▁영상": 2298,
      "ule": 2299,
      "ready": 2300,
      "▁treatment": 2301,
      "▁벌": 2302,
      "▁text": 2303,
      "▁그런": 2304,
      "▁cap": 2305,
      "rain": 2306,
      "▁모든": 2307,
      "▁error": 2308,
      "BS": 2309,
      "mun": 2310,
      "▁occ": 2311,
      "Pro": 2312,
      "ference": 2313,
      "▁째": 2314,
      "▁성장": 2315,
      "Id": 2316,
      "▁피해": 2317,
      "▁마련": 2318,
      "chool": 2319,
      "▁eas": 2320,
      "▁처리": 2321,
      "▁check": 2322,
      "nal": 2323,
      "cal": 2324,
      "▁뿐": 2325,
      "▁string": 2326,
      "▁doesn": 2327,
      "sw": 2328,
      "▁로부터": 2329,
      "▁opt": 2330,
      "▁ve": 2331,
      "Ch": 2332,
      "action": 2333,
      "▁상승": 2334,
      "ott": 2335,
      "▁bi": 2336,
      "go": 2337,
      "▁bas": 2338,
      "▁연결": 2339,
      "ished": 2340,
      "▁So": 2341,
      "▁able": 2342,
      "::": 2343,
      "▁They": 2344,
      "▁struct": 2345,
      "uper": 2346,
      "nIt": 2347,
      "▁To": 2348,
      "▁important": 2349,
      "▁id": 2350,
      "We": 2351,
      "BC": 2352,
      "▁four": 2353,
      "...": 2354,
      "▁local": 2355,
      "_{\\\\": 2356,
      "idence": 2357,
      "▁터": 2358,
      "▁tot": 2359,
      "▁within": 2360,
      "eta": 2361,
      "▁Sy": 2362,
      "▁Sp": 2363,
      "▁determ": 2364,
      "nU": 2365,
      "igned": 2366,
      "requ": 2367,
      "np": 2368,
      "▁…": 2369,
      "html": 2370,
      "▁송": 2371,
      "ived": 2372,
      "▁열린": 2373,
      "▁국제": 2374,
      "▁이런": 2375,
      "▁opp": 2376,
      "▁called": 2377,
      "▁전망": 2378,
      "back": 2379,
      "▁끝": 2380,
      "▁hist": 2381,
      "epend": 2382,
      "▁prof": 2383,
      "change": 2384,
      "fer": 2385,
      "usiness": 2386,
      "▁news": 2387,
      "▁Be": 2388,
      "▁inc": 2389,
      "->": 2390,
      "ajor": 2391,
      "!\\": 2392,
      "▁path": 2393,
      "▁working": 2394,
      "ety": 2395,
      "▁대비": 2396,
      "face": 2397,
      "til": 2398,
      "▁init": 2399,
      "▁선거": 2400,
      "▁ca": 2401,
      "ormal": 2402,
      "▁생산": 2403,
      "nIf": 2404,
      "conom": 2405,
      "▁values": 2406,
      "ither": 2407,
      "▁human": 2408,
      "▁최고": 2409,
      "EN": 2410,
      "AN": 2411,
      "ald": 2412,
      "▁observ": 2413,
      "osed": 2414,
      "▁수준": 2415,
      "▁북한": 2416,
      "▁key": 2417,
      "▁won": 2418,
      "ird": 2419,
      "▁Bl": 2420,
      "▁phot": 2421,
      "▁사건": 2422,
      "fig": 2423,
      "unction": 2424,
      "이트": 2425,
      "▁At": 2426,
      "aper": 2427,
      "▁여러": 2428,
      "▁bo": 2429,
      "▁polit": 2430,
      "▁create": 2431,
      "▁새로": 2432,
      "▁dev": 2433,
      "ised": 2434,
      "etic": 2435,
      "iron": 2436,
      "ertain": 2437,
      "▁중심": 2438,
      "▁rad": 2439,
      "▁told": 2440,
      "▁△": 2441,
      "▁압": 2442,
      "▁회장": 2443,
      "▁based": 2444,
      "▁│": 2445,
      "▁trying": 2446,
      "▁은행": 2447,
      "▁got": 2448,
      "ided": 2449,
      "▁men": 2450,
      "▁self": 2451,
      "ms": 2452,
      "▁자동": 2453,
      "ope": 2454,
      "▁life": 2455,
      "▁must": 2456,
      "▁things": 2457,
      "▁days": 2458,
      "▁방송": 2459,
      "self": 2460,
      "urther": 2461,
      "▁강화": 2462,
      "nG": 2463,
      "arn": 2464,
      "▁전체": 2465,
      "▁낮": 2466,
      "렇게": 2467,
      "ological": 2468,
      "▁log": 2469,
      "▁character": 2470,
      "▁[@": 2471,
      "ocial": 2472,
      "lay": 2473,
      "▁주장": 2474,
      "Cont": 2475,
      "▁why": 2476,
      "idd": 2477,
      "▁potential": 2478,
      "▁기대": 2479,
      "▁특히": 2480,
      "▁최대": 2481,
      "▁ann": 2482,
      "ength": 2483,
      "▁개선": 2484,
      "▁해당": 2485,
      "▁single": 2486,
      "▁percent": 2487,
      "))": 2488,
      "leg": 2489,
      "▁너": 2490,
      "▁Sc": 2491,
      "bo": 2492,
      "ought": 2493,
      "ister": 2494,
      "nYou": 2495,
      "hy": 2496,
      "▁시민": 2497,
      "▁rese": 2498,
      "yle": 2499,
      "ograph": 2500,
      "▁dise": 2501,
      "▁belie": 2502,
      "▁분야": 2503,
      "▁similar": 2504,
      "▁얼": 2505,
      "▁적용": 2506,
      "▁already": 2507,
      "▁press": 2508,
      "▁impro": 2509,
      "▁respect": 2510,
      "▁hard": 2511,
      "▁home": 2512,
      "uk": 2513,
      "▁event": 2514,
      "Ex": 2515,
      "▁lot": 2516,
      "▁der": 2517,
      "ittle": 2518,
      "▁삼성": 2519,
      "ET": 2520,
      "▁제조": 2521,
      "▁However": 2522,
      "▁%)": 2523,
      "▁그리고": 2524,
      "▁lik": 2525,
      "▁부산": 2526,
      "ES": 2527,
      "$$": 2528,
      "],": 2529,
      "essage": 2530,
      "▁여성": 2531,
      "▁`": 2532,
      "▁women": 2533,
      "▁존": 2534,
      "ling": 2535,
      "▁select": 2536,
      "▁▲": 2537,
      "▁전자": 2538,
      "▁쓰": 2539,
      "▁폐": 2540,
      "▁fail": 2541,
      "▁prom": 2542,
      "order": 2543,
      "▁바이": 2544,
      "▁cases": 2545,
      "▁는지": 2546,
      "▁응": 2547,
      "▁률": 2548,
      "ending": 2549,
      "▁잡": 2550,
      "▁interest": 2551,
      "$.": 2552,
      "▁공개": 2553,
      "by": 2554,
      "rem": 2555,
      "▁알려": 2556,
      "▁That": 2557,
      "▁access": 2558,
      "data": 2559,
      "▁ener": 2560,
      "▁camp": 2561,
      "▁빠": 2562,
      "mit": 2563,
      "ware": 2564,
      "aps": 2565,
      "▁keep": 2566,
      "na": 2567,
      "▁고객": 2568,
      "reg": 2569,
      "osis": 2570,
      "var": 2571,
      "▁유지": 2572,
      "▁arg": 2573,
      "▁organ": 2574,
      "▁clear": 2575,
      "ret": 2576,
      "▁이유": 2577,
      "ention": 2578,
      "▁come": 2579,
      "랜드": 2580,
      "orean": 2581,
      "AS": 2582,
      "▁sent": 2583,
      "▁갈": 2584,
      "▁priv": 2585,
      "etwork": 2586,
      "▁중앙": 2587,
      "▁rest": 2588,
      "▁홈": 2589,
      "▁move": 2590,
      "▁prob": 2591,
      "▁product": 2592,
      "▁휴": 2593,
      "▁활용": 2594,
      "ien": 2595,
      "▁mov": 2596,
      "ler": 2597,
      "ideo": 2598,
      "▁never": 2599,
      "▁far": 2600,
      "▁ㆍ": 2601,
      "▁risk": 2602,
      "▁var": 2603,
      "▁학생": 2604,
      "lection": 2605,
      "▁major": 2606,
      "▁또한": 2607,
      "List": 2608,
      "▁pred": 2609,
      "▁발전": 2610,
      "rand": 2611,
      "▁이동": 2612,
      "▁한다는": 2613,
      "▁free": 2614,
      "osp": 2615,
      "▁On": 2616,
      "aim": 2617,
      "▁요구": 2618,
      "String": 2619,
      "▁record": 2620,
      "▁방식": 2621,
      "▁직접": 2622,
      "▁understand": 2623,
      "▁near": 2624,
      "▁large": 2625,
      "▁기능": 2626,
      "mod": 2627,
      "▁plan": 2628,
      "▁예상": 2629,
      "IS": 2630,
      "▁invol": 2631,
      "AL": 2632,
      "▁첫": 2633,
      "ining": 2634,
      "▁밖": 2635,
      "▁writ": 2636,
      "▁response": 2637,
      "라인": 2638,
      "▁판단": 2639,
      "▁공동": 2640,
      "▁sever": 2641,
      "irc": 2642,
      "▁mil": 2643,
      "▁생활": 2644,
      "time": 2645,
      "▁다가": 2646,
      "▁모습": 2647,
      "▁always": 2648,
      "mon": 2649,
      "IC": 2650,
      "new": 2651,
      "▁indic": 2652,
      "▁많이": 2653,
      "▁극": 2654,
      "▁위원장": 2655,
      "▁상품": 2656,
      "▁Ad": 2657,
      "그램": 2658,
      "▁true": 2659,
      "▁주택": 2660,
      "▁전국": 2661,
      "resent": 2662,
      "ailable": 2663,
      "ception": 2664,
      "▁old": 2665,
      "▁analysis": 2666,
      "▁케": 2667,
      "▁All": 2668,
      "▁한다고": 2669,
      "▁액": 2670,
      "ification": 2671,
      ");": 2672,
      "인다": 2673,
      "▁mass": 2674,
      "▁콘": 2675,
      "▁least": 2676,
      "org": 2677,
      "▁중요": 2678,
      "▁핵": 2679,
      "▁sure": 2680,
      "▁밀": 2681,
      "으며": 2682,
      "▁total": 2683,
      "▁children": 2684,
      "▁먹": 2685,
      "ocr": 2686,
      "▁골": 2687,
      "▁소비": 2688,
      "▁lo": 2689,
      "▁선택": 2690,
      "▁crit": 2691,
      "pi": 2692,
      "▁block": 2693,
      "▁country": 2694,
      "rug": 2695,
      "▁어려": 2696,
      "▁comb": 2697,
      "▁교수": 2698,
      "ai": 2699,
      "▁TV": 2700,
      "ries": 2701,
      "resident": 2702,
      "year": 2703,
      "uck": 2704,
      "asc": 2705,
      "por": 2706,
      "test": 2707,
      "▁table": 2708,
      "▁수사": 2709,
      "bar": 2710,
      "▁영향": 2711,
      "▁Can": 2712,
      "▁조성": 2713,
      "atter": 2714,
      "▁없이": 2715,
      "▁경쟁": 2716,
      "▁돈": 2717,
      "book": 2718,
      "▁changes": 2719,
      "▁바람": 2720,
      "▁above": 2721,
      "ee": 2722,
      "iod": 2723,
      "▁당시": 2724,
      "ribut": 2725,
      "▁activ": 2726,
      "iple": 2727,
      "▁due": 2728,
      "▁td": 2729,
      "▁higher": 2730,
      "rag": 2731,
      "olit": 2732,
      "▁일반": 2733,
      "▁link": 2734,
      "▁검사": 2735,
      "ateg": 2736,
      "▁image": 2737,
      "▁manag": 2738,
      "ison": 2739,
      "▁대해서": 2740,
      "▁왔": 2741,
      "net": 2742,
      "label": 2743,
      "▁gra": 2744,
      "▁Rep": 2745,
      "▁강조": 2746,
      "▁fac": 2747,
      "▁프로그램": 2748,
      "▁rate": 2749,
      "▁Ob": 2750,
      "nBut": 2751,
      "▁지적": 2752,
      "usion": 2753,
      "ogle": 2754,
      "▁little": 2755,
      "▁Col": 2756,
      "OM": 2757,
      "▁단체": 2758,
      "alse": 2759,
      "▁특별": 2760,
      "▁turn": 2761,
      "▁activity": 2762,
      "mat": 2763,
      "▁No": 2764,
      "ivid": 2765,
      "ground": 2766,
      "ament": 2767,
      "▁size": 2768,
      "▁pay": 2769,
      "▁else": 2770,
      "▁dat": 2771,
      "▁paramet": 2772,
      "ada": 2773,
      "▁경영": 2774,
      "▁million": 2775,
      "▁혼": 2776,
      "nect": 2777,
      "▁times": 2778,
      "▁answ": 2779,
      "outh": 2780,
      "▁describ": 2781,
      "▁게임": 2782,
      "▁그룹": 2783,
      "opt": 2784,
      "▁word": 2785,
      "▁android": 2786,
      "ering": 2787,
      "▁whether": 2788,
      "▁캐": 2789,
      "▁만큼": 2790,
      "그러": 2791,
      "▁입장": 2792,
      "aining": 2793,
      "▁bro": 2794,
      "▁orig": 2795,
      "cd": 2796,
      "▁success": 2797,
      "▁행정": 2798,
      "▁어요": 2799,
      "▁reported": 2800,
      "▁싶": 2801,
      "box": 2802,
      "▁page": 2803,
      "▁지속": 2804,
      "ait": 2805,
      "▁로서": 2806,
      "▁침": 2807,
      "iment": 2808,
      "▁give": 2809,
      "oney": 2810,
      "▁micro": 2811,
      "▁병원": 2812,
      "▁attack": 2813,
      "▁지지": 2814,
      "imate": 2815,
      "viron": 2816,
      "wh": 2817,
      "▁president": 2818,
      "▁놓": 2819,
      "▁윤": 2820,
      "▁적극": 2821,
      "ique": 2822,
      "▁clin": 2823,
      "load": 2824,
      "uture": 2825,
      "▁typ": 2826,
      "class": 2827,
      "▁그래": 2828,
      "▁새로운": 2829,
      "ores": 2830,
      "ples": 2831,
      "▁previous": 2832,
      "ga": 2833,
      "alpha": 2834,
      "니까": 2835,
      "()\\": 2836,
      "iol": 2837,
      "log": 2838,
      "ched": 2839,
      "▁levels": 2840,
      "▁pur": 2841,
      "▁cou": 2842,
      "ours": 2843,
      "▁현대": 2844,
      "▁specific": 2845,
      "▁energy": 2846,
      "▁target": 2847,
      "▁array": 2848,
      "▁cost": 2849,
      "▁exam": 2850,
      "lement": 2851,
      "▁These": 2852,
      "▁변화": 2853,
      "alu": 2854,
      "▁among": 2855,
      "대로": 2856,
      "ials": 2857,
      "▁준비": 2858,
      "ories": 2859,
      "▁나라": 2860,
      "▁시행": 2861,
      "Cl": 2862,
      "▁according": 2863,
      "▁긴": 2864,
      "▁effects": 2865,
      "▁의미": 2866,
      "▁short": 2867,
      "▁groups": 2868,
      "▁sym": 2869,
      "▁consider": 2870,
      "▁months": 2871,
      "oo": 2872,
      "▁몰": 2873,
      "▁신문": 2874,
      "또한": 2875,
      "ators": 2876,
      "▁having": 2877,
      "ci": 2878,
      "ended": 2879,
      "▁doing": 2880,
      "sy": 2881,
      "▁several": 2882,
      "▁available": 2883,
      "▁개인": 2884,
      "▁계속": 2885,
      "▁Im": 2886,
      "▁보호": 2887,
      "▁war": 2888,
      "▁육": 2889,
      "▁건설": 2890,
      "▁자리": 2891,
      "▁업무": 2892,
      "olution": 2893,
      "▁주민": 2894,
      "▁talk": 2895,
      "ny": 2896,
      "ED": 2897,
      "cI": 2898,
      "▁sum": 2899,
      "▁vol": 2900,
      "▁대응": 2901,
      "▁below": 2902,
      "▁company": 2903,
      "nf": 2904,
      "▁협력": 2905,
      "▁떨": 2906,
      "ales": 2907,
      "▁님": 2908,
      "▁석": 2909,
      "▁처음": 2910,
      "ising": 2911,
      "▁means": 2912,
      "ival": 2913,
      "▁fore": 2914,
      "▁full": 2915,
      "▁enc": 2916,
      "ails": 2917,
      "ding": 2918,
      "▁tre": 2919,
      "▁관한": 2920,
      "▁형태": 2921,
      "ables": 2922,
      "▁bit": 2923,
      "oin": 2924,
      "▁이루": 2925,
      "▁방문": 2926,
      "▁기존": 2927,
      "▁mar": 2928,
      ",\\\\": 2929,
      "▁compared": 2930,
      "▁러": 2931,
      "▁민주당": 2932,
      "▁난": 2933,
      "▁later": 2934,
      "▁done": 2935,
      "▁space": 2936,
      "▁mus": 2937,
      "▁particular": 2938,
      "cing": 2939,
      "▁didn": 2940,
      "▁Res": 2941,
      "▁주요": 2942,
      "ront": 2943,
      "마트": 2944,
      "part": 2945,
      "▁development": 2946,
      "To": 2947,
      "ney": 2948,
      "key": 2949,
      "inf": 2950,
      "▁strong": 2951,
      "aster": 2952,
      "cret": 2953,
      "▁혐": 2954,
      "itor": 2955,
      "▁신호": 2956,
      "▁inde": 2957,
      "▁prim": 2958,
      "▁App": 2959,
      "▁ben": 2960,
      "▁issue": 2961,
      "▁Or": 2962,
      "ibr": 2963,
      "head": 2964,
      "▁obt": 2965,
      "▁해결": 2966,
      "전자": 2967,
      "ards": 2968,
      "▁Dem": 2969,
      "▁general": 2970,
      "ama": 2971,
      "aring": 2972,
      "NS": 2973,
      "한편": 2974,
      "umn": 2975,
      "▁associated": 2976,
      "oor": 2977,
      "Val": 2978,
      "▁cho": 2979,
      "▁increased": 2980,
      "ury": 2981,
      "▁희": 2982,
      "▁role": 2983,
      "irus": 2984,
      "▁disease": 2985,
      "▁win": 2986,
      "▁율": 2987,
      "Com": 2988,
      "chan": 2989,
      "▁dom": 2990,
      "ift": 2991,
      "▁제도": 2992,
      "▁해외": 2993,
      "=\\\\": 2994,
      "▁노동": 2995,
      "ches": 2996,
      "side": 2997,
      "▁잠": 2998,
      "▁thing": 2999,
      "Data": 3000,
      "▁job": 3001,
      "▁age": 3002,
      "aign": 3003,
      "px": 3004,
      "▁현장": 3005,
      "▁school": 3006,
      "▁evalu": 3007,
      "▁으로써": 3008,
      "▁either": 3009,
      "imal": 3010,
      "ca": 3011,
      "ember": 3012,
      "▁discuss": 3013,
      "ume": 3014,
      "lease": 3015,
      "this": 3016,
      "▁컨": 3017,
      "▁차량": 3018,
      "▁phys": 3019,
      "ditional": 3020,
      "nJ": 3021,
      "▁란": 3022,
      "▁seen": 3023,
      "▁www": 3024,
      "place": 3025,
      "▁내부": 3026,
      "lete": 3027,
      "oper": 3028,
      "ocus": 3029,
      "▁상대": 3030,
      "▁family": 3031,
      "ians": 3032,
      "ances": 3033,
      "▁econom": 3034,
      "▁인사": 3035,
      "▁den": 3036,
      "▁exist": 3037,
      "▁My": 3038,
      "▁가치": 3039,
      "▁version": 3040,
      "▁관심": 3041,
      "▁early": 3042,
      "▁분기": 3043,
      "ands": 3044,
      "▁조정": 3045,
      "OS": 3046,
      "▁police": 3047,
      "▁ep": 3048,
      "▁action": 3049,
      "▁content": 3050,
      "▁듯": 3051,
      "plement": 3052,
      "▁business": 3053,
      "▁혁": 3054,
      "▁보험": 3055,
      "Ar": 3056,
      "verage": 3057,
      "▁공간": 3058,
      "▁account": 3059,
      "▁tell": 3060,
      "▁어떤": 3061,
      "aken": 3062,
      "urope": 3063,
      "▁diff": 3064,
      "▁inj": 3065,
      "but": 3066,
      "\\\");\\": 3067,
      "▁period": 3068,
      "▁Te": 3069,
      "▁season": 3070,
      "▁works": 3071,
      "▁개월": 3072,
      "ey": 3073,
      "▁actually": 3074,
      "obal": 3075,
      "▁happen": 3076,
      "▁cy": 3077,
      "ctor": 3078,
      "▁Russ": 3079,
      "empt": 3080,
      "▁계약": 3081,
      "Tr": 3082,
      "iversity": 3083,
      "▁의견": 3084,
      "nim": 3085,
      "▁water": 3086,
      "▁운동": 3087,
      "▁expression": 3088,
      "▁얻": 3089,
      "▁caus": 3090,
      "▁light": 3091,
      "▁감소": 3092,
      "▁side": 3093,
      "▁solution": 3094,
      "($": 3095,
      "▁showed": 3096,
      "ibility": 3097,
      "vironment": 3098,
      "Col": 3099,
      "▁abs": 3100,
      "▁feel": 3101,
      "▁혐의": 3102,
      "ones": 3103,
      "▁==": 3104,
      "▁making": 3105,
      "user": 3106,
      "no": 3107,
      "▁request": 3108,
      "▁그러나": 3109,
      "ros": 3110,
      "▁korean": 3111,
      "▁사고": 3112,
      "▁position": 3113,
      "▁매출": 3114,
      "▁정상": 3115,
      "RE": 3116,
      "▁er": 3117,
      "▁안정": 3118,
      "▁대책": 3119,
      "▁ver": 3120,
      "▁increase": 3121,
      "anks": 3122,
      "▁though": 3123,
      "▁전략": 3124,
      "▁President": 3125,
      "▁신청": 3126,
      "▁reason": 3127,
      "omet": 3128,
      "▁탈": 3129,
      "▁이하": 3130,
      "alf": 3131,
      "▁황": 3132,
      "▁final": 3133,
      "▁likely": 3134,
      "▁custom": 3135,
      "atures": 3136,
      "▁kind": 3137,
      "iver": 3138,
      "use": 3139,
      "▁admin": 3140,
      "most": 3141,
      "▁악": 3142,
      "ux": 3143,
      "ued": 3144,
      ")\\\\": 3145,
      "러스": 3146,
      "▁scre": 3147,
      "▁exec": 3148,
      "▁When": 3149,
      "▁known": 3150,
      "▁죠": 3151,
      "너지": 3152,
      "▁getting": 3153,
      "ored": 3154,
      "▁behav": 3155,
      "▁application": 3156,
      "▁enough": 3157,
      "ividual": 3158,
      "ession": 3159,
      "▁May": 3160,
      "ties": 3161,
      "▁social": 3162,
      "▁수행": 3163,
      "▁past": 3164,
      "▁deal": 3165,
      "▁until": 3166,
      "▁step": 3167,
      "rist": 3168,
      "▁종합": 3169,
      "ener": 3170,
      "▁claim": 3171,
      "▁...": 3172,
      "▁neg": 3173,
      "▁site": 3174,
      "▁봉": 3175,
      "ynam": 3176,
      "▁added": 3177,
      "▁전기": 3178,
      "어나": 3179,
      "asing": 3180,
      "▁먼": 3181,
      "ude": 3182,
      "java": 3183,
      "▁document": 3184,
      "▁kill": 3185,
      "▁건강": 3186,
      "▁pract": 3187,
      "▁울": 3188,
      "▁헤": 3189,
      "respon": 3190,
      "▁미래": 3191,
      "▁확보": 3192,
      "▁Man": 3193,
      "▁provide": 3194,
      "▁creat": 3195,
      "▁검찰": 3196,
      "▁성공": 3197,
      "▁가족": 3198,
      "▁polic": 3199,
      "angle": 3200,
      "▁stop": 3201,
      "▁significantly": 3202,
      "oph": 3203,
      "이드": 3204,
      "▁외국": 3205,
      "▁아닌": 3206,
      "▁sex": 3207,
      "ges": 3208,
      "\\\\[": 3209,
      "lation": 3210,
      "▁instead": 3211,
      "▁normal": 3212,
      "ources": 3213,
      "aily": 3214,
      "▁노력": 3215,
      "ror": 3216,
      "ender": 3217,
      "js": 3218,
      "▁나오": 3219,
      "▁review": 3220,
      "▁떨어": 3221,
      "▁선정": 3222,
      "▁통합": 3223,
      "opyright": 3224,
      "▁작업": 3225,
      "▁못하": 3226,
      "▁치료": 3227,
      "▁영업": 3228,
      "ero": 3229,
      "▁능": 3230,
      "▁red": 3231,
      "▁mom": 3232,
      "▁더욱": 3233,
      "▁관광": 3234,
      "];\\": 3235,
      "▁_": 3236,
      "though": 3237,
      "nAs": 3238,
      "ho": 3239,
      "▁대회": 3240,
      "ae": 3241,
      "▁증권": 3242,
      "▁Mon": 3243,
      "ences": 3244,
      "▁영화": 3245,
      "▁Mar": 3246,
      "▁다면": 3247,
      "▁영역": 3248,
      "▁represent": 3249,
      "Text": 3250,
      "▁media": 3251,
      "▁감염": 3252,
      "ado": 3253,
      "uration": 3254,
      "▁shows": 3255,
      "▁drug": 3256,
      "▁글로": 3257,
      "▁along": 3258,
      "▁자동차": 3259,
      "lim": 3260,
      "▁simple": 3261,
      "▁approach": 3262,
      "▁개정": 3263,
      "▁공사": 3264,
      "▁common": 3265,
      "une": 3266,
      "▁스타": 3267,
      "▁American": 3268,
      "▁super": 3269,
      "▁sus": 3270,
      "▁이야": 3271,
      "br": 3272,
      "▁print": 3273,
      "▁Min": 3274,
      "elta": 3275,
      "▁further": 3276,
      "ension": 3277,
      "Im": 3278,
      "ules": 3279,
      "▁책임": 3280,
      "cThe": 3281,
      "▁design": 3282,
      "▁조치": 3283,
      "▁..": 3284,
      "▁루": 3285,
      "▁lower": 3286,
      "▁often": 3287,
      "▁certain": 3288,
      "AM": 3289,
      "▁across": 3290,
      "▁demon": 3291,
      "▁United": 3292,
      "▁격": 3293,
      "▁What": 3294,
      "▁이사": 3295,
      "nSo": 3296,
      "▁network": 3297,
      "▁seems": 3298,
      "atory": 3299,
      "▁의료": 3300,
      "▁확진": 3301,
      "▁Go": 3302,
      "▁sens": 3303,
      "▁보여": 3304,
      "oll": 3305,
      "▁area": 3306,
      "oman": 3307,
      "▁좀": 3308,
      "▁직원": 3309,
      "▁future": 3310,
      "▁book": 3311,
      "▁결합": 3312,
      "▁via": 3313,
      "file": 3314,
      "▁mor": 3315,
      "▁예산": 3316,
      "▁마음": 3317,
      "▁몸": 3318,
      "▁service": 3319,
      "nFor": 3320,
      "▁dou": 3321,
      "ogen": 3322,
      "rences": 3323,
      "▁studies": 3324,
      "▁Pl": 3325,
      "▁address": 3326,
      "ocal": 3327,
      "▁course": 3328,
      "upp": 3329,
      "▁참석": 3330,
      "▁품": 3331,
      "artment": 3332,
      "cle": 3333,
      "roller": 3334,
      "▁티": 3335,
      "▁하지만": 3336,
      "cho": 3337,
      "amma": 3338,
      "▁individual": 3339,
      "▁공정": 3340,
      "▁body": 3341,
      "▁implement": 3342,
      "td": 3343,
      "▁miss": 3344,
      "iving": 3345,
      "▁본부": 3346,
      "▁away": 3347,
      "므로": 3348,
      "cher": 3349,
      "▁private": 3350,
      "ley": 3351,
      "▁vot": 3352,
      "▁row": 3353,
      "▁tried": 3354,
      "AC": 3355,
      "▁correct": 3356,
      "▁mot": 3357,
      "▁보도": 3358,
      "▁She": 3359,
      "mber": 3360,
      "▁With": 3361,
      "▁become": 3362,
      "▁market": 3363,
      "▁respons": 3364,
      "▁city": 3365,
      "▁relations": 3366,
      "nWhat": 3367,
      "▁오늘": 3368,
      "curity": 3369,
      "이어": 3370,
      "ependent": 3371,
      "ino": 3372,
      "▁물론": 3373,
      "}(": 3374,
      "ogn": 3375,
      ">>": 3376,
      "▁자료": 3377,
      "▁방안": 3378,
      "US": 3379,
      "▁meet": 3380,
      "▁촉": 3381,
      "ref": 3382,
      "▁우려": 3383,
      "medi": 3384,
      "▁range": 3385,
      "▁five": 3386,
      "▁자유": 3387,
      "▁즉": 3388,
      "▁predict": 3389,
      "ball": 3390,
      "▁mechan": 3391,
      "▁엄": 3392,
      "****": 3393,
      "mu": 3394,
      "▁multiple": 3395,
      "▁여기": 3396,
      "지난": 3397,
      "ection": 3398,
      "▁자금": 3399,
      "▁글로벌": 3400,
      "▁air": 3401,
      "▁역시": 3402,
      "▁source": 3403,
      "▁One": 3404,
      "▁measure": 3405,
      "▁thought": 3406,
      "▁어야": 3407,
      "nTh": 3408,
      "▁거리": 3409,
      "▁hold": 3410,
      "▁points": 3411,
      "▁이야기": 3412,
      "▁온라인": 3413,
      "▁이러": 3414,
      "▁once": 3415,
      "rapy": 3416,
      "ipp": 3417,
      "▁역할": 3418,
      "▁비롯": 3419,
      "▁cult": 3420,
      "▁선수": 3421,
      "▁환자": 3422,
      "▁artic": 3423,
      "▁however": 3424,
      "kr": 3425,
      "▁평균": 3426,
      "▁보인다": 3427,
      "LL": 3428,
      "comm": 3429,
      "▁complex": 3430,
      "▁Car": 3431,
      "지털": 3432,
      "▁exc": 3433,
      "▁money": 3434,
      "abase": 3435,
      "bda": 3436,
      "▁display": 3437,
      "ids": 3438,
      "▁install": 3439,
      "▁AP": 3440,
      "▁load": 3441,
      "aces": 3442,
      "▁death": 3443,
      "ij": 3444,
      "witter": 3445,
      "▁answer": 3446,
      "istic": 3447,
      "▁decre": 3448,
      "▁comput": 3449,
      "AP": 3450,
      "▁void": 3451,
      "\\\\\\\\": 3452,
      "ache": 3453,
      "▁video": 3454,
      "▁내년": 3455,
      "스크": 3456,
      "▁quant": 3457,
      "▁makes": 3458,
      "▁research": 3459,
      "▁concent": 3460,
      "▁어떻": 3461,
      "▁former": 3462,
      "Res": 3463,
      "▁풀": 3464,
      "▁campaign": 3465,
      "raft": 3466,
      "▁착": 3467,
      "▁인터넷": 3468,
      "aff": 3469,
      "ze": 3470,
      "enc": 3471,
      "인트": 3472,
      "▁고려": 3473,
      "▁max": 3474,
      "istration": 3475,
      "▁fri": 3476,
      "ribution": 3477,
      "▁%,": 3478,
      "▁frequ": 3479,
      "acy": 3480,
      "▁pack": 3481,
      "▁Pr": 3482,
      "body": 3483,
      "sum": 3484,
      "▁looking": 3485,
      "ditions": 3486,
      "ams": 3487,
      "▁폴": 3488,
      "이지": 3489,
      "▁observed": 3490,
      "▁recent": 3491,
      "ike": 3492,
      "▁reve": 3493,
      "▁대구": 3494,
      "News": 3495,
      "▁complet": 3496,
      "디어": 3497,
      "++": 3498,
      "▁anti": 3499,
      "df": 3500,
      "▁input": 3501,
      "stac": 3502,
      "▁decl": 3503,
      "▁deb": 3504,
      "▁Democr": 3505,
      "▁match": 3506,
      "▁spect": 3507,
      "▁감독": 3508,
      "▁shown": 3509,
      "unch": 3510,
      "rame": 3511,
      "▁현지": 3512,
      "▁die": 3513,
      "▁수익": 3514,
      "▁떠": 3515,
      "▁fix": 3516,
      "▁인지": 3517,
      "▁값": 3518,
      "▁죽": 3519,
      "▁break": 3520,
      "stit": 3521,
      "▁수출": 3522,
      "▁Joh": 3523,
      "unt": 3524,
      "nWe": 3525,
      "▁기반": 3526,
      "lished": 3527,
      "ortun": 3528,
      "def": 3529,
      "▁dri": 3530,
      "ks": 3531,
      "ev": 3532,
      "▁focus": 3533,
      "rel": 3534,
      "now": 3535,
      "▁자체": 3536,
      "▁개최": 3537,
      "▁귀": 3538,
      "▁내지": 3539,
      "print": 3540,
      "▁String": 3541,
      "▁protein": 3542,
      "▁tax": 3543,
      "▁separ": 3544,
      "ensive": 3545,
      "▁bar": 3546,
      "▁하락": 3547,
      "met": 3548,
      "inc": 3549,
      "▁반응": 3550,
      "▁seem": 3551,
      "▁inhib": 3552,
      "▁기사": 3553,
      "▁subject": 3554,
      "▁running": 3555,
      "▁clinical": 3556,
      "▁목적": 3557,
      "▁전달": 3558,
      "\\\",\\": 3559,
      "▁바로": 3560,
      "▁조직": 3561,
      "ster": 3562,
      "▁idea": 3563,
      "▁반영": 3564,
      "▁states": 3565,
      "▁디지털": 3566,
      "▁제어": 3567,
      "▁div": 3568,
      "▁young": 3569,
      "▁아파": 3570,
      "▁답": 3571,
      "상기": 3572,
      "iter": 3573,
      "▁Europe": 3574,
      "ML": 3575,
      "▁yet": 3576,
      "▁공감": 3577,
      "##": 3578,
      "▁members": 3579,
      "off": 3580,
      "진다": 3581,
      "Type": 3582,
      "▁코리아": 3583,
      "▁News": 3584,
      "rodu": 3585,
      "▁활성": 3586,
      "▁community": 3587,
      "▁came": 3588,
      "▁둘": 3589,
      "onald": 3590,
      "▁광주": 3591,
      "ea": 3592,
      "▁든": 3593,
      "▁compon": 3594,
      "▁냐": 3595,
      "chie": 3596,
      "▁스마트": 3597,
      "OT": 3598,
      "▁위해서": 3599,
      "Ob": 3600,
      "gest": 3601,
      "▁affect": 3602,
      "iation": 3603,
      "▁인정": 3604,
      "▁deg": 3605,
      "▁employ": 3606,
      "andom": 3607,
      "angu": 3608,
      "▁비용": 3609,
      "nAnd": 3610,
      "▁제작": 3611,
      "▁여부": 3612,
      "irm": 3613,
      "▁기본": 3614,
      "▁output": 3615,
      "▁PC": 3616,
      "Qu": 3617,
      "▁series": 3618,
      "itle": 3619,
      "ply": 3620,
      "▁port": 3621,
      "▁hom": 3622,
      "▁교통": 3623,
      "▁blood": 3624,
      "▁House": 3625,
      "▁assess": 3626,
      "Ph": 3627,
      "gr": 3628,
      "rix": 3629,
      "ports": 3630,
      "▁Ass": 3631,
      "▁cancer": 3632,
      "abor": 3633,
      "atal": 3634,
      "▁이익": 3635,
      "lor": 3636,
      "▁표시": 3637,
      "▁server": 3638,
      "▁cut": 3639,
      "ba": 3640,
      "▁author": 3641,
      "▁card": 3642,
      "▁돌아": 3643,
      "▁이해": 3644,
      "▁Cent": 3645,
      "olic": 3646,
      "▁lay": 3647,
      "▁사랑": 3648,
      "ste": 3649,
      "umber": 3650,
      "▁도입": 3651,
      "rypt": 3652,
      "▁index": 3653,
      "sub": 3654,
      "▁op": 3655,
      "▁demonstr": 3656,
      "▁gr": 3657,
      "▁어느": 3658,
      "▁files": 3659,
      "▁감사": 3660,
      "▁제한": 3661,
      "▁으로부터": 3662,
      "▁Republic": 3663,
      "▁today": 3664,
      "▁부담": 3665,
      "value": 3666,
      "▁에너지": 3667,
      "init": 3668,
      "▁detect": 3669,
      "▁복지": 3670,
      "▁concer": 3671,
      "▁require": 3672,
      "이번": 3673,
      "ounds": 3674,
      "la": 3675,
      "▁situ": 3676,
      "▁cannot": 3677,
      "▁일정": 3678,
      "ana": 3679,
      "▁diagn": 3680,
      "▁isn": 3681,
      "▁사항": 3682,
      "▁논의": 3683,
      "▁inside": 3684,
      "▁암": 3685,
      "AD": 3686,
      "▁범위": 3687,
      "▁close": 3688,
      "▁실제": 3689,
      "▁목표": 3690,
      "▁바람직": 3691,
      "▁story": 3692,
      "string": 3693,
      "▁growth": 3694,
      "▁사무": 3695,
      "▁parent": 3696,
      "iddle": 3697,
      "▁pat": 3698,
      "ape": 3699,
      "▁고정": 3700,
      "▁아시아": 3701,
      "특히": 3702,
      "▁상당": 3703,
      "uf": 3704,
      "uments": 3705,
      "oms": 3706,
      "▁sequ": 3707,
      "▁viol": 3708,
      "▁아파트": 3709,
      "itary": 3710,
      "▁풍": 3711,
      "ription": 3712,
      "dro": 3713,
      "▁fig": 3714,
      "reen": 3715,
      "}^": 3716,
      "▁rather": 3717,
      "bit": 3718,
      "▁toget": 3719,
      "icle": 3720,
      "▁les": 3721,
      "▁together": 3722,
      "xchange": 3723,
      "ressed": 3724,
      "▁special": 3725,
      "▁그것": 3726,
      "▁카드": 3727,
      "nection": 3728,
      "▁Me": 3729,
      "라이": 3730,
      "['": 3731,
      "▁structure": 3732,
      "▁created": 3733,
      "II": 3734,
      "▁규정": 3735,
      "▁위기": 3736,
      "▁협의": 3737,
      "부분": 3738,
      "▁China": 3739,
      "mission": 3740,
      "▁인천": 3741,
      "▁immun": 3742,
      "▁슬": 3743,
      "▁이제": 3744,
      "bre": 3745,
      "▁art": 3746,
      "kexchange": 3747,
      "tered": 3748,
      "ights": 3749,
      "기업": 3750,
      "▁과학": 3751,
      "imum": 3752,
      "php": 3753,
      "▁coll": 3754,
      "begin": 3755,
      "▁probably": 3756,
      "stackexchange": 3757,
      "▁amount": 3758,
      "^{-": 3759,
      "amer": 3760,
      "▁워": 3761,
      "▁related": 3762,
      "▁took": 3763,
      "▁지수": 3764,
      "▁주식": 3765,
      "▁팔": 3766,
      "ging": 3767,
      "nes": 3768,
      "▁레이": 3769,
      "▁und": 3770,
      "based": 3771,
      "▁등록": 3772,
      "inding": 3773,
      "▁ever": 3774,
      "▁null": 3775,
      "▁magn": 3776,
      "▁expected": 3777,
      "inary": 3778,
      "▁∼": 3779,
      "▁pub": 3780,
      "SS": 3781,
      "UT": 3782,
      "▁><": 3783,
      "▁host": 3784,
      "▁include": 3785,
      "oma": 3786,
      "▁왕": 3787,
      "comp": 3788,
      "▁문장": 3789,
      "zy": 3790,
      "▁political": 3791,
      "ql": 3792,
      "rt": 3793,
      "▁tum": 3794,
      "▁search": 3795,
      "▁propos": 3796,
      "width": 3797,
      "▁York": 3798,
      "▁부재": 3799,
      "ague": 3800,
      "▁eff": 3801,
      "hing": 3802,
      "▁모델": 3803,
      "ett": 3804,
      "▁라면": 3805,
      "▁이전": 3806,
      "CC": 3807,
      "▁구체": 3808,
      "▁자기": 3809,
      "▁역사": 3810,
      "▁evidence": 3811,
      "▁지급": 3812,
      "▁Ste": 3813,
      "▁announ": 3814,
      "▁statement": 3815,
      "▁포인트": 3816,
      "▁쉽": 3817,
      "▁이뤄": 3818,
      "▁으로서": 3819,
      "▁ang": 3820,
      "ager": 3821,
      "▁홀": 3822,
      "den": 3823,
      "▁[\\\"": 3824,
      "ds": 3825,
      "▁mater": 3826,
      "▁anything": 3827,
      "▁nuc": 3828,
      "rote": 3829,
      "▁가구": 3830,
      "▁시대": 3831,
      "▁비교": 3832,
      "▁LG": 3833,
      "▁출시": 3834,
      "▁wrong": 3835,
      "▁experience": 3836,
      "▁전화": 3837,
      "indows": 3838,
      "▁environment": 3839,
      "▁ut": 3840,
      "▁System": 3841,
      "▁아직": 3842,
      "ober": 3843,
      "▁전문가": 3844,
      "▁others": 3845,
      "▁needs": 3846,
      "▁improve": 3847,
      "자리": 3848,
      "▁benef": 3849,
      "▁구축": 3850,
      "주의": 3851,
      "igma": 3852,
      "ura": 3853,
      "sec": 3854,
      "▁protect": 3855,
      "▁집중": 3856,
      "▁history": 3857,
      "aled": 3858,
      "▁University": 3859,
      "▁더라": 3860,
      "▁standard": 3861,
      "list": 3862,
      "▁Mc": 3863,
      "▁중소": 3864,
      "▁EPA": 3865,
      "ensity": 3866,
      "▁users": 3867,
      "▁Gu": 3868,
      "▁쇼": 3869,
      "irt": 3870,
      "iles": 3871,
      "▁occur": 3872,
      "\\\")": 3873,
      "iting": 3874,
      "down": 3875,
      "▁respectively": 3876,
      "urns": 3877,
      "▁wor": 3878,
      "▁tool": 3879,
      "ires": 3880,
      "▁conditions": 3881,
      "EC": 3882,
      "andid": 3883,
      "bc": 3884,
      "▁너무": 3885,
      "▁회전": 3886,
      "▁performance": 3887,
      "▁배치": 3888,
      "ered": 3889,
      "lo": 3890,
      "itted": 3891,
      "▁taken": 3892,
      "▁english": 3893,
      "mp": 3894,
      "▁Cont": 3895,
      "wards": 3896,
      "▁Co": 3897,
      "▁$$\\\\": 3898,
      "▁World": 3899,
      "▁comes": 3900,
      "▁재배": 3901,
      "▁냉": 3902,
      "▁공공": 3903,
      "]{},": 3904,
      "▁pain": 3905,
      "iction": 3906,
      "▁effic": 3907,
      "App": 3908,
      "▁calcul": 3909,
      "▁요청": 3910,
      "▁맡": 3911,
      "▁Med": 3912,
      "PS": 3913,
      "UR": 3914,
      "):\\": 3915,
      "Se": 3916,
      "▁표현": 3917,
      "ashing": 3918,
      "sequ": 3919,
      "▁전했": 3920,
      "▁제주": 3921,
      "▁브랜드": 3922,
      "▁징": 3923,
      "▁동시": 3924,
      "▁어린": 3925,
      "▁Phys": 3926,
      "▁시켜": 3927,
      "[@": 3928,
      "used": 3929,
      "▁조선": 3930,
      "nThere": 3931,
      "▁능력": 3932,
      "▁State": 3933,
      "plate": 3934,
      "▁six": 3935,
      "▁indu": 3936,
      "▁element": 3937,
      "▁influ": 3938,
      "▁ur": 3939,
      "▁achie": 3940,
      "▁이렇게": 3941,
      "yth": 3942,
      "▁someone": 3943,
      "▁인데": 3944,
      "▁전환": 3945,
      "▁대출": 3946,
      "▁indust": 3947,
      "▁release": 3948,
      "▁매우": 3949,
      "▁entire": 3950,
      "▁false": 3951,
      "utes": 3952,
      "▁attempt": 3953,
      "▁initial": 3954,
      "▁exact": 3955,
      "},": 3956,
      "▁After": 3957,
      "▁half": 3958,
      "▁connect": 3959,
      "▁존재": 3960,
      "▁서로": 3961,
      "izing": 3962,
      "▁확산": 3963,
      "▁paper": 3964,
      "▁En": 3965,
      "▁moment": 3966,
      "▁대부분": 3967,
      "▁방지": 3968,
      "▁face": 3969,
      "▁통신사": 3970,
      "▁addition": 3971,
      "like": 3972,
      "▁factor": 3973,
      "▁bring": 3974,
      "▁Eng": 3975,
      "▁clos": 3976,
      "▁Cal": 3977,
      "▁사장": 3978,
      "')": 3979,
      "▁date": 3980,
      "▁sat": 3981,
      "OP": 3982,
      "▁players": 3983,
      "▁whole": 3984,
      "▁difference": 3985,
      "rc": 3986,
      "▁temper": 3987,
      "▁pri": 3988,
      "▁나타났": 3989,
      "▁required": 3990,
      "▁relationship": 3991,
      "▁Am": 3992,
      "▁부문": 3993,
      "▁da": 3994,
      "▁message": 3995,
      "▁왜": 3996,
      "input": 3997,
      "▁펀": 3998,
      "무원": 3999,
      "phi": 4000,
      "aging": 4001,
      "▁necess": 4002,
      "▁believe": 4003,
      "iff": 4004,
      "▁almost": 4005,
      "▁started": 4006,
      "▁security": 4007,
      "hel": 4008,
      "▁dr": 4009,
      "▁특징": 4010,
      "동산": 4011,
      "plit": 4012,
      "▁께": 4013,
      "npublic": 4014,
      "▁혁신": 4015,
      "AA": 4016,
      "▁chall": 4017,
      "irl": 4018,
      "▁vs": 4019,
      "▁Qu": 4020,
      "▁수요": 4021,
      "▁Par": 4022,
      "$\\": 4023,
      "apan": 4024,
      "▁prevent": 4025,
      "으나": 4026,
      "▁games": 4027,
      "ief": 4028,
      "▁Part": 4029,
      "▁나가": 4030,
      "▁asked": 4031,
      "▁third": 4032,
      "function": 4033,
      "▁food": 4034,
      "post": 4035,
      "▁이루어": 4036,
      "▁행위": 4037,
      "sing": 4038,
      "▁보내": 4039,
      "와대": 4040,
      "▁black": 4041,
      "▁나온": 4042,
      "nWhen": 4043,
      "▁프레": 4044,
      "▁검토": 4045,
      "ospital": 4046,
      "olitics": 4047,
      "전히": 4048,
      "▁금리": 4049,
      "▁씩": 4050,
      "-\\\\": 4051,
      "▁업계": 4052,
      "▁positive": 4053,
      "▁weeks": 4054,
      "▁depend": 4055,
      "▁반대": 4056,
      "▁재판": 4057,
      "OL": 4058,
      "fully": 4059,
      "▁compet": 4060,
      "▁실적": 4061,
      "reed": 4062,
      "▁patient": 4063,
      "trans": 4064,
      "ython": 4065,
      "▁장애": 4066,
      "▁위험": 4067,
      "▁퍼": 4068,
      "▁소비자": 4069,
      "ederal": 4070,
      "▁기획": 4071,
      "▁그렇": 4072,
      "▁맛": 4073,
      "ervice": 4074,
      "▁Sen": 4075,
      "▁Do": 4076,
      "▁systems": 4077,
      "▁party": 4078,
      "beta": 4079,
      "▁시험": 4080,
      "\\\";\\": 4081,
      "▁methods": 4082,
      "xy": 4083,
      "nimport": 4084,
      "ework": 4085,
      "▁측정": 4086,
      "▁config": 4087,
      "▁sam": 4088,
      "▁어떻게": 4089,
      "▁변경": 4090,
      "▁land": 4091,
      "This": 4092,
      "verse": 4093,
      "▁matter": 4094,
      "oke": 4095,
      "▁appear": 4096,
      "▁circ": 4097,
      "반기": 4098,
      "▁hours": 4099,
      "ribute": 4100,
      "▁제기": 4101,
      "▁issues": 4102,
      "▁region": 4103,
      "▁diffic": 4104,
      "▁설정": 4105,
      "lib": 4106,
      "equ": 4107,
      "Value": 4108,
      "Sc": 4109,
      "▁대로": 4110,
      "▁제시": 4111,
      "▁screen": 4112,
      "▁color": 4113,
      "▁얘": 4114,
      "▁비해": 4115,
      "▁various": 4116,
      "▁\\\\[": 4117,
      "omy": 4118,
      "▁Af": 4119,
      "▁night": 4120,
      "▁fem": 4121,
      "pm": 4122,
      "텐츠": 4123,
      "▁sw": 4124,
      "▁du": 4125,
      "▁ce": 4126,
      "▁즐": 4127,
      "▁Here": 4128,
      "▁random": 4129,
      "▁만나": 4130,
      "▁valid": 4131,
      "▁command": 4132,
      "▁흐": 4133,
      "================": 4134,
      "sk": 4135,
      "은행": 4136,
      "QL": 4137,
      "▁fav": 4138,
      "▁terms": 4139,
      "▁우수": 4140,
      "▁Aust": 4141,
      "▁캠": 4142,
      "▁States": 4143,
      "▁needed": 4144,
      "▁합의": 4145,
      "Mod": 4146,
      "그러나": 4147,
      "▁인해": 4148,
      "amed": 4149,
      "▁뜻": 4150,
      "lier": 4151,
      "▁공식": 4152,
      "rael": 4153,
      "ilt": 4154,
      "▁simply": 4155,
      "▁obtained": 4156,
      "comes": 4157,
      "▁background": 4158,
      "▁write": 4159,
      "anced": 4160,
      "▁impact": 4161,
      "▁experiment": 4162,
      "MS": 4163,
      "▁flu": 4164,
      "▁pret": 4165,
      "▁factors": 4166,
      "▁taking": 4167,
      "▁begin": 4168,
      "▁Jan": 4169,
      "▁지난달": 4170,
      "▁재정": 4171,
      "ND": 4172,
      "ops": 4173,
      "▁went": 4174,
      "▁으나": 4175,
      "▁national": 4176,
      "▁작품": 4177,
      "▁동일": 4178,
      "▁numbers": 4179,
      "cin": 4180,
      "▁쪽": 4181,
      "ris": 4182,
      "▁자산": 4183,
      "▁hit": 4184,
      "▁web": 4185,
      "▁dam": 4186,
      "▁included": 4187,
      "term": 4188,
      "▁loss": 4189,
      "pecially": 4190,
      "▁장기": 4191,
      "odes": 4192,
      "▁accept": 4193,
      "oto": 4194,
      "▁production": 4195,
      "▁하루": 4196,
      "▁problems": 4197,
      "▁외부": 4198,
      "▁지정": 4199,
      "▁effort": 4200,
      "▁lines": 4201,
      "ried": 4202,
      "▁높이": 4203,
      "▁물질": 4204,
      "▁questions": 4205,
      "▁cross": 4206,
      "esc": 4207,
      "▁Ge": 4208,
      "▁공격": 4209,
      "▁bad": 4210,
      "sole": 4211,
      "▁Dep": 4212,
      "script": 4213,
      "▁style": 4214,
      "/-": 4215,
      "sel": 4216,
      "▁Pol": 4217,
      "이션": 4218,
      "▁Ser": 4219,
      "ico": 4220,
      "ese": 4221,
      "▁컴": 4222,
      "%)": 4223,
      "스터": 4224,
      "▁dest": 4225,
      "▁models": 4226,
      "▁규제": 4227,
      "▁events": 4228,
      "▁North": 4229,
      "ography": 4230,
      "▁좌": 4231,
      "▁National": 4232,
      "late": 4233,
      "▁염": 4234,
      "▁los": 4235,
      "▁사례": 4236,
      "▁variable": 4237,
      "ounter": 4238,
      "pre": 4239,
      "▁fall": 4240,
      "▁surv": 4241,
      "Aut": 4242,
      "nHere": 4243,
      "▁base": 4244,
      "rror": 4245,
      "alt": 4246,
      "▁단지": 4247,
      "nder": 4248,
      "▁자연": 4249,
      "acebook": 4250,
      "pite": 4251,
      "▁cle": 4252,
      "▁신고": 4253,
      "▁첨": 4254,
      "enn": 4255,
      "tt": 4256,
      "▁담당": 4257,
      "▁과제": 4258,
      "▁자원": 4259,
      "reet": 4260,
      "▁지도": 4261,
      "▁itself": 4262,
      "▁article": 4263,
      "▁global": 4264,
      "▁properties": 4265,
      "▁dig": 4266,
      "▁South": 4267,
      "▁Not": 4268,
      "ramework": 4269,
      "▁candid": 4270,
      "▁nothing": 4271,
      "▁녹": 4272,
      "▁pick": 4273,
      "arrow": 4274,
      "▁front": 4275,
      "▁부동산": 4276,
      "▁체결": 4277,
      "ony": 4278,
      "▁live": 4279,
      "='": 4280,
      "aid": 4281,
      "▁everything": 4282,
      "▁요소": 4283,
      "ruction": 4284,
      "']": 4285,
      "▁얘기": 4286,
      "▁quick": 4287,
      "▁가스": 4288,
      "▁려는": 4289,
      "도체": 4290,
      "▁신규": 4291,
      "▁ago": 4292,
      "▁option": 4293,
      "▁속도": 4294,
      "▁몇": 4295,
      "▁견": 4296,
      "▁property": 4297,
      "gu": 4298,
      "▁population": 4299,
      "-\\": 4300,
      "▁마다": 4301,
      "▁pers": 4302,
      "▁average": 4303,
      "▁remov": 4304,
      "▁움": 4305,
      "▁fire": 4306,
      "ilities": 4307,
      "▁해도": 4308,
      "ronic": 4309,
      "lected": 4310,
      "▁length": 4311,
      "inese": 4312,
      "But": 4313,
      "ulated": 4314,
      "▁Then": 4315,
      "▁인식": 4316,
      "hem": 4317,
      "resh": 4318,
      "▁헌": 4319,
      "mar": 4320,
      "▁synt": 4321,
      "▁$(": 4322,
      "▁phase": 4323,
      "▁ge": 4324,
      "rew": 4325,
      "uge": 4326,
      "nc": 4327,
      "▁pan": 4328,
      "▁인가": 4329,
      "▁Mr": 4330,
      "▁performed": 4331,
      "거리": 4332,
      "▁hyp": 4333,
      "바일": 4334,
      "IM": 4335,
      "▁아무": 4336,
      "eter": 4337,
      "with": 4338,
      "gl": 4339,
      "▁잔": 4340,
      "▁consist": 4341,
      "▁features": 4342,
      "▁particip": 4343,
      "Th": 4344,
      "rast": 4345,
      "▁Christ": 4346,
      "▁제외": 4347,
      "▁aff": 4348,
      "▁Intern": 4349,
      "rite": 4350,
      "▁경험": 4351,
      "anguage": 4352,
      "▁primary": 4353,
      "▁flow": 4354,
      "▁services": 4355,
      "field": 4356,
      "▁연구원": 4357,
      "▁고용": 4358,
      "▁lat": 4359,
      "▁functions": 4360,
      "iqu": 4361,
      "▁default": 4362,
      "nOn": 4363,
      "▁width": 4364,
      "▁nat": 4365,
      "▁도로": 4366,
      "▁Act": 4367,
      "한다": 4368,
      "ached": 4369,
      "By": 4370,
      "▁드러": 4371,
      "▁analy": 4372,
      "▁공연": 4373,
      "path": 4374,
      "민국": 4375,
      "▁il": 4376,
      "▁선보": 4377,
      "프트": 4378,
      "▁compan": 4379,
      "▁students": 4380,
      "ION": 4381,
      "▁조건": 4382,
      "):": 4383,
      "▁방침": 4384,
      "▁특정": 4385,
      "▁기회": 4386,
      "▁Int": 4387,
      "().": 4388,
      "▁주변": 4389,
      "utions": 4390,
      "▁뛰": 4391,
      "EM": 4392,
      "▁outside": 4393,
      "▁의사": 4394,
      "▁surface": 4395,
      "AB": 4396,
      "▁By": 4397,
      "▁[**": 4398,
      "▁청와대": 4399,
      "▁task": 4400,
      "CH": 4401,
      "▁당국": 4402,
      "clude": 4403,
      "▁Bar": 4404,
      "ibrary": 4405,
      "lambda": 4406,
      "▁acid": 4407,
      "▁anyone": 4408,
      "▁mechanism": 4409,
      "uel": 4410,
      "▁수도": 4411,
      "▁pressure": 4412,
      "▁fight": 4413,
      "▁Brit": 4414,
      "▁끌": 4415,
      "▁por": 4416,
      "▁마을": 4417,
      "do": 4418,
      "mathbb": 4419,
      "lying": 4420,
      "lin": 4421,
      "▁behind": 4422,
      "...\\": 4423,
      "▁estab": 4424,
      "▁original": 4425,
      "▁디자": 4426,
      "서울": 4427,
      "▁보유": 4428,
      "\\\")\\": 4429,
      "▁전시": 4430,
      "actions": 4431,
      "▁saying": 4432,
      "astic": 4433,
      "▁mut": 4434,
      "▁훈": 4435,
      "aul": 4436,
      "▁ID": 4437,
      "▁차지": 4438,
      "▁회복": 4439,
      "▁vict": 4440,
      "▁식품": 4441,
      "▁draw": 4442,
      "▁도움": 4443,
      "▁인기": 4444,
      "▁decision": 4445,
      "▁involved": 4446,
      "rack": 4447,
      "▁Sun": 4448,
      "▁항공": 4449,
      "▁십": 4450,
      "▁stri": 4451,
      "▁소재": 4452,
      "▁received": 4453,
      "▁모르": 4454,
      "sl": 4455,
      "▁예방": 4456,
      "roph": 4457,
      "char": 4458,
      "Object": 4459,
      "▁chem": 4460,
      "▁heart": 4461,
      "▁click": 4462,
      "▁threat": 4463,
      "▁limit": 4464,
      "\\\\\\": 4465,
      "▁correspon": 4466,
      "▁Just": 4467,
      "▁database": 4468,
      "▁parameters": 4469,
      "▁court": 4470,
      "롯데": 4471,
      "top": 4472,
      "▁링": 4473,
      "apt": 4474,
      "▁차이": 4475,
      "▁War": 4476,
      "▁라인": 4477,
      "raction": 4478,
      "일리": 4479,
      "▁Copyright": 4480,
      "▁regard": 4481,
      "▁looks": 4482,
      "▁currently": 4483,
      "pper": 4484,
      "하지만": 4485,
      "▁공장": 4486,
      "quest": 4487,
      "ication": 4488,
      "men": 4489,
      "light": 4490,
      "▁conduct": 4491,
      "▁비판": 4492,
      "한국": 4493,
      "▁webs": 4494,
      "▁introdu": 4495,
      "idered": 4496,
      "atively": 4497,
      "▁America": 4498,
      "dis": 4499,
      "ites": 4500,
      "▁핵심": 4501,
      "▁ey": 4502,
      "▁번역": 4503,
      "▁IT": 4504,
      "▁recently": 4505,
      "▁mole": 4506,
      "▁덧": 4507,
      "▁주가": 4508,
      "▁bill": 4509,
      "▁쿠": 4510,
      "▁펼": 4511,
      "▁column": 4512,
      "▁Germ": 4513,
      "▁놀": 4514,
      "▁가입": 4515,
      "▁sort": 4516,
      "▁히": 4517,
      "▁policy": 4518,
      "▁soft": 4519,
      "▁퇴": 4520,
      "▁구매": 4521,
      "ults": 4522,
      "▁foot": 4523,
      "bu": 4524,
      "▁유럽": 4525,
      "how": 4526,
      "▁─": 4527,
      "▁City": 4528,
      "▁learn": 4529,
      "▁online": 4530,
      "▁dynam": 4531,
      "▁um": 4532,
      "▁prot": 4533,
      "\\\"]\\": 4534,
      "▁세요": 4535,
      "▁인상": 4536,
      "▁펀드": 4537,
      "▁org": 4538,
      "▁More": 4539,
      "▁비율": 4540,
      "atform": 4541,
      "▁협회": 4542,
      "▁anim": 4543,
      "▁CD": 4544,
      "▁track": 4545,
      "▁continue": 4546,
      "EO": 4547,
      "▁compar": 4548,
      "▁벤": 4549,
      "imens": 4550,
      "▁측면": 4551,
      "▁aim": 4552,
      "▁considered": 4553,
      "index": 4554,
      "▁최초": 4555,
      "▁SK": 4556,
      "▁참가": 4557,
      "▁script": 4558,
      "▁소속": 4559,
      "▁균": 4560,
      "▁cause": 4561,
      "▁quite": 4562,
      "cast": 4563,
      "ken": 4564,
      "pped": 4565,
      "▁공무원": 4566,
      "▁longer": 4567,
      "+\\\\": 4568,
      "▁Google": 4569,
      "▁기념": 4570,
      "▁포금": 4571,
      "▁청소": 4572,
      "▁player": 4573,
      "▁수단": 4574,
      "▁Ne": 4575,
      "▁우선": 4576,
      "▁behavior": 4577,
      "▁소득": 4578,
      "▁CO": 4579,
      "pose": 4580,
      "▁화학": 4581,
      "aving": 4582,
      "item": 4583,
      "▁mind": 4584,
      "▁emb": 4585,
      "_\\\\": 4586,
      "▁㎡": 4587,
      "▁외국인": 4588,
      "Man": 4589,
      "▁도면": 4590,
      "▁결국": 4591,
      "▁wanted": 4592,
      "▁여행": 4593,
      "');\\": 4594,
      "▁인간": 4595,
      "atives": 4596,
      "▁효율": 4597,
      "▁coming": 4598,
      "____": 4599,
      "▁rights": 4600,
      "run": 4601,
      "ashington": 4602,
      "어난": 4603,
      "▁easy": 4604,
      "▁절차": 4605,
      "▁단말": 4606,
      "▁static": 4607,
      "aced": 4608,
      "▁photo": 4609,
      "▁Ju": 4610,
      "nK": 4611,
      "▁네트": 4612,
      "▁참조": 4613,
      "▁quality": 4614,
      "dom": 4615,
      "erc": 4616,
      "▁지나": 4617,
      "iding": 4618,
      "▁납": 4619,
      "▁especially": 4620,
      "▁comment": 4621,
      "▁pict": 4622,
      "▁described": 4623,
      "const": 4624,
      "▁보고": 4625,
      "nAl": 4626,
      "span": 4627,
      "▁love": 4628,
      "ria": 4629,
      "▁대전": 4630,
      "▁ill": 4631,
      "selves": 4632,
      "ming": 4633,
      "▁hyper": 4634,
      "▁white": 4635,
      "▁Ag": 4636,
      "ises": 4637,
      "▁올라": 4638,
      "▁흡": 4639,
      "▁최종": 4640,
      "▁AS": 4641,
      "▁的": 4642,
      "▁각종": 4643,
      "▁context": 4644,
      "붙였": 4645,
      "▁솔": 4646,
      "▁',": 4647,
      "▁ground": 4648,
      "iet": 4649,
      "▁hope": 4650,
      "point": 4651,
      "▁map": 4652,
      "ournal": 4653,
      "▁administration": 4654,
      "▁부족": 4655,
      "▁코스": 4656,
      "▁기판": 4657,
      "▁dire": 4658,
      "▁앞서": 4659,
      "▁달리": 4660,
      "nHe": 4661,
      "▁countries": 4662,
      "tee": 4663,
      "▁defined": 4664,
      "▁emer": 4665,
      "▁알려졌": 4666,
      "ili": 4667,
      "uit": 4668,
      "▁숨": 4669,
      "▁->": 4670,
      "▁presence": 4671,
      "머니": 4672,
      "',\\": 4673,
      "ips": 4674,
      "coin": 4675,
      "▁avoid": 4676,
      "▁체계": 4677,
      "osph": 4678,
      "▁increasing": 4679,
      "▁March": 4680,
      "▁tiss": 4681,
      "istance": 4682,
      "▁Fig": 4683,
      "▁지구": 4684,
      "▁저장": 4685,
      "nIs": 4686,
      "▁status": 4687,
      "▁특성": 4688,
      "▁takes": 4689,
      "oe": 4690,
      "▁기다": 4691,
      "▁기초": 4692,
      "▁mm": 4693,
      "▁difficult": 4694,
      "group": 4695,
      "▁proced": 4696,
      "▁발견": 4697,
      "▁effective": 4698,
      "rown": 4699,
      "He": 4700,
      "nTo": 4701,
      "rome": 4702,
      "▁고자": 4703,
      "oul": 4704,
      "elt": 4705,
      "▁query": 4706,
      "▁imm": 4707,
      "▁complete": 4708,
      "eds": 4709,
      "▁심사": 4710,
      "▁폴리": 4711,
      "▁사망": 4712,
      "query": 4713,
      "▁para": 4714,
      "▁directly": 4715,
      "IL": 4716,
      "▁어렵": 4717,
      "▁음악": 4718,
      "▁recept": 4719,
      "▁estim": 4720,
      "sigma": 4721,
      "▁consum": 4722,
      "IV": 4723,
      "cular": 4724,
      "▁fine": 4725,
      "일보": 4726,
      "▁구비": 4727,
      "eration": 4728,
      "▁제출": 4729,
      "▁execut": 4730,
      "▁복수": 4731,
      "▁Sch": 4732,
      "^{\\\\": 4733,
      "▁대한민국": 4734,
      "ha": 4735,
      "▁택": 4736,
      "▁Cor": 4737,
      "▁모바일": 4738,
      "ica": 4739,
      "▁br": 4740,
      "▁autom": 4741,
      "▁words": 4742,
      "▁types": 4743,
      "▁medical": 4744,
      "Class": 4745,
      "▁여자": 4746,
      "bor": 4747,
      "▁이미지": 4748,
      "▁콘텐츠": 4749,
      "▁companies": 4750,
      "▁Obama": 4751,
      "▁의혹": 4752,
      "more": 4753,
      "▁모듈": 4754,
      "Item": 4755,
      "▁체험": 4756,
      "▁ess": 4757,
      "▁먼저": 4758,
      "just": 4759,
      "▁Israel": 4760,
      "▁elements": 4761,
      "▁이것": 4762,
      "ades": 4763,
      "▁slow": 4764,
      "▁gene": 4765,
      "동안": 4766,
      "▁반도체": 4767,
      "ying": 4768,
      "▁나타내": 4769,
      "▁못했": 4770,
      "aligned": 4771,
      "▁distribution": 4772,
      "▁Fr": 4773,
      "▁미디어": 4774,
      "uary": 4775,
      "▁contain": 4776,
      "OD": 4777,
      "Al": 4778,
      "ii": 4779,
      "oon": 4780,
      "▁색": 4781,
      "▁force": 4782,
      "▁condition": 4783,
      "aling": 4784,
      "이날": 4785,
      "pat": 4786,
      "▁성과": 4787,
      "▁images": 4788,
      "ocation": 4789,
      "▁Em": 4790,
      "▁recogn": 4791,
      "igen": 4792,
      "▁recomm": 4793,
      "린다": 4794,
      "▁추천": 4795,
      "▁update": 4796,
      "▁보였": 4797,
      "augh": 4798,
      "})": 4799,
      "▁contact": 4800,
      "▁intern": 4801,
      "▁예술": 4802,
      "▁sem": 4803,
      "▁망": 4804,
      "▁developed": 4805,
      "rim": 4806,
      "osition": 4807,
      "▁나왔": 4808,
      "▁대선": 4809,
      "▁email": 4810,
      "▁채널": 4811,
      "▁섬": 4812,
      "▁뭐": 4813,
      "▁더라도": 4814,
      "▁정신": 4815,
      "▁현실": 4816,
      "▁John": 4817,
      "▁tw": 4818,
      "▁ult": 4819,
      "▁Har": 4820,
      "▁차원": 4821,
      "▁DNA": 4822,
      "ING": 4823,
      "bin": 4824,
      "▁button": 4825,
      "elling": 4826,
      "▁instance": 4827,
      "▁sense": 4828,
      "▁보건": 4829,
      "gs": 4830,
      "▁aud": 4831,
      "▁ball": 4832,
      "}^{": 4833,
      "fl": 4834,
      "▁IN": 4835,
      "▁본격": 4836,
      "world": 4837,
      "▁box": 4838,
      "ccording": 4839,
      "▁military": 4840,
      "array": 4841,
      "▁언어": 4842,
      "map": 4843,
      "▁의한": 4844,
      "▁late": 4845,
      "otic": 4846,
      "ulations": 4847,
      "tex": 4848,
      "fd": 4849,
      "hood": 4850,
      "▁온도": 4851,
      "▁차례": 4852,
      "▁lib": 4853,
      "ula": 4854,
      "arter": 4855,
      "▁etc": 4856,
      "▁통한": 4857,
      "lied": 4858,
      "hol": 4859,
      "xim": 4860,
      "▁IS": 4861,
      "▁item": 4862,
      "▁그래서": 4863,
      "▁weight": 4864,
      "▁오른": 4865,
      "워크": 4866,
      "▁플레이": 4867,
      "▁Per": 4868,
      "▁officials": 4869,
      "▁최소": 4870,
      "▁Mod": 4871,
      "▁El": 4872,
      "▁repe": 4873,
      "igr": 4874,
      "▁광고": 4875,
      "▁특허": 4876,
      "▁©": 4877,
      "vere": 4878,
      "▁빌": 4879,
      "▁ens": 4880,
      "────────": 4881,
      "▁논란": 4882,
      "▁forward": 4883,
      "▁additional": 4884,
      "▁예측": 4885,
      "▁옥": 4886,
      "▁ability": 4887,
      "bol": 4888,
      "▁충분": 4889,
      "▁접촉": 4890,
      "▁mach": 4891,
      "><": 4892,
      "▁덧붙였": 4893,
      "▁바이러스": 4894,
      "▁향상": 4895,
      "▁educ": 4896,
      "▁interview": 4897,
      "▁Facebook": 4898,
      "lick": 4899,
      "gamma": 4900,
      "▁building": 4901,
      "▁therapy": 4902,
      "나라": 4903,
      "aker": 4904,
      "▁수입": 4905,
      "소리": 4906,
      "▁%),": 4907,
      "▁rati": 4908,
      "▁secret": 4909,
      "▁내려": 4910,
      "PC": 4911,
      "▁double": 4912,
      "▁gets": 4913,
      "▁총리": 4914,
      "▁film": 4915,
      "nV": 4916,
      "▁commit": 4917,
      "▁연장": 4918,
      "▁생성": 4919,
      "':": 4920,
      "▁대신": 4921,
      "state": 4922,
      "▁ways": 4923,
      "▁Dis": 4924,
      "▁대형": 4925,
      "nvar": 4926,
      "▁brain": 4927,
      "Form": 4928,
      "▁Now": 4929,
      "https": 4930,
      "▁leaders": 4931,
      "▁released": 4932,
      "ham": 4933,
      "ils": 4934,
      "nu": 4935,
      "▁infe": 4936,
      "nSt": 4937,
      "cWe": 4938,
      "▁더불": 4939,
      "▁training": 4940,
      "▁희망": 4941,
      "▁White": 4942,
      "▁따라서": 4943,
      "▁시기": 4944,
      "▁마이": 4945,
      "witch": 4946,
      "bt": 4947,
      "▁TH": 4948,
      "▁숙": 4949,
      "layout": 4950,
      "▁여야": 4951,
      "지막": 4952,
      "▁분리": 4953,
      "Ad": 4954,
      "▁전력": 4955,
      "▁memory": 4956,
      "ternal": 4957,
      "▁법원": 4958,
      "▁Oct": 4959,
      "▁회담": 4960,
      "As": 4961,
      "▁디자인": 4962,
      "▁낙": 4963,
      "CD": 4964,
      "ners": 4965,
      "▁분양": 4966,
      "▁identified": 4967,
      "ned": 4968,
      "▁사전": 4969,
      "▁prior": 4970,
      "▁woman": 4971,
      "vant": 4972,
      "▁에선": 4973,
      "▁fund": 4974,
      "where": 4975,
      "▁꾸": 4976,
      "sq": 4977,
      "▁($": 4978,
      "▁민간": 4979,
      "▁stay": 4980,
      "▁election": 4981,
      "▁세대": 4982,
      "▁설립": 4983,
      "▁무엇": 4984,
      "▁얼마": 4985,
      "▁rates": 4986,
      "coming": 4987,
      "▁빈": 4988,
      "▁음식": 4989,
      "ressive": 4990,
      "))\\": 4991,
      "▁/>\\": 4992,
      "▁일자리": 4993,
      "▁경기도": 4994,
      "▁pretty": 4995,
      "▁셀": 4996,
      "eps": 4997,
      "▁향후": 4998,
      "▁갑": 4999,
      "▁Austral": 5000,
      "▁매일": 5001,
      "▁법인": 5002,
      "▁투표": 5003,
      "▁provided": 5004,
      "▁bound": 5005,
      "sych": 5006,
      "pril": 5007,
      "▁정확": 5008,
      "▁gives": 5009,
      "orea": 5010,
      "ledge": 5011,
      "▁mis": 5012,
      "▁남자": 5013,
      "▁가진": 5014,
      "Is": 5015,
      "▁블록": 5016,
      "▁제안": 5017,
      "▁유치": 5018,
      "▁alle": 5019,
      "▁son": 5020,
      "▁immedi": 5021,
      "▁구속": 5022,
      "▁했으며": 5023,
      "▁인력": 5024,
      "ida": 5025,
      "File": 5026,
      "gram": 5027,
      "ech": 5028,
      "▁share": 5029,
      "SE": 5030,
      "▁Twitter": 5031,
      "▁근로": 5032,
      "▁친구": 5033,
      "▁rev": 5034,
      "▁house": 5035,
      "▁삶": 5036,
      "▁height": 5037,
      "▁contract": 5038,
      "▁연속": 5039,
      "▁determine": 5040,
      "▁stra": 5041,
      "▁움직": 5042,
      "▁조금": 5043,
      "▁products": 5044,
      "▁전년": 5045,
      "attle": 5046,
      "▁곡": 5047,
      "▁office": 5048,
      "▁수신": 5049,
      "nMy": 5050,
      "디오": 5051,
      "▁혜": 5052,
      "▁진단": 5053,
      "soft": 5054,
      "▁공원": 5055,
      "▁wrote": 5056,
      "▁중소기업": 5057,
      "▁의회": 5058,
      "inter": 5059,
      "▁Aug": 5060,
      "▁촬": 5061,
      "emb": 5062,
      "▁continu": 5063,
      "▁Of": 5064,
      "▁minutes": 5065,
      "▁watch": 5066,
      "▁라이": 5067,
      "aa": 5068,
      "▁Ang": 5069,
      "▁외교": 5070,
      "size": 5071,
      "obile": 5072,
      "플레이": 5073,
      "inton": 5074,
      "▁겨": 5075,
      "}{\\\\": 5076,
      "atus": 5077,
      "▁분위": 5078,
      "▁Our": 5079,
      "gra": 5080,
      "oud": 5081,
      "cos": 5082,
      "cm": 5083,
      "▁areas": 5084,
      "▁technology": 5085,
      "py": 5086,
      "cial": 5087,
      "▁fast": 5088,
      "▁center": 5089,
      "▁sett": 5090,
      "umb": 5091,
      "▁푸": 5092,
      "▁입력": 5093,
      "▁squ": 5094,
      "yna": 5095,
      "▁Washington": 5096,
      "▁므로": 5097,
      "▁temperature": 5098,
      "리스": 5099,
      "▁Get": 5100,
      "earch": 5101,
      "▁시즌": 5102,
      "▁통과": 5103,
      "Get": 5104,
      "▁store": 5105,
      "▁매수": 5106,
      "▁[*": 5107,
      "▁industry": 5108,
      "▁situation": 5109,
      "ottom": 5110,
      "▁찾아": 5111,
      "▁붙": 5112,
      "▁청구": 5113,
      "▁흥": 5114,
      "ilon": 5115,
      "istics": 5116,
      "Time": 5117,
      "times": 5118,
      "▁시킬": 5119,
      "IP": 5120,
      "▁isol": 5121,
      "▁walk": 5122,
      "eq": 5123,
      "▁밤": 5124,
      "▁Sm": 5125,
      "mathcal": 5126,
      "▁hospital": 5127,
      "▁financ": 5128,
      "OC": 5129,
      "▁법률": 5130,
      "▁어린이": 5131,
      "▁coron": 5132,
      "pir": 5133,
      "ube": 5134,
      "▁Japan": 5135,
      "데이": 5136,
      "▁수용": 5137,
      "▁Pe": 5138,
      "▁Will": 5139,
      "▁Red": 5140,
      "▁시청": 5141,
      "▁텍": 5142,
      "▁constant": 5143,
      "ario": 5144,
      "▁전해": 5145,
      "omb": 5146,
      "annel": 5147,
      "}_": 5148,
      "▁revealed": 5149,
      "▁정당": 5150,
      "rict": 5151,
      "▁유통": 5152,
      "ATE": 5153,
      "▁소리": 5154,
      "active": 5155,
      "▁border": 5156,
      "▁greater": 5157,
      "▁billion": 5158,
      "▁사태": 5159,
      "▁개혁": 5160,
      "▁네트워크": 5161,
      "▁Sept": 5162,
      "▁poly": 5163,
      "▁끼": 5164,
      "▁청년": 5165,
      ")-": 5166,
      "▁led": 5167,
      "▁과거": 5168,
      "></": 5169,
      "▁발언": 5170,
      "▁등장": 5171,
      "pri": 5172,
      "▁Val": 5173,
      "▁sample": 5174,
      "nAd": 5175,
      "▁upd": 5176,
      "Exception": 5177,
      "content": 5178,
      "▁소개": 5179,
      "TP": 5180,
      "▁reports": 5181,
      "▁device": 5182,
      "asons": 5183,
      "▁프리": 5184,
      "▁});\\": 5185,
      "▁earlier": 5186,
      "ills": 5187,
      "board": 5188,
      "▁건물": 5189,
      "▁가까": 5190,
      "▁진출": 5191,
      "▁reduced": 5192,
      "▁reference": 5193,
      "....": 5194,
      "ously": 5195,
      "▁wait": 5196,
      "▁전극": 5197,
      "▁조합": 5198,
      "▁백신": 5199,
      "포츠": 5200,
      "▁말씀": 5201,
      "▁ste": 5202,
      "▁프레임": 5203,
      "aged": 5204,
      "och": 5205,
      "itions": 5206,
      "▁construct": 5207,
      "vey": 5208,
      "▁세상": 5209,
      "oring": 5210,
      "kn": 5211,
      "▁sal": 5212,
      "▁느냐": 5213,
      "▁'(": 5214,
      "▁라도": 5215,
      "▁options": 5216,
      "▁ter": 5217,
      "Act": 5218,
      "▁술": 5219,
      "').": 5220,
      "hern": 5221,
      "▁협상": 5222,
      "▁출신": 5223,
      "MA": 5224,
      "Date": 5225,
      "iven": 5226,
      "sqrt": 5227,
      "icon": 5228,
      "▁EU": 5229,
      "▁differences": 5230,
      "\\\").": 5231,
      "▁June": 5232,
      "▁슈": 5233,
      "▁됩": 5234,
      "▁mg": 5235,
      "▁센서": 5236,
      "▁Mus": 5237,
      "▁시킨": 5238,
      "▁누리": 5239,
      "TA": 5240,
      "xx": 5241,
      "can": 5242,
      "▁saf": 5243,
      "aries": 5244,
      "▁legal": 5245,
      "▁lack": 5246,
      "▁Cong": 5247,
      "▁팬": 5248,
      "gor": 5249,
      "▁영국": 5250,
      "▁머니": 5251,
      "▁vote": 5252,
      "▁데일리": 5253,
      "Ind": 5254,
      "▁중단": 5255,
      "▁파악": 5256,
      "▁Department": 5257,
      "▁active": 5258,
      "ais": 5259,
      "▁goal": 5260,
      "▁대화": 5261,
      "▁Data": 5262,
      "▁롯데": 5263,
      "▁평화": 5264,
      "▁아야": 5265,
      "▁cred": 5266,
      "▁section": 5267,
      "▁resid": 5268,
      "aves": 5269,
      "▁treated": 5270,
      "(\\": 5271,
      "▁mention": 5272,
      "▁Stud": 5273,
      "▁배우": 5274,
      "▁겪": 5275,
      "▁vac": 5276,
      "mark": 5277,
      "▁price": 5278,
      "ening": 5279,
      "▁measured": 5280,
      "ancy": 5281,
      "▁위반": 5282,
      "fil": 5283,
      "ourt": 5284,
      "▁pie": 5285,
      "▁opportun": 5286,
      "▁website": 5287,
      "▁las": 5288,
      "럼프": 5289,
      "▁applic": 5290,
      "▁분위기": 5291,
      "▁봐": 5292,
      "gery": 5293,
      "omega": 5294,
      "▁NS": 5295,
      "▁배출": 5296,
      "▁stage": 5297,
      "ivil": 5298,
      "▁La": 5299,
      "▁complic": 5300,
      "nNow": 5301,
      "amb": 5302,
      "▁federal": 5303,
      "▁주목": 5304,
      "▁loop": 5305,
      "▁점검": 5306,
      "▁보장": 5307,
      "▁Russia": 5308,
      "▁Dav": 5309,
      "▁」": 5310,
      "za": 5311,
      "▁언급": 5312,
      "▁jud": 5313,
      "table": 5314,
      "▁류": 5315,
      "sim": 5316,
      "▁방역": 5317,
      "anger": 5318,
      "▁dead": 5319,
      "▁April": 5320,
      "▁altern": 5321,
      "▁extra": 5322,
      "code": 5323,
      "inally": 5324,
      "▁강원": 5325,
      "▁촬영": 5326,
      "▁싸": 5327,
      "▁regular": 5328,
      "▁determined": 5329,
      "ategory": 5330,
      "벤트": 5331,
      "ecause": 5332,
      "▁인도": 5333,
      "clus": 5334,
      "▁uses": 5335,
      "▁details": 5336,
      "▁HT": 5337,
      "▁동작": 5338,
      "IA": 5339,
      "▁sen": 5340,
      "▁lost": 5341,
      "▁위하": 5342,
      "▁names": 5343,
      "▁Gl": 5344,
      "▁출력": 5345,
      "정부": 5346,
      "▁금속": 5347,
      "avirus": 5348,
      "▁인수": 5349,
      "$$\\": 5350,
      "▁stim": 5351,
      "▁broad": 5352,
      "▁설계": 5353,
      "ester": 5354,
      "▁+/-": 5355,
      "And": 5356,
      "▁밖에": 5357,
      "▁species": 5358,
      "▁assum": 5359,
      "▁거쳐": 5360,
      "▁탑": 5361,
      "▁제거": 5362,
      "▁management": 5363,
      "▁personal": 5364,
      "▁send": 5365,
      "heck": 5366,
      "PD": 5367,
      "▁디스": 5368,
      "}$,": 5369,
      "▁practice": 5370,
      "eline": 5371,
      "▁지사": 5372,
      "▁홍보": 5373,
      "▁official": 5374,
      "riday": 5375,
      "▁거의": 5376,
      "▁language": 5377,
      "rho": 5378,
      "[]": 5379,
      "▁compl": 5380,
      "▁가정": 5381,
      "▁room": 5382,
      "bon": 5383,
      "▁label": 5384,
      "▁II": 5385,
      "ni": 5386,
      "▁followed": 5387,
      "▁UK": 5388,
      "▁changed": 5389,
      "▁제대로": 5390,
      "▁꿈": 5391,
      "theta": 5392,
      "▁표면": 5393,
      "For": 5394,
      "▁장비": 5395,
      "urb": 5396,
      "$-": 5397,
      "EL": 5398,
      "▁pair": 5399,
      "ients": 5400,
      "▁질문": 5401,
      "▁soon": 5402,
      "▁웨": 5403,
      "▁goes": 5404,
      "ulate": 5405,
      "▁ir": 5406,
      "▁IP": 5407,
      "▁빨": 5408,
      "▁shoot": 5409,
      "rial": 5410,
      "▁January": 5411,
      "aches": 5412,
      "ares": 5413,
      "▁Ab": 5414,
      "ona": 5415,
      "학교": 5416,
      "RA": 5417,
      "▁staff": 5418,
      "ride": 5419,
      "▁국정": 5420,
      "▁central": 5421,
      "▁prec": 5422,
      "▁원인": 5423,
      "▁physical": 5424,
      "▁Gen": 5425,
      "▁정의": 5426,
      "▁deep": 5427,
      "pass": 5428,
      "따라": 5429,
      "▁India": 5430,
      "Add": 5431,
      "▁mid": 5432,
      "▁현상": 5433,
      "ENT": 5434,
      "▁parameter": 5435,
      "▁깊": 5436,
      "▁Some": 5437,
      "▁useful": 5438,
      "▁행동": 5439,
      "▁fit": 5440,
      "▁appears": 5441,
      "▁member": 5442,
      "▁불법": 5443,
      "▁됩니다": 5444,
      "▁Ant": 5445,
      "▁ful": 5446,
      "nWh": 5447,
      "▁공기": 5448,
      "▁변호": 5449,
      "▁confir": 5450,
      "▁July": 5451,
      "pid": 5452,
      "▁arrest": 5453,
      "vertis": 5454,
      "▁mit": 5455,
      "다는": 5456,
      "cel": 5457,
      "▁serious": 5458,
      "▁Post": 5459,
      "ouch": 5460,
      "▁investigation": 5461,
      "▁gun": 5462,
      "▁토론": 5463,
      "▁이벤트": 5464,
      "▁웃": 5465,
      "▁fill": 5466,
      "어도": 5467,
      "▁원장": 5468,
      "▁누구": 5469,
      "▁금액": 5470,
      "▁Korea": 5471,
      "합물": 5472,
      "Context": 5473,
      "version": 5474,
      "\\\\_": 5475,
      "▁그런데": 5476,
      "▁범죄": 5477,
      "▁론": 5478,
      "▁부장": 5479,
      "oday": 5480,
      "db": 5481,
      "▁혈": 5482,
      "▁넣": 5483,
      "▁enh": 5484,
      "%,": 5485,
      "sm": 5486,
      "▁plas": 5487,
      "urch": 5488,
      "▁의장": 5489,
      "▁경남": 5490,
      "▁Count": 5491,
      "▁replace": 5492,
      "▁everyone": 5493,
      "▁인증": 5494,
      "▁exactly": 5495,
      "IG": 5496,
      "MP": 5497,
      "wise": 5498,
      "istry": 5499,
      "eg": 5500,
      "▁창업": 5501,
      "▁생명": 5502,
      "▁necessary": 5503,
      "▁har": 5504,
      "iforn": 5505,
      "erve": 5506,
      "▁West": 5507,
      "ags": 5508,
      "▁번호": 5509,
      "clusion": 5510,
      "▁구동": 5511,
      "politics": 5512,
      "){\\": 5513,
      "▁star": 5514,
      "nAn": 5515,
      "icles": 5516,
      "▁allowed": 5517,
      "▁themselves": 5518,
      "▁자치": 5519,
      "Image": 5520,
      "▁allows": 5521,
      "▁유닛": 5522,
      "(-": 5523,
      "User": 5524,
      "▁title": 5525,
      "▁theory": 5526,
      "▁마지막": 5527,
      "uth": 5528,
      "▁확정": 5529,
      "}_{": 5530,
      "perty": 5531,
      "▁ST": 5532,
      "▁girl": 5533,
      "arily": 5534,
      "▁hor": 5535,
      "▁Mark": 5536,
      "▁held": 5537,
      "▁previously": 5538,
      "▁맥": 5539,
      "▁platform": 5540,
      "FF": 5541,
      "inate": 5542,
      "▁Feb": 5543,
      "indu": 5544,
      "▁whose": 5545,
      "▁규칙": 5546,
      "ui": 5547,
      "aks": 5548,
      "▁려고": 5549,
      "gn": 5550,
      "▁전쟁": 5551,
      "▁heav": 5552,
      "weet": 5553,
      "}$$": 5554,
      "▁전송": 5555,
      "▁남북": 5556,
      "itation": 5557,
      "▁gas": 5558,
      "link": 5559,
      "▁칼": 5560,
      "▁feature": 5561,
      "arning": 5562,
      "▁달성": 5563,
      "rs": 5564,
      "▁깨": 5565,
      "hesis": 5566,
      "▁findings": 5567,
      "▁na": 5568,
      "▁sil": 5569,
      "▁throw": 5570,
      "select": 5571,
      "▁antib": 5572,
      "▁workers": 5573,
      "inated": 5574,
      "▁이르": 5575,
      "▁client": 5576,
      "▁종목": 5577,
      "▁negative": 5578,
      "reate": 5579,
      "▁훈련": 5580,
      "▁mess": 5581,
      "nab": 5582,
      "ental": 5583,
      "▁Sim": 5584,
      "▁While": 5585,
      "▁leave": 5586,
      "▁다만": 5587,
      "atur": 5588,
      "▁colle": 5589,
      "▁Rev": 5590,
      "▁hydro": 5591,
      "페이지": 5592,
      "▁여러분": 5593,
      "▁작용": 5594,
      "▁From": 5595,
      "▁worked": 5596,
      "cor": 5597,
      "▁scale": 5598,
      "▁density": 5599,
      "▁mal": 5600,
      "▁스트": 5601,
      "ystem": 5602,
      "▁혹": 5603,
      "uesday": 5604,
      "▁임대": 5605,
      "▁신용": 5606,
      "unk": 5607,
      "));\\": 5608,
      "▁List": 5609,
      "apter": 5610,
      "gorith": 5611,
      "▁seg": 5612,
      "▁studied": 5613,
      "▁**": 5614,
      "pective": 5615,
      "▁vit": 5616,
      "tor": 5617,
      "ias": 5618,
      "▁caused": 5619,
      "ded": 5620,
      "▁wasn": 5621,
      "▁Friday": 5622,
      "cil": 5623,
      "▁삼성전자": 5624,
      "▁remove": 5625,
      "림픽": 5626,
      "▁capt": 5627,
      "▁선물": 5628,
      "▁전통": 5629,
      "▁maint": 5630,
      "▁phone": 5631,
      "▁울산": 5632,
      "▁tour": 5633,
      "haps": 5634,
      "encies": 5635,
      "reng": 5636,
      "▁meeting": 5637,
      "▁근무": 5638,
      "▁figure": 5639,
      "버지": 5640,
      "▁component": 5641,
      "ras": 5642,
      "▁favor": 5643,
      "PR": 5644,
      "▁대하": 5645,
      "▁rules": 5646,
      "▁announced": 5647,
      "▁{\\\\": 5648,
      "▁written": 5649,
      "▁아래": 5650,
      "▁그렇게": 5651,
      "▁지하": 5652,
      "▁location": 5653,
      "▁회원": 5654,
      "ato": 5655,
      "▁스포츠": 5656,
      "iant": 5657,
      "ira": 5658,
      "시지": 5659,
      "▁economic": 5660,
      "▁offer": 5661,
      "▁통상": 5662,
      "▁graph": 5663,
      "▁sympt": 5664,
      "▁수상": 5665,
      "▁총장": 5666,
      "▁투입": 5667,
      "ille": 5668,
      "▁수지": 5669,
      "▁Inst": 5670,
      "▁원내": 5671,
      "▁인한": 5672,
      "▁만든": 5673,
      "▁mys": 5674,
      "Key": 5675,
      "▁보수": 5676,
      "▁봤": 5677,
      "▁natural": 5678,
      "▁Let": 5679,
      "▁획": 5680,
      "cell": 5681,
      "▁주제": 5682,
      "▁연기": 5683,
      "▁홈페이지": 5684,
      "rees": 5685,
      "▁items": 5686,
      "\\\",\\\"": 5687,
      "mail": 5688,
      "ifornia": 5689,
      "▁독자": 5690,
      "▁조절": 5691,
      "**]{},": 5692,
      "Trans": 5693,
      "▁java": 5694,
      "erate": 5695,
      "ius": 5696,
      "▁concentr": 5697,
      "oding": 5698,
      "▁completely": 5699,
      "▁calls": 5700,
      "android": 5701,
      "color": 5702,
      "▁hot": 5703,
      "▁Congress": 5704,
      "▁samples": 5705,
      "▁nearly": 5706,
      "iam": 5707,
      "▁멀": 5708,
      ")=": 5709,
      "▁어려운": 5710,
      "▁PD": 5711,
      "host": 5712,
      "▁벗": 5713,
      "▁playing": 5714,
      "isf": 5715,
      "▁적어도": 5716,
      "▁sn": 5717,
      "▁Mich": 5718,
      "force": 5719,
      "▁unique": 5720,
      "My": 5721,
      "▁highly": 5722,
      "없이": 5723,
      "press": 5724,
      "▁built": 5725,
      "ements": 5726,
      "NN": 5727,
      "▁정말": 5728,
      "▁상부": 5729,
      "▁latest": 5730,
      "▁Monday": 5731,
      "hest": 5732,
      "plant": 5733,
      "▁node": 5734,
      "▁saw": 5735,
      "ean": 5736,
      "\\\".": 5737,
      "Lay": 5738,
      "▁visit": 5739,
      "▁variables": 5740,
      "▁engine": 5741,
      "using": 5742,
      "▁중량": 5743,
      "▁push": 5744,
      "▁reach": 5745,
      "▁휴대": 5746,
      "▁한편": 5747,
      "ethyl": 5748,
      "▁published": 5749,
      "cf": 5750,
      "Path": 5751,
      "▁window": 5752,
      "xi": 5753,
      "ceed": 5754,
      "▁First": 5755,
      "istan": 5756,
      "▁싱": 5757,
      "▁His": 5758,
      "▁건축": 5759,
      "▁버스": 5760,
      "▁pul": 5761,
      "image": 5762,
      "▁케이": 5763,
      "▁하이": 5764,
      "▁사상": 5765,
      "▁remains": 5766,
      "fered": 5767,
      "vention": 5768,
      "Delta": 5769,
      "▁adding": 5770,
      "▁제보": 5771,
      "▁목소리": 5772,
      "newsis": 5773,
      "▁Clinton": 5774,
      "▁Donald": 5775,
      "Query": 5776,
      "▁비중": 5777,
      "ondon": 5778,
      "▁덕": 5779,
      "▁찬": 5780,
      "레스": 5781,
      "icrosoft": 5782,
      "▁남성": 5783,
      "▁fields": 5784,
      "▁selected": 5785,
      "Controller": 5786,
      "▁thus": 5787,
      "itiz": 5788,
      "▁해양": 5789,
      "▁presented": 5790,
      "▁AI": 5791,
      "button": 5792,
      "▁재산": 5793,
      "▁무역": 5794,
      "▁Trans": 5795,
      "reme": 5796,
      "▁들어가": 5797,
      "▁ratio": 5798,
      "▁체육": 5799,
      "true": 5800,
      "▁leading": 5801,
      "mitted": 5802,
      "infty": 5803,
      "▁Sw": 5804,
      "▁music": 5805,
      "▁지식": 5806,
      "▁반면": 5807,
      "style": 5808,
      "▁stress": 5809,
      "▁larger": 5810,
      "ascular": 5811,
      "▁노조": 5812,
      "ocuments": 5813,
      "urrent": 5814,
      "FA": 5815,
      "ellig": 5816,
      "ocol": 5817,
      "ibly": 5818,
      "▁mode": 5819,
      "▁출연": 5820,
      "▁friend": 5821,
      "')\\": 5822,
      "▁Sub": 5823,
      "▁independent": 5824,
      "LECT": 5825,
      "▁탐": 5826,
      "▁아요": 5827,
      "▁Tuesday": 5828,
      "▁caption": 5829,
      "option": 5830,
      "▁Wed": 5831,
      "▁Rec": 5832,
      "rum": 5833,
      "▁provides": 5834,
      "▁drop": 5835,
      "▁objects": 5836,
      "▁공유": 5837,
      "▁failed": 5838,
      "▁save": 5839,
      "▁기구": 5840,
      "▁contains": 5841,
      "▁popular": 5842,
      "▁sup": 5843,
      "▁전날": 5844,
      ".*": 5845,
      "▁profess": 5846,
      "▁단위": 5847,
      "osure": 5848,
      "▁testing": 5849,
      "▁폼": 5850,
      "acity": 5851,
      "Array": 5852,
      "▁유리": 5853,
      "arr": 5854,
      "▁Aut": 5855,
      "▁졸": 5856,
      "▁poll": 5857,
      "▁부정": 5858,
      "▁인근": 5859,
      "▁접종": 5860,
      "▁limited": 5861,
      "▁을까": 5862,
      "rangle": 5863,
      "▁San": 5864,
      "ky": 5865,
      "call": 5866,
      "▁driv": 5867,
      "leep": 5868,
      "▁laws": 5869,
      "▁prep": 5870,
      "▁Des": 5871,
      "▁identify": 5872,
      "▁투데이": 5873,
      "▁starting": 5874,
      "▁공항": 5875,
      "';\\": 5876,
      "osc": 5877,
      "▁stru": 5878,
      "▁통화": 5879,
      "▁European": 5880,
      "▁Since": 5881,
      "▁foreign": 5882,
      "▁Fl": 5883,
      "▁실장": 5884,
      "lig": 5885,
      "▁잇": 5886,
      "▁pattern": 5887,
      "nThat": 5888,
      "Sh": 5889,
      "related": 5890,
      "▁essential": 5891,
      "▁September": 5892,
      "emic": 5893,
      "▁pull": 5894,
      "▁mix": 5895,
      "▁overall": 5896,
      "▁conv": 5897,
      "▁worth": 5898,
      "▁comments": 5899,
      "▁쇼핑": 5900,
      "▁니까": 5901,
      "▁러시아": 5902,
      "▁scient": 5903,
      "▁surgery": 5904,
      "▁transfer": 5905,
      "▁경쟁력": 5906,
      "▁unc": 5907,
      "▁sites": 5908,
      "▁자세": 5909,
      "▁청소년": 5910,
      "▁흔": 5911,
      "▁독일": 5912,
      "▁note": 5913,
      "▁Chinese": 5914,
      "▁international": 5915,
      "ovember": 5916,
      "▁의하": 5917,
      "nn": 5918,
      "irth": 5919,
      "▁proposed": 5920,
      "▁newsis": 5921,
      "igration": 5922,
      "ael": 5923,
      "vis": 5924,
      "▁넘어": 5925,
      "▁multi": 5926,
      "▁usually": 5927,
      "max": 5928,
      "▁contribut": 5929,
      "main": 5930,
      "Event": 5931,
      "▁컴퓨": 5932,
      "▁듣": 5933,
      "orph": 5934,
      "▁root": 5935,
      "FL": 5936,
      "▁Park": 5937,
      "▁그대로": 5938,
      "▁$$": 5939,
      "othe": 5940,
      "Le": 5941,
      "▁mer": 5942,
      "ytes": 5943,
      "▁perfect": 5944,
      "▁sche": 5945,
      "partial": 5946,
      "▁cyt": 5947,
      "▁얼굴": 5948,
      "대표": 5949,
      "▁대체": 5950,
      "젝트": 5951,
      "length": 5952,
      "▁아서": 5953,
      "▁올림픽": 5954,
      "▁trade": 5955,
      "Of": 5956,
      "▁tests": 5957,
      "▁재료": 5958,
      "▁seek": 5959,
      "▁himself": 5960,
      "nesday": 5961,
      "▁콜": 5962,
      "▁matrix": 5963,
      "▁speed": 5964,
      "▁upon": 5965,
      "akers": 5966,
      "ln": 5967,
      "▁엘": 5968,
      "▁밸": 5969,
      "▁killed": 5970,
      "position": 5971,
      "▁August": 5972,
      "▁experien": 5973,
      "De": 5974,
      "▁투자자": 5975,
      "▁주도": 5976,
      "ju": 5977,
      "ped": 5978,
      "▁thread": 5979,
      "다음": 5980,
      "▁km": 5981,
      "▁디스플레이": 5982,
      "▁Java": 5983,
      "▁psych": 5984,
      "▁어디": 5985,
      "▁connection": 5986,
      "▁기기": 5987,
      "▁Windows": 5988,
      "▁critical": 5989,
      "▁became": 5990,
      "▁attention": 5991,
      "▁복합": 5992,
      "▁Cons": 5993,
      "icit": 5994,
      "▁졌": 5995,
      "▁phen": 5996,
      "▁virus": 5997,
      "acters": 5998,
      "vertisement": 5999,
      "▁추정": 6000,
      "delta": 6001,
      "▁format": 6002,
      "▁Pal": 6003,
      "▁tim": 6004,
      "▁nation": 6005,
      "아래": 6006,
      "▁Afric": 6007,
      "RL": 6008,
      "ollow": 6009,
      "ursday": 6010,
      "▁tumor": 6011,
      "okes": 6012,
      "parent": 6013,
      "▁detail": 6014,
      "▁buy": 6015,
      "▁setting": 6016,
      "rolled": 6017,
      "▁보조": 6018,
      "▁도전": 6019,
      "▁living": 6020,
      "Un": 6021,
      "▁rats": 6022,
      "known": 6023,
      "reement": 6024,
      "start": 6025,
      "spec": 6026,
      "atically": 6027,
      "▁Iran": 6028,
      "랑스": 6029,
      "▁앵": 6030,
      "▁대변": 6031,
      "▁선언": 6032,
      "▁console": 6033,
      "▁할인": 6034,
      "▁부품": 6035,
      "가지": 6036,
      "▁poor": 6037,
      "\\\"></": 6038,
      "BI": 6039,
      "▁트럼프": 6040,
      "upport": 6041,
      "▁호텔": 6042,
      "▁작가": 6043,
      "BA": 6044,
      ".)": 6045,
      "▁follows": 6046,
      "▁교사": 6047,
      "see": 6048,
      "▁demand": 6049,
      "▁크기": 6050,
      "cIt": 6051,
      "▁못한": 6052,
      "▁낸": 6053,
      "▁Char": 6054,
      "ROM": 6055,
      "▁played": 6056,
      "▁파이": 6057,
      "▁plans": 6058,
      "▁travel": 6059,
      "hand": 6060,
      "▁피부": 6061,
      "TN": 6062,
      "▁Reg": 6063,
      "▁began": 6064,
      "num": 6065,
      "▁clean": 6066,
      "ici": 6067,
      "mathbf": 6068,
      "▁surpr": 6069,
      "▁소송": 6070,
      "▁Bre": 6071,
      "▁protest": 6072,
      "▁cover": 6073,
      "▁운용": 6074,
      "RI": 6075,
      "▁echo": 6076,
      "▁국무": 6077,
      "▁prop": 6078,
      "▁err": 6079,
      "▁conserv": 6080,
      "▁pen": 6081,
      "▁믿": 6082,
      "▁cardi": 6083,
      "▁financial": 6084,
      "▁October": 6085,
      "▁liter": 6086,
      "▁Court": 6087,
      "▁패턴": 6088,
      "▁둔": 6089,
      "ranch": 6090,
      "ponent": 6091,
      "open": 6092,
      "▁oil": 6093,
      "▁although": 6094,
      "cember": 6095,
      "▁집단": 6096,
      "▁메시지": 6097,
      "▁aw": 6098,
      "▁remain": 6099,
      "▁transition": 6100,
      "▁fib": 6101,
      "▁가량": 6102,
      "▁couple": 6103,
      "▁학습": 6104,
      "▁spin": 6105,
      "zz": 6106,
      "▁neigh": 6107,
      "▁Pre": 6108,
      "▁재단": 6109,
      "▁wall": 6110,
      "▁ones": 6111,
      "▁텔": 6112,
      "▁unit": 6113,
      "▁시도": 6114,
      "▁veh": 6115,
      "overn": 6116,
      "립니다": 6117,
      "▁feed": 6118,
      "check": 6119,
      "▁cat": 6120,
      "▁유기": 6121,
      "▁플랫": 6122,
      "OU": 6123,
      "▁parts": 6124,
      "▁인터뷰": 6125,
      "▁mother": 6126,
      "▁frequency": 6127,
      "page": 6128,
      "▁creating": 6129,
      "▁상담": 6130,
      "▁damage": 6131,
      "▁강력": 6132,
      "스로": 6133,
      "agon": 6134,
      "HP": 6135,
      "$.\\": 6136,
      "▁confirmed": 6137,
      "▁tissue": 6138,
      "▁주인": 6139,
      "▁나타낸": 6140,
      "rie": 6141,
      "▁판결": 6142,
      "▁cm": 6143,
      "▁체제": 6144,
      "▁채용": 6145,
      "▁Bo": 6146,
      "local": 6147,
      "▁sequence": 6148,
      "▁nuclear": 6149,
      "▁knowledge": 6150,
      "pty": 6151,
      "▁basis": 6152,
      "▁choice": 6153,
      "▁restr": 6154,
      "▁피해자": 6155,
      "▁경향": 6156,
      "▁，": 6157,
      "히려": 6158,
      "orage": 6159,
      "▁actual": 6160,
      "urg": 6161,
      "▁obvious": 6162,
      "miss": 6163,
      "nHowever": 6164,
      "▁streng": 6165,
      "▁됨": 6166,
      "▁counter": 6167,
      "▁한정": 6168,
      "mathrm": 6169,
      "▁jo": 6170,
      "ategy": 6171,
      "ka": 6172,
      "rian": 6173,
      "▁전용": 6174,
      "berg": 6175,
      "▁Wednesday": 6176,
      "▁읽": 6177,
      "▁culture": 6178,
      "}=": 6179,
      "▁열리": 6180,
      "▁다르": 6181,
      "▁November": 6182,
      "▁easily": 6183,
      "arth": 6184,
      "With": 6185,
      "SD": 6186,
      "▁신뢰": 6187,
      "▁집행": 6188,
      "HT": 6189,
      "rab": 6190,
      "▁applied": 6191,
      "je": 6192,
      "anned": 6193,
      "ught": 6194,
      "rupt": 6195,
      "▁독립": 6196,
      "GF": 6197,
      "TE": 6198,
      "▁전남": 6199,
      "actory": 6200,
      "Button": 6201,
      "▁achieve": 6202,
      "which": 6203,
      "▁binding": 6204,
      "▁그녀": 6205,
      "▁safe": 6206,
      "amin": 6207,
      "aur": 6208,
      "▁dog": 6209,
      "▁novel": 6210,
      "▁셨": 6211,
      "▁safety": 6212,
      "▁Minister": 6213,
      "enge": 6214,
      "aming": 6215,
      "Bl": 6216,
      "▁vo": 6217,
      "Box": 6218,
      "▁IC": 6219,
      "anged": 6220,
      "undred": 6221,
      "▁ox": 6222,
      "▁refer": 6223,
      "emplate": 6224,
      "▁我": 6225,
      "▁alone": 6226,
      "▁과장": 6227,
      "▁concentration": 6228,
      "▁dos": 6229,
      "ees": 6230,
      "▁relative": 6231,
      "▁여전히": 6232,
      "▁다며": 6233,
      "▁Thursday": 6234,
      "▁(\\": 6235,
      "▁zero": 6236,
      "▁arch": 6237,
      "You": 6238,
      "ociety": 6239,
      "▁쯤": 6240,
      "stance": 6241,
      "▁해석": 6242,
      "▁완화": 6243,
      "▁불과": 6244,
      "▁서울시": 6245,
      "Int": 6246,
      "▁California": 6247,
      "▁influence": 6248,
      "▁promot": 6249,
      "non": 6250,
      "▁software": 6251,
      "auto": 6252,
      "▁인구": 6253,
      "페인": 6254,
      "▁algorith": 6255,
      "▁approxim": 6256,
      "▁등급": 6257,
      "▁shot": 6258,
      "▁neut": 6259,
      "PO": 6260,
      "▁band": 6261,
      "rig": 6262,
      "itis": 6263,
      "▁행복": 6264,
      "▁defin": 6265,
      "IR": 6266,
      "▁rot": 6267,
      "▁brow": 6268,
      "SA": 6269,
      "▁understanding": 6270,
      "어들": 6271,
      "▁learning": 6272,
      "▁computer": 6273,
      "server": 6274,
      "▁자본": 6275,
      "▁friends": 6276,
      "우리": 6277,
      "▁round": 6278,
      "▁please": 6279,
      "▁solid": 6280,
      "▁material": 6281,
      "▁race": 6282,
      "▁취업": 6283,
      "aly": 6284,
      "▁missing": 6285,
      "▁접근": 6286,
      "ara": 6287,
      "▁익": 6288,
      "mm": 6289,
      "ders": 6290,
      "▁경북": 6291,
      "▁다수": 6292,
      "▁particularly": 6293,
      "▁의무": 6294,
      "▁CEO": 6295,
      "fficient": 6296,
      "▁주로": 6297,
      "▁<<": 6298,
      "▁성분": 6299,
      "▁},\\": 6300,
      "▁basic": 6301,
      "oken": 6302,
      "Color": 6303,
      "▁board": 6304,
      "ymph": 6305,
      "▁produced": 6306,
      "estern": 6307,
      "▁hop": 6308,
      "DA": 6309,
      "▁쉬": 6310,
      "▁wants": 6311,
      "induced": 6312,
      "▁concept": 6313,
      "▁returns": 6314,
      "▁동기": 6315,
      "▁오히려": 6316,
      "▁작성": 6317,
      "▁소방": 6318,
      "ouncil": 6319,
      "▁Off": 6320,
      "ruary": 6321,
      "▁CH": 6322,
      "Error": 6323,
      "umns": 6324,
      "▁road": 6325,
      "chers": 6326,
      "▁director": 6327,
      "▁charge": 6328,
      "▁enter": 6329,
      "▁보상": 6330,
      "▁mill": 6331,
      "▁sentences": 6332,
      "tau": 6333,
      "▁Comp": 6334,
      "▁프로젝트": 6335,
      "▁integr": 6336,
      "iat": 6337,
      "▁혜택": 6338,
      "▁writing": 6339,
      "▁trig": 6340,
      "▁화제": 6341,
      "State": 6342,
      "▁mag": 6343,
      "▁gave": 6344,
      "han": 6345,
      "▁수석": 6346,
      "▁sexual": 6347,
      "▁시각": 6348,
      "▁po": 6349,
      "SON": 6350,
      "▁별도": 6351,
      "^\\\\": 6352,
      "▁plus": 6353,
      "web": 6354,
      "▁victim": 6355,
      "▁Bit": 6356,
      "▁동물": 6357,
      "▁rat": 6358,
      "▁차별": 6359,
      "▁capital": 6360,
      "▁stream": 6361,
      "ULL": 6362,
      "▁형상": 6363,
      "경찰": 6364,
      "▁Tra": 6365,
      "▁vent": 6366,
      "메라": 6367,
      "케팅": 6368,
      "▁Russian": 6369,
      "▁characters": 6370,
      "overed": 6371,
      "eda": 6372,
      "▁direction": 6373,
      "▁Republican": 6374,
      "▁Canada": 6375,
      "otal": 6376,
      "▁국방": 6377,
      "▁leader": 6378,
      "▁December": 6379,
      "urity": 6380,
      "▁linear": 6381,
      "SP": 6382,
      "olar": 6383,
      "opl": 6384,
      "▁서버": 6385,
      "Element": 6386,
      "▁소식": 6387,
      "▁operation": 6388,
      "▁arter": 6389,
      "▁기재": 6390,
      "▁cycl": 6391,
      "▁signal": 6392,
      "▁빛": 6393,
      "ano": 6394,
      "▁소프트": 6395,
      "Par": 6396,
      "nAfter": 6397,
      "izes": 6398,
      "▁club": 6399,
      "mic": 6400,
      "ialog": 6401,
      "▁reduce": 6402,
      "▁designed": 6403,
      "▁van": 6404,
      "회사": 6405,
      "▁chance": 6406,
      "ened": 6407,
      "▁(@": 6408,
      "▁증시": 6409,
      "erg": 6410,
      "▁sold": 6411,
      "▁middle": 6412,
      "Model": 6413,
      "fo": 6414,
      "rought": 6415,
      "nWith": 6416,
      "▁나서": 6417,
      "▁전원": 6418,
      "▁bank": 6419,
      "▁삽": 6420,
      "▁비슷": 6421,
      "car": 6422,
      "▁유명": 6423,
      "▁metab": 6424,
      "▁sound": 6425,
      "▁std": 6426,
      "xml": 6427,
      "yond": 6428,
      "FC": 6429,
      "▁유입": 6430,
      "▁absol": 6431,
      "▁「": 6432,
      "▁이달": 6433,
      "▁시점": 6434,
      "▁package": 6435,
      "ando": 6436,
      "▁investigated": 6437,
      "reci": 6438,
      "▁copy": 6439,
      "aint": 6440,
      "irtual": 6441,
      "▁연계": 6442,
      "ocket": 6443,
      "nif": 6444,
      "▁스스로": 6445,
      "환경": 6446,
      "amera": 6447,
      "ellow": 6448,
      "▁Ca": 6449,
      "▁fair": 6450,
      "▁임금": 6451,
      "▁mice": 6452,
      "어진": 6453,
      "▁London": 6454,
      "▁Health": 6455,
      "▁magnetic": 6456,
      "▁sources": 6457,
      "▁diagnosis": 6458,
      "▁Center": 6459,
      "▁argument": 6460,
      "▁앞두": 6461,
      "재인": 6462,
      "draw": 6463,
      "▁강남": 6464,
      "▁includes": 6465,
      "isions": 6466,
      "▁appropri": 6467,
      "▁ax": 6468,
      "▁사이트": 6469,
      "lev": 6470,
      "▁Hol": 6471,
      "▁'[": 6472,
      "▁어려움": 6473,
      "▁score": 6474,
      "▁Hill": 6475,
      "▁therefore": 6476,
      "Set": 6477,
      "닷컴": 6478,
      "▁extract": 6479,
      "▁challeng": 6480,
      "▁마케팅": 6481,
      "▁머리": 6482,
      "vest": 6483,
      "▁suggested": 6484,
      "zed": 6485,
      "▁API": 6486,
      "▁interesting": 6487,
      "No": 6488,
      "hi": 6489,
      "▁회견": 6490,
      "▁inn": 6491,
      "▁spread": 6492,
      "▁아들": 6493,
      "LA": 6494,
      "▁마스크": 6495,
      "▁WH": 6496,
      "▁대학교": 6497,
      "Service": 6498,
      "big": 6499,
      "▁despite": 6500,
      "▁차단": 6501,
      "▁완료": 6502,
      "atever": 6503,
      "sor": 6504,
      "aud": 6505,
      "ping": 6506,
      "▁아동": 6507,
      "Over": 6508,
      "▁℃": 6509,
      "▁부모": 6510,
      "▁잘못": 6511,
      "odies": 6512,
      "▁terror": 6513,
      "Field": 6514,
      "▁fat": 6515,
      "▁coord": 6516,
      "▁Paul": 6517,
      "▁곧": 6518,
      "▁contrast": 6519,
      "▁numer": 6520,
      "sin": 6521,
      "▁접속": 6522,
      "itory": 6523,
      "▁receive": 6524,
      "▁하우": 6525,
      "▁phosph": 6526,
      "▁세포": 6527,
      "▁척": 6528,
      "▁quickly": 6529,
      "▁decided": 6530,
      "idden": 6531,
      "▁대사": 6532,
      "▁seven": 6533,
      "▁satisf": 6534,
      "▁선고": 6535,
      "▁하부": 6536,
      "▁transform": 6537,
      "▁변호사": 6538,
      "▁integ": 6539,
      "▁una": 6540,
      "from": 6541,
      "iers": 6542,
      "▁transport": 6543,
      "nadd": 6544,
      "▁ten": 6545,
      "▁SNS": 6546,
      "ivo": 6547,
      "▁reading": 6548,
      "▁climate": 6549,
      "▁스러": 6550,
      "▁지분": 6551,
      "▁스럽": 6552,
      "▁agg": 6553,
      "▁구현": 6554,
      "RNA": 6555,
      "▁내놓": 6556,
      "Layout": 6557,
      "▁Over": 6558,
      "▁바탕": 6559,
      "▁당신": 6560,
      "oute": 6561,
      "oes": 6562,
      "▁separate": 6563,
      "▁공모": 6564,
      "▁pros": 6565,
      "orters": 6566,
      "▁렌": 6567,
      "▁스마트폰": 6568,
      "▁조례": 6569,
      "▁scen": 6570,
      "onic": 6571,
      "▁Sunday": 6572,
      "▁사업자": 6573,
      "▁fans": 6574,
      "operative": 6575,
      "Ps": 6576,
      "▁tested": 6577,
      "▁Out": 6578,
      "paper": 6579,
      "▁demonstrated": 6580,
      "▁Democrats": 6581,
      "▁convert": 6582,
      "▁축제": 6583,
      "▁existing": 6584,
      "▁그동안": 6585,
      "▁extrem": 6586,
      "▁단순": 6587,
      "▁rule": 6588,
      "▁흐름": 6589,
      "그리": 6590,
      "▁individuals": 6591,
      "▁Group": 6592,
      "secut": 6593,
      "▁벽": 6594,
      "▁thous": 6595,
      "▁February": 6596,
      "▁calling": 6597,
      "▁inform": 6598,
      "opic": 6599,
      "▁정권": 6600,
      "▁일단": 6601,
      "운드": 6602,
      "▁volume": 6603,
      "▁Def": 6604,
      "▁formation": 6605,
      "▁바라": 6606,
      "▁dro": 6607,
      "height": 6608,
      "▁지점": 6609,
      "▁happened": 6610,
      "product": 6611,
      "article": 6612,
      "▁injury": 6613,
      "▁giving": 6614,
      "▁꼽": 6615,
      "수록": 6616,
      "▁mac": 6617,
      "▁somet": 6618,
      "▁나타나": 6619,
      "▁href": 6620,
      "Request": 6621,
      "▁reaction": 6622,
      "pload": 6623,
      "터리": 6624,
      "▁궁": 6625,
      "▁majority": 6626,
      "아들": 6627,
      "joy": 6628,
      "▁젊": 6629,
      "▁보안": 6630,
      "▁융": 6631,
      "▁원칙": 6632,
      "▁repl": 6633,
      "▁named": 6634,
      "▁cele": 6635,
      "의원": 6636,
      "▁Americans": 6637,
      "▁subjects": 6638,
      "alle": 6639,
      "▁ign": 6640,
      "▁receptor": 6641,
      "▁프랑스": 6642,
      "▁만족": 6643,
      "▁url": 6644,
      "▁rare": 6645,
      "nOne": 6646,
      "▁neuro": 6647,
      "▁qual": 6648,
      "▁쌍": 6649,
      "▁Black": 6650,
      "omas": 6651,
      "▁famil": 6652,
      "▁fixed": 6653,
      "▁immediately": 6654,
      "▁무선": 6655,
      "▁컴퓨터": 6656,
      "▁초기": 6657,
      "▁showing": 6658,
      "atin": 6659,
      "▁failure": 6660,
      "▁meaning": 6661,
      "▁towards": 6662,
      "▁확실": 6663,
      "document": 6664,
      "▁components": 6665,
      "▁응답": 6666,
      "▁옮": 6667,
      "▁Mac": 6668,
      "▁bur": 6669,
      "▁refe": 6670,
      "All": 6671,
      "cope": 6672,
      "▁catch": 6673,
      "▁량": 6674,
      "acher": 6675,
      "nb": 6676,
      "ync": 6677,
      "rief": 6678,
      "▁insert": 6679,
      "▁뇌": 6680,
      "create": 6681,
      "}$.": 6682,
      "ios": 6683,
      "▁본인": 6684,
      "▁리그": 6685,
      "총리": 6686,
      "▁창출": 6687,
      "▁bal": 6688,
      "▁movement": 6689,
      "▁구간": 6690,
      "▁functional": 6691,
      "▁mort": 6692,
      "pack": 6693,
      "da": 6694,
      "▁기여": 6695,
      "▁express": 6696,
      "▁나섰": 6697,
      "▁Open": 6698,
      "▁infection": 6699,
      "▁rob": 6700,
      "▁Day": 6701,
      "▁Up": 6702,
      "▁명령": 6703,
      "rency": 6704,
      "\\\".\\": 6705,
      "▁plasma": 6706,
      "▁machine": 6707,
      "▁hol": 6708,
      "▁hon": 6709,
      "▁relig": 6710,
      "▁MS": 6711,
      "dev": 6712,
      "▁Pat": 6713,
      "라마": 6714,
      "▁가져": 6715,
      "▁rapid": 6716,
      "▁Sand": 6717,
      "▁decreased": 6718,
      "▁기억": 6719,
      "▁lives": 6720,
      "▁지켜": 6721,
      "▁dim": 6722,
      "▁lip": 6723,
      "TC": 6724,
      "bran": 6725,
      "▁except": 6726,
      "▁q": 6727,
      "▁ein": 6728,
      "▁male": 6729,
      "▁화장": 6730,
      "▁stuff": 6731,
      "▁View": 6732,
      "Manager": 6733,
      "click": 6734,
      "▁정비": 6735,
      "▁Bro": 6736,
      "▁상호": 6737,
      "\\\"/": 6738,
      "▁살펴": 6739,
      "▁equal": 6740,
      "▁흑": 6741,
      "stract": 6742,
      "▁무기": 6743,
      "▁purpose": 6744,
      "▁여론": 6745,
      "▁controls": 6746,
      "▁dose": 6747,
      "▁심리": 6748,
      "rier": 6749,
      "▁협약": 6750,
      "▁measures": 6751,
      "▁closed": 6752,
      "▁는가": 6753,
      "level": 6754,
      "▁apply": 6755,
      "▁fully": 6756,
      "▁interaction": 6757,
      "▁female": 6758,
      "▁계열": 6759,
      "raz": 6760,
      "▁applications": 6761,
      "▁economy": 6762,
      "▁forces": 6763,
      "▁optim": 6764,
      "▁Inter": 6765,
      "▁library": 6766,
      "▁겸": 6767,
      "nel": 6768,
      "▁곤": 6769,
      "▁Democratic": 6770,
      "▁induced": 6771,
      "eria": 6772,
      "아가": 6773,
      "wide": 6774,
      "▁불구": 6775,
      "▁Senate": 6776,
      "▁advant": 6777,
      "onto": 6778,
      "dem": 6779,
      "▁suspect": 6780,
      "▁컬": 6781,
      "▁passed": 6782,
      "▁&&": 6783,
      "▁si": 6784,
      "▁앱": 6785,
      "▁올랐": 6786,
      "▁severe": 6787,
      "Auto": 6788,
      "▁앤": 6789,
      "▁주문": 6790,
      "▁arriv": 6791,
      "▁나온다": 6792,
      "▁성능": 6793,
      "base": 6794,
      "iments": 6795,
      "울러": 6796,
      "▁원자": 6797,
      "DP": 6798,
      "ante": 6799,
      "▁전혀": 6800,
      "▁fr": 6801,
      "▁시절": 6802,
      "inct": 6803,
      "▁인물": 6804,
      "▁launch": 6805,
      "][": 6806,
      "▁Tur": 6807,
      "▁nature": 6808,
      "▁finally": 6809,
      "ridge": 6810,
      "▁src": 6811,
      "▁yield": 6812,
      "▁wonder": 6813,
      "▁eight": 6814,
      "avig": 6815,
      "Sp": 6816,
      "elligence": 6817,
      "▁국립": 6818,
      "▁hab": 6819,
      "▁Bu": 6820,
      "▁편의": 6821,
      "▁${\\\\": 6822,
      "▁특수": 6823,
      "▁접수": 6824,
      "▁안내": 6825,
      "▁civil": 6826,
      "▁requires": 6827,
      "vec": 6828,
      "▁】": 6829,
      "▁이끌": 6830,
      "▁갔": 6831,
      "▁계기": 6832,
      "▁calc": 6833,
      "▁huge": 6834,
      "▁parents": 6835,
      "▁연금": 6836,
      "▁combination": 6837,
      "▁당선": 6838,
      "iques": 6839,
      "▁wave": 6840,
      "▁카메라": 6841,
      "▁매장": 6842,
      "pping": 6843,
      "leq": 6844,
      "chen": 6845,
      "▁corresponding": 6846,
      "▁상장": 6847,
      "▁허용": 6848,
      "▁trial": 6849,
      "▁해소": 6850,
      "▁concentrations": 6851,
      "▁선발": 6852,
      "▁RE": 6853,
      "▁전압": 6854,
      "orter": 6855,
      "ago": 6856,
      "▁욕": 6857,
      "▁animals": 6858,
      "▁고요": 6859,
      "tes": 6860,
      "config": 6861,
      "reedom": 6862,
      "chain": 6863,
      "▁Mor": 6864,
      "<ⓒ": 6865,
      "nThanks": 6866,
      "▁기계": 6867,
      "▁넓": 6868,
      "▁bud": 6869,
      "▁generated": 6870,
      "▁땅": 6871,
      "▁대변인": 6872,
      "Line": 6873,
      "▁prol": 6874,
      "▁maximum": 6875,
      "cat": 6876,
      "▁노인": 6877,
      "iler": 6878,
      "▁오르": 6879,
      ":\\\\": 6880,
      "▁teams": 6881,
      "icity": 6882,
      "▁survival": 6883,
      "▁turned": 6884,
      "▁스토": 6885,
      "▁lymph": 6886,
      "▁Play": 6887,
      "▁준다": 6888,
      "▁ri": 6889,
      "▁인하": 6890,
      "▁묻": 6891,
      "▁육성": 6892,
      "▁education": 6893,
      "▁소중": 6894,
      "▁Fe": 6895,
      "▁올리": 6896,
      "▁lock": 6897,
      "▁expand": 6898,
      "iring": 6899,
      "▁ON": 6900,
      "▁technique": 6901,
      "▁국장": 6902,
      "▁activities": 6903,
      "▁File": 6904,
      "▁촉구": 6905,
      "▁je": 6906,
      "▁carry": 6907,
      "▁롤": 6908,
      "▁distance": 6909,
      "▁화합물": 6910,
      "▁experimental": 6911,
      "▁records": 6912,
      "tra": 6913,
      "▁작년": 6914,
      "OW": 6915,
      "▁근거": 6916,
      "uster": 6917,
      "▁agreement": 6918,
      "▁했으나": 6919,
      "▁비상": 6920,
      "AG": 6921,
      "TH": 6922,
      "무리": 6923,
      "▁hundred": 6924,
      "▁visual": 6925,
      "▁예비": 6926,
      "▁download": 6927,
      "▁sec": 6928,
      "Def": 6929,
      "MC": 6930,
      "lient": 6931,
      "사자": 6932,
      "▁resources": 6933,
      "include": 6934,
      "hold": 6935,
      "▁imag": 6936,
      "ㅋㅋ": 6937,
      "nAdvertisement": 6938,
      "iated": 6939,
      "▁Party": 6940,
      "▁처분": 6941,
      "▁weap": 6942,
      "▁결혼": 6943,
      "▁단말기": 6944,
      "▁switch": 6945,
      "di": 6946,
      "▁인권": 6947,
      "▁가이드": 6948,
      "oom": 6949,
      "▁소유": 6950,
      "▁God": 6951,
      "▁domain": 6952,
      "▁classes": 6953,
      "bi": 6954,
      "nAt": 6955,
      "ctors": 6956,
      "▁업종": 6957,
      "서관": 6958,
      "▁cop": 6959,
      "tml": 6960,
      "section": 6961,
      "rep": 6962,
      "▁happens": 6963,
      "▁bul": 6964,
      ")(": 6965,
      "▁빼": 6966,
      "▁costs": 6967,
      "▁equation": 6968,
      "▁이어지": 6969,
      "▁최저": 6970,
      "▁nucle": 6971,
      "▁cere": 6972,
      "▁core": 6973,
      "▁exception": 6974,
      "▁handle": 6975,
      "DS": 6976,
      "roy": 6977,
      "▁student": 6978,
      "▁원내대표": 6979,
      "▁choose": 6980,
      "▁drugs": 6981,
      "▁resol": 6982,
      "▁아버지": 6983,
      "▁딸": 6984,
      "▁kin": 6985,
      "rench": 6986,
      "▁찍": 6987,
      "▁장소": 6988,
      "▁progress": 6989,
      "rec": 6990,
      "▁mur": 6991,
      "▁devices": 6992,
      "rect": 6993,
      "ulin": 6994,
      "▁af": 6995,
      "세서": 6996,
      "▁다이": 6997,
      "▁pit": 6998,
      "▁highest": 6999,
      "▁는데요": 7000,
      "▁correl": 7001,
      "▁susp": 7002,
      "▁휘": 7003,
      "current": 7004,
      "▁plant": 7005,
      "aturday": 7006,
      "ocy": 7007,
      "Activity": 7008,
      "미국": 7009,
      "▁detected": 7010,
      "ifest": 7011,
      "▁Times": 7012,
      "▁나선": 7013,
      "▁drive": 7014,
      "▁fa": 7015,
      "▁reduction": 7016,
      "cdot": 7017,
      "ME": 7018,
      "▁cas": 7019,
      "▁cast": 7020,
      "▁session": 7021,
      "while": 7022,
      "▁검출": 7023,
      "따라서": 7024,
      "▁고등": 7025,
      "▁회로": 7026,
      "urt": 7027,
      "▁Add": 7028,
      "▁evaluated": 7029,
      "▁fear": 7030,
      "▁수술": 7031,
      "▁Further": 7032,
      "드시": 7033,
      "▁legis": 7034,
      "▁recommend": 7035,
      "▁smaller": 7036,
      "abled": 7037,
      "hent": 7038,
      "!!": 7039,
      "▁High": 7040,
      "▁slight": 7041,
      "▁압력": 7042,
      "});\\": 7043,
      "▁morning": 7044,
      "▁produce": 7045,
      "stream": 7046,
      "▁통일": 7047,
      "▁rout": 7048,
      "cW": 7049,
      "▁언제": 7050,
      "▁symptoms": 7051,
      "▁bus": 7052,
      "▁그림": 7053,
      "▁분명": 7054,
      "▁growing": 7055,
      "▁학년": 7056,
      "▁패널": 7057,
      "▁park": 7058,
      "웨어": 7059,
      "rivate": 7060,
      "▁애플": 7061,
      "going": 7062,
      "니스": 7063,
      "▁전반": 7064,
      "▁internal": 7065,
      "▁collect": 7066,
      "삼성": 7067,
      "▁appreci": 7068,
      "▁exerc": 7069,
      "▁발행": 7070,
      "Row": 7071,
      "▁vector": 7072,
      "▁농업": 7073,
      "▁Lib": 7074,
      "▁자격": 7075,
      "▁메모": 7076,
      "nand": 7077,
      "New": 7078,
      "blog": 7079,
      "▁요인": 7080,
      "ERE": 7081,
      "머지": 7082,
      "▁daily": 7083,
      "▁KT": 7084,
      "최근": 7085,
      "▁실질": 7086,
      "학생": 7087,
      "▁bone": 7088,
      "▁월드": 7089,
      "());\\": 7090,
      "▁Det": 7091,
      "▁)\\": 7092,
      "▁aren": 7093,
      "ryst": 7094,
      "▁explain": 7095,
      "▁공시": 7096,
      "Log": 7097,
      "▁tru": 7098,
      "▁교육청": 7099,
      "LS": 7100,
      "ographic": 7101,
      "▁cris": 7102,
      "▁초등": 7103,
      "▁procedure": 7104,
      "▁상세": 7105,
      "▁’,": 7106,
      "▁died": 7107,
      "ascript": 7108,
      "▁claims": 7109,
      "▁Your": 7110,
      "▁David": 7111,
      "▁승리": 7112,
      "▁solutions": 7113,
      "▁constit": 7114,
      "▁CP": 7115,
      "core": 7116,
      "acing": 7117,
      "▁연구소": 7118,
      "▁스위": 7119,
      "img": 7120,
      "▁runs": 7121,
      "▁instit": 7122,
      "▁exhib": 7123,
      "▁strategy": 7124,
      "An": 7125,
      "ella": 7126,
      "▁DB": 7127,
      "nclass": 7128,
      "▁wid": 7129,
      "▁화재": 7130,
      "▁filter": 7131,
      "▁바이오": 7132,
      "ota": 7133,
      "주시": 7134,
      "▁uns": 7135,
      "pling": 7136,
      "▁reasons": 7137,
      "ampions": 7138,
      "▁Dr": 7139,
      "▁교회": 7140,
      "cb": 7141,
      "▁serum": 7142,
      "▁힘들": 7143,
      "▁반드시": 7144,
      "▁spent": 7145,
      "avascript": 7146,
      "▁||": 7147,
      "▁intra": 7148,
      "eader": 7149,
      "▁os": 7150,
      "▁고민": 7151,
      "▁nom": 7152,
      "▁eth": 7153,
      "zen": 7154,
      "▁degree": 7155,
      "▁ple": 7156,
      "▁letter": 7157,
      "▁텔레": 7158,
      "▁무료": 7159,
      "nm": 7160,
      "fa": 7161,
      "▁습니까": 7162,
      "Or": 7163,
      "▁식당": 7164,
      "▁PR": 7165,
      "▁무대": 7166,
      "een": 7167,
      "▁membran": 7168,
      "▁심각": 7169,
      "▁Thus": 7170,
      "▁beta": 7171,
      "▁ast": 7172,
      "va": 7173,
      "▁채권": 7174,
      "━━": 7175,
      "▁quantum": 7176,
      "▁승인": 7177,
      "nEx": 7178,
      "\\\\])": 7179,
      "▁proteins": 7180,
      "mand": 7181,
      "band": 7182,
      "▁보고서": 7183,
      "▁객": 7184,
      "ifying": 7185,
      "▁셔": 7186,
      "▁Sec": 7187,
      "▁불안": 7188,
      "isation": 7189,
      "free": 7190,
      "▁Are": 7191,
      "▁작동": 7192,
      "▁전면": 7193,
      "▁Why": 7194,
      "▁healthy": 7195,
      "▁개념": 7196,
      "|\\\\": 7197,
      "▁mes": 7198,
      "kin": 7199,
      "▁Don": 7200,
      "▁삭": 7201,
      "▁resear": 7202,
      "Ser": 7203,
      "요일": 7204,
      "스코": 7205,
      "▁겁": 7206,
      "▁군사": 7207,
      "▁갈등": 7208,
      "▁restrict": 7209,
      "▁sometimes": 7210,
      ".)\\": 7211,
      "▁신종": 7212,
      "▁확장": 7213,
      "▁apparent": 7214,
      "▁Air": 7215,
      "▁적절": 7216,
      "apping": 7217,
      "▁긍": 7218,
      "▁suggests": 7219,
      "▁헬": 7220,
      "Test": 7221,
      "▁aware": 7222,
      "▁moving": 7223,
      "iae": 7224,
      "▁clearly": 7225,
      "▁유도": 7226,
      "▁whereas": 7227,
      "abil": 7228,
      "aneous": 7229,
      "▁prem": 7230,
      "▁becomes": 7231,
      "▁이른": 7232,
      "▁collection": 7233,
      "▁beyond": 7234,
      "▁교체": 7235,
      "Hand": 7236,
      "▁discussed": 7237,
      "그리고": 7238,
      "▁Mat": 7239,
      "ragment": 7240,
      "▁의지": 7241,
      "▁트리": 7242,
      "▁잃": 7243,
      "▁Ham": 7244,
      "▁maybe": 7245,
      "find": 7246,
      "▁동의": 7247,
      "▁Ben": 7248,
      "▁밝혀": 7249,
      "▁추출": 7250,
      "▁약속": 7251,
      "▁monitor": 7252,
      "▁citiz": 7253,
      "imensional": 7254,
      "▁늦": 7255,
      "hr": 7256,
      "▁긴급": 7257,
      "▁빠르": 7258,
      "▁exposure": 7259,
      "▁Android": 7260,
      "▁Although": 7261,
      ")^": 7262,
      "iral": 7263,
      "▁앵커": 7264,
      "▁시켰": 7265,
      "▁chronic": 7266,
      "▁드리": 7267,
      "▁나갈": 7268,
      "▁heard": 7269,
      "▁throughout": 7270,
      "nWhile": 7271,
      "LC": 7272,
      "ja": 7273,
      "▁개시": 7274,
      "kg": 7275,
      "▁candidate": 7276,
      "mas": 7277,
      "▁끊": 7278,
      "▁품질": 7279,
      "▁County": 7280,
      "▁!=": 7281,
      "▁개방": 7282,
      "▁expressed": 7283,
      "▁British": 7284,
      "▁International": 7285,
      "▁유사": 7286,
      "raint": 7287,
      "▁아주": 7288,
      "▁journal": 7289,
      "UN": 7290,
      "▁efforts": 7291,
      "▁define": 7292,
      "eller": 7293,
      "▁strugg": 7294,
      "찬가지": 7295,
      "▁주의": 7296,
      "▁중간": 7297,
      "▁processes": 7298,
      "object": 7299,
      "▁skin": 7300,
      "sers": 7301,
      "▁Test": 7302,
      "▁Fran": 7303,
      "▁Web": 7304,
      "▁Apple": 7305,
      "▁Any": 7306,
      "▁acqu": 7307,
      "▁ensure": 7308,
      "▁구역": 7309,
      "▁웹": 7310,
      "▁tag": 7311,
      "▁supported": 7312,
      "▁projects": 7313,
      "▁모집": 7314,
      "▁국토": 7315,
      "▁electron": 7316,
      "▁토지": 7317,
      "FT": 7318,
      "▁actions": 7319,
      "▁김정": 7320,
      "▁nan": 7321,
      "▁containing": 7322,
      "▁부여": 7323,
      "▁(\\\\[": 7324,
      "▁탄소": 7325,
      "▁unf": 7326,
      "▁Form": 7327,
      "▁전부": 7328,
      "▁detection": 7329,
      "▁League": 7330,
      "▁재난": 7331,
      "itivity": 7332,
      "▁comparison": 7333,
      "▁스테": 7334,
      "▁nic": 7335,
      "현재": 7336,
      "ainer": 7337,
      "▁세트": 7338,
      "▁Ac": 7339,
      "▁마치": 7340,
      "▁chief": 7341,
      "itors": 7342,
      "▁roll": 7343,
      "uman": 7344,
      "war": 7345,
      "fb": 7346,
      "▁Indian": 7347,
      "ilder": 7348,
      "▁picture": 7349,
      "nCh": 7350,
      "oz": 7351,
      "▁미리": 7352,
      "▁소통": 7353,
      "▁판정": 7354,
      "fort": 7355,
      "▁bottom": 7356,
      "iny": 7357,
      "▁시리": 7358,
      "▁조성물": 7359,
      "▁수원": 7360,
      "▁문제점": 7361,
      "▁indicate": 7362,
      "▁여의": 7363,
      "▁behavi": 7364,
      "▁career": 7365,
      "▁UI": 7366,
      "▁기소": 7367,
      "▁toward": 7368,
      "▁Germany": 7369,
      "▁둘러": 7370,
      "▁liver": 7371,
      "▁Ed": 7372,
      "ifically": 7373,
      "omic": 7374,
      "▁ban": 7375,
      "▁ideas": 7376,
      "▁steps": 7377,
      "▁ready": 7378,
      "▁거부": 7379,
      "▁flo": 7380,
      "란다": 7381,
      "나라당": 7382,
      "maz": 7383,
      "▁면적": 7384,
      "▁none": 7385,
      "orge": 7386,
      "aching": 7387,
      "▁attacks": 7388,
      "yr": 7389,
      "▁opportunity": 7390,
      "%\\": 7391,
      "▁ahead": 7392,
      "▁꽃": 7393,
      "▁만드": 7394,
      ")}": 7395,
      "show": 7396,
      "pg": 7397,
      "▁labor": 7398,
      "▁표준": 7399,
      "orders": 7400,
      "▁법안": 7401,
      "▁successful": 7402,
      "▁theore": 7403,
      "공사": 7404,
      "aved": 7405,
      "▁hands": 7406,
      "vas": 7407,
      "Table": 7408,
      "▁chrom": 7409,
      "앞서": 7410,
      "▁Islam": 7411,
      "inion": 7412,
      "CE": 7413,
      "▁여름": 7414,
      "▁Work": 7415,
      "ufact": 7416,
      "▁태양": 7417,
      "iden": 7418,
      "▁critic": 7419,
      "racy": 7420,
      "▁출발": 7421,
      "emp": 7422,
      "ford": 7423,
      "▁alpha": 7424,
      "iders": 7425,
      "▁Australia": 7426,
      "▁나머지": 7427,
      "▁molecular": 7428,
      "pret": 7429,
      "▁정리": 7430,
      "esis": 7431,
      "▁resistance": 7432,
      "여기": 7433,
      "▁doll": 7434,
      "▁의식": 7435,
      "▁긍정": 7436,
      "▁wide": 7437,
      "▁dark": 7438,
      "Bu": 7439,
      "▁increases": 7440,
      "▁sch": 7441,
      "▁chain": 7442,
      "▁매각": 7443,
      "▁beginning": 7444,
      "▁join": 7445,
      "▁thinking": 7446,
      "▁Sur": 7447,
      "▁역량": 7448,
      "▁투명": 7449,
      "itude": 7450,
      "▁mi": 7451,
      "▁수정": 7452,
      "enty": 7453,
      "▁감지": 7454,
      "▁talking": 7455,
      "▁birth": 7456,
      "▁Tex": 7457,
      "▁NH": 7458,
      "aste": 7459,
      "▁equival": 7460,
      "메일": 7461,
      "▁affected": 7462,
      "▁처벌": 7463,
      "ugin": 7464,
      "화점": 7465,
      "▁tempor": 7466,
      "▁━": 7467,
      "▁노래": 7468,
      "bum": 7469,
      "케이션": 7470,
      "▁largest": 7471,
      "ki": 7472,
      "▁combined": 7473,
      "▁틀": 7474,
      "▁모드": 7475,
      "▁shift": 7476,
      "▁Saturday": 7477,
      "▁shared": 7478,
      "▁acute": 7479,
      "▁layer": 7480,
      "▁examined": 7481,
      "','": 7482,
      "▁마찬가지": 7483,
      "▁리얼": 7484,
      "▁허가": 7485,
      "▁jobs": 7486,
      "▁미치": 7487,
      "▁synd": 7488,
      "▁Phil": 7489,
      "▁operations": 7490,
      "▁신설": 7491,
      "▁violence": 7492,
      "▁interface": 7493,
      "---\\": 7494,
      "▁purch": 7495,
      "▁felt": 7496,
      "rd": 7497,
      "▁짜": 7498,
      "▁Even": 7499,
      "▁꼭": 7500,
      "▁enjoy": 7501,
      "▁consequ": 7502,
      "rage": 7503,
      "▁improved": 7504,
      "▁마무리": 7505,
      "\\\":\\\"": 7506,
      "▁challenge": 7507,
      "▁전북": 7508,
      "▁families": 7509,
      "▁내리": 7510,
      "▁relevant": 7511,
      "▁권리": 7512,
      "▁CBS": 7513,
      "▁AD": 7514,
      "▁King": 7515,
      "▁Net": 7516,
      "▁신경": 7517,
      "▁Two": 7518,
      "▁양성": 7519,
      "▁분류": 7520,
      "▁strength": 7521,
      "▁실험": 7522,
      "▁crisis": 7523,
      "▁장착": 7524,
      "▁appropriate": 7525,
      "▁미만": 7526,
      "▁수수": 7527,
      "▁화면": 7528,
      "회장": 7529,
      "stant": 7530,
      "](": 7531,
      "▁speech": 7532,
      "▁strateg": 7533,
      "▁exists": 7534,
      "▁implic": 7535,
      "▁나이": 7536,
      "▁AND": 7537,
      "gency": 7538,
      "▁대중": 7539,
      "itable": 7540,
      "▁SQL": 7541,
      "▁셈": 7542,
      "▁USA": 7543,
      "▁brought": 7544,
      "▁noted": 7545,
      "▁요금": 7546,
      "▁소자": 7547,
      "▁weak": 7548,
      "▁trou": 7549,
      "▁매년": 7550,
      "▁이메일": 7551,
      "▁Del": 7552,
      "▁Her": 7553,
      "▁걸쳐": 7554,
      "▁지요": 7555,
      "▁father": 7556,
      "▁뉴욕": 7557,
      "이러": 7558,
      "▁norm": 7559,
      "▁UN": 7560,
      "▁필름": 7561,
      "▁결제": 7562,
      "▁movie": 7563,
      "ini": 7564,
      "normal": 7565,
      "nLet": 7566,
      "▁outcome": 7567,
      "▁empty": 7568,
      "▁France": 7569,
      "산물": 7570,
      "icip": 7571,
      "istered": 7572,
      "spring": 7573,
      "build": 7574,
      "▁efficient": 7575,
      "▁Copyrights": 7576,
      "▁histor": 7577,
      "▁질환": 7578,
      "▁quarter": 7579,
      "CP": 7580,
      "▁\\\\\\\\\\": 7581,
      "▁delay": 7582,
      "▁laun": 7583,
      "ooth": 7584,
      "▁PM": 7585,
      "▁Also": 7586,
      "▁매체": 7587,
      "▁regul": 7588,
      "▁modern": 7589,
      "▁impos": 7590,
      "bra": 7591,
      "first": 7592,
      "▁rise": 7593,
      "근혜": 7594,
      "CS": 7595,
      "********": 7596,
      "▁Most": 7597,
      "▁AR": 7598,
      "▁adjust": 7599,
      "▁green": 7600,
      "▁hous": 7601,
      "ani": 7602,
      "▁alternative": 7603,
      "iled": 7604,
      "▁입주": 7605,
      "▁려면": 7606,
      "▁alleged": 7607,
      "▁충전": 7608,
      "▁한다면": 7609,
      "▁삽입": 7610,
      "▁Port": 7611,
      "▁straight": 7612,
      "result": 7613,
      "▁Tor": 7614,
      "Index": 7615,
      "▁마감": 7616,
      "cap": 7617,
      "▁법무": 7618,
      "▁suff": 7619,
      "릭터": 7620,
      "▁구분": 7621,
      "▁removed": 7622,
      "▁으면서": 7623,
      "▁냈": 7624,
      "▁guess": 7625,
      "eed": 7626,
      "####": 7627,
      "chi": 7628,
      "ya": 7629,
      "▁errors": 7630,
      "▁auto": 7631,
      "▁conference": 7632,
      "last": 7633,
      "▁radio": 7634,
      "▁KBS": 7635,
      "▁frame": 7636,
      "▁부인": 7637,
      "▁Gr": 7638,
      "void": 7639,
      "걱정": 7640,
      "▁순간": 7641,
      "▁crim": 7642,
      "▁지시": 7643,
      "▁얼마나": 7644,
      "▁tools": 7645,
      "uts": 7646,
      "▁배경": 7647,
      "▁실행": 7648,
      "▁directory": 7649,
      "▁빠른": 7650,
      "stitute": 7651,
      "arian": 7652,
      "▁저희": 7653,
      "▁diab": 7654,
      "▁epis": 7655,
      "▁팀장": 7656,
      "phone": 7657,
      "▁sleep": 7658,
      "vo": 7659,
      "▁SBS": 7660,
      "istant": 7661,
      "▁디바": 7662,
      "▁수업": 7663,
      "▁물량": 7664,
      "▁implementation": 7665,
      "izer": 7666,
      "AutoNews": 7667,
      "▁상반기": 7668,
      "▁English": 7669,
      "▁crypt": 7670,
      "▁실제로": 7671,
      "▁근로자": 7672,
      "▁smart": 7673,
      "▁<-": 7674,
      "Content": 7675,
      "▁조작": 7676,
      "▁받아들": 7677,
      "▁wouldn": 7678,
      "▁generally": 7679,
      "▁bacter": 7680,
      "▁confirm": 7681,
      "▁auth": 7682,
      "▁아침": 7683,
      "eles": 7684,
      "ido": 7685,
      "▁End": 7686,
      "▁biggest": 7687,
      "▁유일": 7688,
      "▁Street": 7689,
      "▁해요": 7690,
      "cis": 7691,
      "▁타이": 7692,
      "▁cool": 7693,
      "▁tox": 7694,
      "▁계산": 7695,
      "▁occurred": 7696,
      "▁공단": 7697,
      "PE": 7698,
      "▁returned": 7699,
      "abs": 7700,
      "onal": 7701,
      "kt": 7702,
      "era": 7703,
      "▁paid": 7704,
      "▁genes": 7705,
      "sen": 7706,
      "▁util": 7707,
      "amine": 7708,
      "▁집계": 7709,
      "▁Sup": 7710,
      "▁취소": 7711,
      "▁);\\": 7712,
      "etch": 7713,
      "▁SE": 7714,
      "rightarrow": 7715,
      "▁공부": 7716,
      "▁나와": 7717,
      "exp": 7718,
      "▁함유": 7719,
      "embly": 7720,
      "▁older": 7721,
      "epsilon": 7722,
      "VER": 7723,
      "ulf": 7724,
      "▁뮤": 7725,
      "다만": 7726,
      "▁pregn": 7727,
      "▁손실": 7728,
      "▁모양": 7729,
      "ua": 7730,
      "arg": 7731,
      "▁blog": 7732,
      "▁어부": 7733,
      "▁tend": 7734,
      "▁spokes": 7735,
      "▁걱정": 7736,
      "▁cru": 7737,
      "▁설비": 7738,
      "▁영어": 7739,
      "▁investigate": 7740,
      "▁미세": 7741,
      "▁CI": 7742,
      "md": 7743,
      "▁캐릭터": 7744,
      "▁wild": 7745,
      "▁coronavirus": 7746,
      "▁continued": 7747,
      "▁죄": 7748,
      "▁롭": 7749,
      "▁exchange": 7750,
      "▁das": 7751,
      "Script": 7752,
      "▁sed": 7753,
      "Stream": 7754,
      "▁혹은": 7755,
      "ala": 7756,
      "▁sets": 7757,
      "ustr": 7758,
      "▁어도": 7759,
      "▁졸업": 7760,
      "▁Mex": 7761,
      "▁programs": 7762,
      "\\\"]": 7763,
      "▁benefits": 7764,
      "▁앉": 7765,
      "▁hear": 7766,
      "▁보증": 7767,
      "▁touch": 7768,
      "▁transc": 7769,
      "▁solve": 7770,
      "▁correlation": 7771,
      "▁aspect": 7772,
      "▁distribut": 7773,
      "▁stock": 7774,
      "▁minor": 7775,
      "▁digital": 7776,
      "▁chemical": 7777,
      "▁looked": 7778,
      "▁neur": 7779,
      "▁줬": 7780,
      "uled": 7781,
      "otes": 7782,
      "▁사과": 7783,
      "▁모터": 7784,
      "▁perhaps": 7785,
      "enu": 7786,
      "aci": 7787,
      "▁순위": 7788,
      "담회": 7789,
      "▁유동": 7790,
      "nPro": 7791,
      "▁불편": 7792,
      "▁responses": 7793,
      "▁princ": 7794,
      "▁대기": 7795,
      "리카": 7796,
      "▁couldn": 7797,
      "FP": 7798,
      "▁안보": 7799,
      "▁piece": 7800,
      "▁임시": 7801,
      "▁강한": 7802,
      "▁브라": 7803,
      "▁시리즈": 7804,
      "▁시트": 7805,
      "Be": 7806,
      "▁샤": 7807,
      "MD": 7808,
      "▁챔": 7809,
      "▁드라마": 7810,
      "▁changing": 7811,
      "▁net": 7812,
      "▁conducted": 7813,
      "▁운전": 7814,
      "Listener": 7815,
      "cS": 7816,
      "▁Na": 7817,
      "room": 7818,
      "▁이내": 7819,
      "▁Associ": 7820,
      "icks": 7821,
      "win": 7822,
      "▁module": 7823,
      "▁AT": 7824,
      "((": 7825,
      "▁prefer": 7826,
      "▁굴": 7827,
      "ructure": 7828,
      "▁mobile": 7829,
      "▁definit": 7830,
      "▁하반기": 7831,
      "};\\": 7832,
      "▁Bel": 7833,
      "▁디바이스": 7834,
      "▁교환": 7835,
      "▁±": 7836,
      "dered": 7837,
      "fcr": 7838,
      "▁수립": 7839,
      "▁취지": 7840,
      "dc": 7841,
      "des": 7842,
      "ells": 7843,
      "▁NULL": 7844,
      "▁obtain": 7845,
      "▁검색": 7846,
      "agram": 7847,
      "▁kid": 7848,
      "UE": 7849,
      "▁메모리": 7850,
      "▁SD": 7851,
      "otype": 7852,
      "▁generate": 7853,
      "▁부처": 7854,
      "▁activation": 7855,
      "▁East": 7856,
      "legal": 7857,
      "▁trust": 7858,
      "▁Star": 7859,
      "▁degrees": 7860,
      "▁줄이": 7861,
      "▁Met": 7862,
      "▁여의도": 7863,
      "▁evaluate": 7864,
      "▁소장": 7865,
      "▁split": 7866,
      "space": 7867,
      "Count": 7868,
      "alax": 7869,
      "VID": 7870,
      "▁Green": 7871,
      "▁react": 7872,
      "▁somew": 7873,
      "▁song": 7874,
      "▁describe": 7875,
      "bed": 7876,
      "▁자녀": 7877,
      "▁advance": 7878,
      "osing": 7879,
      "▁finding": 7880,
      "▁Ber": 7881,
      "ostic": 7882,
      "▁쌓": 7883,
      "▁심의": 7884,
      "home": 7885,
      "▁사라": 7886,
      "▁relatively": 7887,
      "▁》": 7888,
      "At": 7889,
      "ersion": 7890,
      "▁Using": 7891,
      "▁축구": 7892,
      "카오": 7893,
      "▁전지": 7894,
      "▁반복": 7895,
      "iling": 7896,
      "▁실패": 7897,
      "▁벨": 7898,
      "▁regions": 7899,
      "▁정기": 7900,
      "▁배터리": 7901,
      "▁leads": 7902,
      "icians": 7903,
      "▁blue": 7904,
      "▁vel": 7905,
      "▁brand": 7906,
      "▁종류": 7907,
      "wood": 7908,
      "▁Ins": 7909,
      "Web": 7910,
      "▁교류": 7911,
      "▁mentioned": 7912,
      "▁짓": 7913,
      "▁operator": 7914,
      "▁거주": 7915,
      "▁regarding": 7916,
      "▁danger": 7917,
      "▁voters": 7918,
      "▁association": 7919,
      "▁established": 7920,
      "▁그냥": 7921,
      "DE": 7922,
      "inn": 7923,
      "▁가공": 7924,
      "~~": 7925,
      "▁:\\": 7926,
      "▁forms": 7927,
      "▁survey": 7928,
      "▁responsible": 7929,
      "▁decrease": 7930,
      "▁certainly": 7931,
      "▁→": 7932,
      "ban": 7933,
      "CL": 7934,
      "▁rock": 7935,
      "▁()": 7936,
      "▁muscle": 7937,
      "▁Time": 7938,
      "▁Dan": 7939,
      "▁science": 7940,
      "▁resulting": 7941,
      "▁동아": 7942,
      "Pl": 7943,
      "▁channel": 7944,
      "rape": 7945,
      "▁rank": 7946,
      "▁URL": 7947,
      "자체": 7948,
      "▁닷컴": 7949,
      "반도": 7950,
      "▁capacity": 7951,
      "▁단일": 7952,
      "▁establish": 7953,
      "▁reached": 7954,
      "▁vi": 7955,
      "▁일으": 7956,
      "▁consistent": 7957,
      "▁고속": 7958,
      "▁scene": 7959,
      "▁IL": 7960,
      "▁benefit": 7961,
      "nAny": 7962,
      "),\\": 7963,
      "▁mist": 7964,
      "▁국회의원": 7965,
      "TO": 7966,
      "▁달라": 7967,
      "▁General": 7968,
      "▁definition": 7969,
      "▁베이": 7970,
      "▁Michael": 7971,
      "Run": 7972,
      "▁remember": 7973,
      "▁knew": 7974,
      "▁자율": 7975,
      "▁초과": 7976,
      "▁assume": 7977,
      "▁전하": 7978,
      "pol": 7979,
      "▁주차": 7980,
      "▁OS": 7981,
      "stein": 7982,
      "▁summer": 7983,
      "▁핀": 7984,
      "▁pun": 7985,
      "▁Muslim": 7986,
      "overnment": 7987,
      "ados": 7988,
      "▁이루어지": 7989,
      "▁electric": 7990,
      "rend": 7991,
      "();": 7992,
      "▁마리": 7993,
      "heet": 7994,
      "▁easier": 7995,
      "AutoNewspaper": 7996,
      "]:": 7997,
      "▁generation": 7998,
      "psi": 7999,
      "▁충격": 8000,
      "▁테이": 8001,
      "unc": 8002,
      "▁shape": 8003,
      "▁획득": 8004,
      "▁customers": 8005,
      "다고": 8006,
      "▁measurements": 8007,
      ".']\\": 8008,
      "opath": 8009,
      "ita": 8010,
      "▁간담회": 8011,
      "▁lic": 8012,
      "CR": 8013,
      "quad": 8014,
      "▁철도": 8015,
      "▁유가": 8016,
      "▁pow": 8017,
      "▁’(": 8018,
      "Size": 8019,
      "▁혼합": 8020,
      "▁건조": 8021,
      "▁경로": 8022,
      "▁인공": 8023,
      "atterns": 8024,
      "▁Because": 8025,
      "▁manager": 8026,
      "UI": 8027,
      "▁발굴": 8028,
      "▁yourself": 8029,
      "▁thousands": 8030,
      "▁eyes": 8031,
      "▁font": 8032,
      "\\\"/>\\": 8033,
      "리어": 8034,
      "▁external": 8035,
      "▁reflect": 8036,
      "airs": 8037,
      "▁shut": 8038,
      "▁감안": 8039,
      "zer": 8040,
      "ishing": 8041,
      "▁음성": 8042,
      "▁firm": 8043,
      "inger": 8044,
      "▁타임": 8045,
      "프라": 8046,
      "▁극복": 8047,
      "▁appeared": 8048,
      "UM": 8049,
      "▁|\\": 8050,
      "▁arr": 8051,
      "▁techniques": 8052,
      "▁organization": 8053,
      "▁뜨": 8054,
      "▁Cup": 8055,
      "▁미술": 8056,
      "▁충분히": 8057,
      "▁evolution": 8058,
      "▁Therefore": 8059,
      "emia": 8060,
      "▁갤": 8061,
      "lorida": 8062,
      "Message": 8063,
      "anel": 8064,
      "produ": 8065,
      "XX": 8066,
      "inner": 8067,
      "ione": 8068,
      "▁최선": 8069,
      "ih": 8070,
      "▁convers": 8071,
      "▁엔진": 8072,
      "▁용기": 8073,
      "child": 8074,
      "PG": 8075,
      "sey": 8076,
      "▁통하": 8077,
      "▁친환경": 8078,
      "▁오픈": 8079,
      "▁template": 8080,
      "▁조기": 8081,
      "▁Texas": 8082,
      "▁빅": 8083,
      "▁Republicans": 8084,
      "▁incor": 8085,
      "Out": 8086,
      "▁therm": 8087,
      "▁incident": 8088,
      "dependent": 8089,
      "▁Log": 8090,
      "▁Set": 8091,
      "▁완성": 8092,
      "Inter": 8093,
      "▁산화": 8094,
      "▁carbon": 8095,
      "▁맞춰": 8096,
      "▁변형": 8097,
      "block": 8098,
      "▁password": 8099,
      "▁신속": 8100,
      "▁criminal": 8101,
      "uses": 8102,
      "▁부회장": 8103,
      "▁grand": 8104,
      "▁trend": 8105,
      "▁continues": 8106,
      "▁framework": 8107,
      "Map": 8108,
      "▁충남": 8109,
      "▁driver": 8110,
      "▁로봇": 8111,
      "▁직장": 8112,
      "▁CS": 8113,
      "nThen": 8114,
      "urance": 8115,
      "inant": 8116,
      "그래": 8117,
      "▁선생": 8118,
      "▁isolated": 8119,
      "▁Police": 8120,
      "▁떨어지": 8121,
      "Dis": 8122,
      "▁미사": 8123,
      "▁연간": 8124,
      "▁experiments": 8125,
      "mega": 8126,
      "▁agency": 8127,
      "▁Service": 8128,
      "▁개편": 8129,
      "▁User": 8130,
      "▁lung": 8131,
      "▁주년": 8132,
      "▁부지": 8133,
      "CA": 8134,
      "*]{}": 8135,
      "▁prison": 8136,
      "▁이재": 8137,
      "hetic": 8138,
      "▁증거": 8139,
      "Method": 8140,
      "fill": 8141,
      "▁folder": 8142,
      "▁부대": 8143,
      "▁profile": 8144,
      "oi": 8145,
      "▁configuration": 8146,
      "▁asking": 8147,
      "▁commer": 8148,
      "▁FROM": 8149,
      "▁Text": 8150,
      "▁nor": 8151,
      "▁conflic": 8152,
      "ilter": 8153,
      "▁vitro": 8154,
      "gress": 8155,
      "▁총선": 8156,
      "▁구청": 8157,
      "▁실현": 8158,
      "▁ng": 8159,
      "ipe": 8160,
      "▁노출": 8161,
      "under": 8162,
      "▁Mal": 8163,
      "En": 8164,
      "▁sales": 8165,
      "Up": 8166,
      "care": 8167,
      "untu": 8168,
      "▁drink": 8169,
      "▁minimum": 8170,
      "ocytes": 8171,
      "▁algorithm": 8172,
      "▁Fire": 8173,
      "▁형사": 8174,
      "erved": 8175,
      "▁구입": 8176,
      "▁늘어나": 8177,
      "▁감정": 8178,
      "source": 8179,
      "▁폐지": 8180,
      "▁필터": 8181,
      "▁쏟": 8182,
      "Code": 8183,
      "▁야당": 8184,
      "라스": 8185,
      "EW": 8186,
      "▁봉사": 8187,
      "▁어머니": 8188,
      "▁생태": 8189,
      "▁一": 8190,
      "▁Other": 8191,
      "▁불리": 8192,
      "▁통계": 8193,
      "▁haven": 8194,
      "anges": 8195,
      "▁Class": 8196,
      "▁성적": 8197,
      "▁rows": 8198,
      "▁통제": 8199,
      "▁흘": 8200,
      "▁골프": 8201,
      "▁쓴": 8202,
      "▁감염증": 8203,
      "▁이탈": 8204,
      "▁검증": 8205,
      "▁structures": 8206,
      "▁나무": 8207,
      "nfor": 8208,
      "▁concerns": 8209,
      "▁＞": 8210,
      "izations": 8211,
      "fs": 8212,
      "▁minister": 8213,
      "pace": 8214,
      "▁reli": 8215,
      "튜브": 8216,
      "▁statist": 8217,
      "▁estimated": 8218,
      "▁Lin": 8219,
      "▁그린": 8220,
      "▁explained": 8221,
      "▁resolution": 8222,
      "TS": 8223,
      "다른": 8224,
      "▁encou": 8225,
      "▁바란다": 8226,
      "직원": 8227,
      "▁연료": 8228,
      "ador": 8229,
      "▁celebr": 8230,
      "▁늘어": 8231,
      "inst": 8232,
      "▁pod": 8233,
      "anging": 8234,
      "▁budget": 8235,
      "▁환율": 8236,
      "▁adapt": 8237,
      "▁upper": 8238,
      "▁heavy": 8239,
      "▁마이크": 8240,
      "mazon": 8241,
      "▁보통": 8242,
      "css": 8243,
      "GB": 8244,
      "▁carcin": 8245,
      "▁repeated": 8246,
      "raq": 8247,
      "▁진입": 8248,
      "▁traditional": 8249,
      "▁괴": 8250,
      "▁취재": 8251,
      "▁developing": 8252,
      "▁꾸준": 8253,
      "etes": 8254,
      "▁Mart": 8255,
      "▁browser": 8256,
      "▁brief": 8257,
      "타임": 8258,
      "▁officers": 8259,
      "DB": 8260,
      "lands": 8261,
      "▁characteristics": 8262,
      "▁세력": 8263,
      "▁일상": 8264,
      "▁묘": 8265,
      "▁whatever": 8266,
      "real": 8267,
      "▁compare": 8268,
      "▁뒷": 8269,
      "ometry": 8270,
      "▁부부": 8271,
      "▁agents": 8272,
      "▁기부": 8273,
      "▁farm": 8274,
      "▁carried": 8275,
      "▁alert": 8276,
      "▁나누": 8277,
      "nWhy": 8278,
      "undle": 8279,
      "iance": 8280,
      "▁Found": 8281,
      ")$,": 8282,
      "▁아름": 8283,
      "▁기온": 8284,
      "pa": 8285,
      "(),": 8286,
      "▁버리": 8287,
      "SQL": 8288,
      "▁바닥": 8289,
      "▁diet": 8290,
      "▁헌법": 8291,
      "▁차관": 8292,
      "ptions": 8293,
      "▁subsequ": 8294,
      "osen": 8295,
      "yan": 8296,
      "illa": 8297,
      "dat": 8298,
      "eless": 8299,
      "▁지키": 8300,
      "[\\\"": 8301,
      "▁hour": 8302,
      "rive": 8303,
      "▁고위": 8304,
      "▁점수": 8305,
      "▁electro": 8306,
      "저작": 8307,
      "▁철저": 8308,
      "▁다니": 8309,
      "ansion": 8310,
      "▁키로": 8311,
      "▁기타": 8312,
      "▁주거": 8313,
      "▁connected": 8314,
      "ackage": 8315,
      "emy": 8316,
      "▁deploy": 8317,
      "▁prepar": 8318,
      "otherapy": 8319,
      "=\\": 8320,
      "▁powerful": 8321,
      "Donald": 8322,
      "▁presidential": 8323,
      "▁panel": 8324,
      "▁mechanisms": 8325,
      "▁myself": 8326,
      "▁fra": 8327,
      "▁옆": 8328,
      "model": 8329,
      "▁된다는": 8330,
      "▁알리": 8331,
      "▁노동자": 8332,
      "ifier": 8333,
      "edia": 8334,
      "▁부과": 8335,
      "▁Object": 8336,
      "wa": 8337,
      "orial": 8338,
      "node": 8339,
      "ById": 8340,
      "▁자주": 8341,
      "▁백화점": 8342,
      "▁우승": 8343,
      "▁제재": 8344,
      "▁유로": 8345,
      "▁internet": 8346,
      "▁debate": 8347,
      "▁발광": 8348,
      "api": 8349,
      "▁Mad": 8350,
      "▁가상": 8351,
      "▁controller": 8352,
      "▁School": 8353,
      "▁defense": 8354,
      "▁져": 8355,
      "증권": 8356,
      "▁Ver": 8357,
      "▁analys": 8358,
      "▁views": 8359,
      ".',": 8360,
      "▁simpl": 8361,
      "▁예약": 8362,
      "▁Mil": 8363,
      "▁써": 8364,
      "▁Every": 8365,
      "nson": 8366,
      "▁지자체": 8367,
      "▁한반도": 8368,
      "istr": 8369,
      "▁불가": 8370,
      "▁stories": 8371,
      "▁입자": 8372,
      "▁왼": 8373,
      "▁columns": 8374,
      "▁Super": 8375,
      "▁Ke": 8376,
      "▁happy": 8377,
      "allel": 8378,
      "▁causes": 8379,
      "agen": 8380,
      "author": 8381,
      "▁협의회": 8382,
      "lt": 8383,
      "▁주행": 8384,
      "▁places": 8385,
      "▁부착": 8386,
      "▁브리": 8387,
      "▁춘": 8388,
      "▁Read": 8389,
      "FO": 8390,
      "▁맺": 8391,
      "▁Both": 8392,
      "▁manufact": 8393,
      "lets": 8394,
      "ponse": 8395,
      "▁gone": 8396,
      "▁세월": 8397,
      "▁entry": 8398,
      "▁calculated": 8399,
      "▁개별": 8400,
      "▁respond": 8401,
      "▁surg": 8402,
      "▁Date": 8403,
      "▁sun": 8404,
      "▁accom": 8405,
      "▁James": 8406,
      "▁margin": 8407,
      "▁출마": 8408,
      "▁prove": 8409,
      "▁Direct": 8410,
      "▁Je": 8411,
      "nRe": 8412,
      "▁스타일": 8413,
      "▁nice": 8414,
      "▁아마": 8415,
      "▁onto": 8416,
      "Bar": 8417,
      "▁㎞": 8418,
      "▁pour": 8419,
      "imer": 8420,
      "현대": 8421,
      "Ent": 8422,
      "▁Jack": 8423,
      "▁취득": 8424,
      "rl": 8425,
      "▁Ap": 8426,
      "▁Bill": 8427,
      "▁syndrome": 8428,
      "idel": 8429,
      "▁helped": 8430,
      "ologic": 8431,
      "agement": 8432,
      "utm": 8433,
      "▁청장": 8434,
      "▁수소": 8435,
      "▁meant": 8436,
      "▁helps": 8437,
      "udo": 8438,
      "nCon": 8439,
      "▁spot": 8440,
      "▁움직임": 8441,
      "▁tick": 8442,
      "▁문재인": 8443,
      "▁Sing": 8444,
      "nAccording": 8445,
      "▁arm": 8446,
      "▁SS": 8447,
      "▁moved": 8448,
      "영상": 8449,
      "▁간단": 8450,
      "▁피고": 8451,
      "ivery": 8452,
      "ortunately": 8453,
      "▁천만": 8454,
      "니아": 8455,
      "▁Tom": 8456,
      "▁reality": 8457,
      "▁station": 8458,
      "▁DC": 8459,
      "▁opening": 8460,
      "hell": 8461,
      "etime": 8462,
      "▁부르": 8463,
      "Rec": 8464,
      "▁interested": 8465,
      "iform": 8466,
      "경기": 8467,
      "▁supposed": 8468,
      "▁겨울": 8469,
      "▁실시간": 8470,
      "▁asiae": 8471,
      "▁evaluation": 8472,
      "▁liqu": 8473,
      "▁Rober": 8474,
      "ker": 8475,
      "▁캡": 8476,
      "▁au": 8477,
      "▁involve": 8478,
      "▁오염": 8479,
      "▁진정": 8480,
      "adding": 8481,
      "▁peak": 8482,
      "▁accur": 8483,
      "Override": 8484,
      "ye": 8485,
      "nfunction": 8486,
      "▁부상": 8487,
      "▁employees": 8488,
      "={": 8489,
      "▁커버": 8490,
      "▁거든": 8491,
      "▁diss": 8492,
      "▁충북": 8493,
      "▁CR": 8494,
      "▁eye": 8495,
      "▁손해": 8496,
      "▁kids": 8497,
      "▁massive": 8498,
      "▁medic": 8499,
      "▁학부": 8500,
      "▁camera": 8501,
      "▁...\\": 8502,
      "▁emot": 8503,
      "럴드": 8504,
      "▁오래": 8505,
      "▁한나라당": 8506,
      "신문": 8507,
      "▁완전히": 8508,
      "ameter": 8509,
      "▁개국": 8510,
      "▁heat": 8511,
      "iced": 8512,
      "▁breast": 8513,
      "▁노선": 8514,
      "▁당부": 8515,
      "▁officer": 8516,
      "▁가동": 8517,
      "▁advantage": 8518,
      "▁bra": 8519,
      "▁According": 8520,
      "weight": 8521,
      "▁선박": 8522,
      "▁decades": 8523,
      "▁돕": 8524,
      "zyme": 8525,
      "▁대우": 8526,
      "ochem": 8527,
      "venue": 8528,
      "mary": 8529,
      "▁interactions": 8530,
      "gers": 8531,
      "▁schools": 8532,
      "▁뽑": 8533,
      "gent": 8534,
      "▁charges": 8535,
      "▁코드": 8536,
      "▁flag": 8537,
      "▁HD": 8538,
      "▁밝히": 8539,
      "▁전투": 8540,
      "▁ded": 8541,
      "▁Bay": 8542,
      "▁자는": 8543,
      "▁으니": 8544,
      "▁균형": 8545,
      "asp": 8546,
      "▁DE": 8547,
      "▁examples": 8548,
      "▁cycle": 8549,
      "▁located": 8550,
      "▁stack": 8551,
      "stitution": 8552,
      "▁protocol": 8553,
      "▁부위": 8554,
      "▁박근혜": 8555,
      "▁reb": 8556,
      "ndef": 8557,
      "ateral": 8558,
      "▁mouse": 8559,
      "▁town": 8560,
      "▁실천": 8561,
      "▁adult": 8562,
      "▁계층": 8563,
      "estic": 8564,
      "▁Syria": 8565,
      "nCan": 8566,
      "Sub": 8567,
      "▁vert": 8568,
      "▁plane": 8569,
      "▁outcomes": 8570,
      "gun": 8571,
      "▁providing": 8572,
      "▁기지": 8573,
      "▁느끼": 8574,
      "bn": 8575,
      "▁Earth": 8576,
      "▁indicated": 8577,
      "▁mount": 8578,
      "iate": 8579,
      "▁tree": 8580,
      "▁football": 8581,
      "\\\"}": 8582,
      "▁훨": 8583,
      "▁위협": 8584,
      "▁변동": 8585,
      "▁gluc": 8586,
      "▁아프": 8587,
      "▁다소": 8588,
      "▁이용자": 8589,
      "올해": 8590,
      "det": 8591,
      "▁느낌": 8592,
      "▁Press": 8593,
      "nhttp": 8594,
      "▁seconds": 8595,
      "itect": 8596,
      "▁installed": 8597,
      "▁selection": 8598,
      "▁units": 8599,
      "지난해": 8600,
      "▁French": 8601,
      "▁무슨": 8602,
      "▁society": 8603,
      "▁patterns": 8604,
      "▁맨": 8605,
      "세계": 8606,
      "▁Law": 8607,
      "▁세종": 8608,
      "자기": 8609,
      "ologies": 8610,
      "}}\\\\": 8611,
      "If": 8612,
      "▁の": 8613,
      "▁san": 8614,
      "▁에어": 8615,
      "google": 8616,
      "range": 8617,
      "▁그만": 8618,
      "▁한테": 8619,
      "▁학원": 8620,
      "▁*/\\": 8621,
      "▁파일": 8622,
      "▁xml": 8623,
      "▁Rem": 8624,
      "▁연대": 8625,
      "grad": 8626,
      "▁assign": 8627,
      "▁tro": 8628,
      "mittee": 8629,
      "▁jump": 8630,
      "그런": 8631,
      "▁settings": 8632,
      "▁mostly": 8633,
      "▁대법": 8634,
      "▁엄마": 8635,
      "▁agent": 8636,
      "▁signed": 8637,
      "▁equivalent": 8638,
      "oster": 8639,
      "중국": 8640,
      "riend": 8641,
      "▁exercise": 8642,
      "▁GM": 8643,
      "▁문학": 8644,
      "▁강제": 8645,
      "▁매매": 8646,
      "▁forced": 8647,
      "▁inflam": 8648,
      "▁Inte": 8649,
      "▁이행": 8650,
      "▁stable": 8651,
      "▁Ev": 8652,
      "▁residents": 8653,
      "▁slightly": 8654,
      "▁updated": 8655,
      "▁Uk": 8656,
      "▁を": 8657,
      "▁Iraq": 8658,
      "▁People": 8659,
      "jection": 8660,
      "▁wife": 8661,
      "▁crow": 8662,
      "▁analyzed": 8663,
      "aughter": 8664,
      "▁researchers": 8665,
      "▁르": 8666,
      "▁훨씬": 8667,
      "▁선진": 8668,
      "▁interpret": 8669,
      "Info": 8670,
      "▁발사": 8671,
      "▁집회": 8672,
      "▁반발": 8673,
      "▁Sal": 8674,
      "▁ped": 8675,
      "▁한계": 8676,
      "▁지상": 8677,
      "▁grad": 8678,
      "▁참고": 8679,
      "▁당연": 8680,
      "▁벤처": 8681,
      "▁introduced": 8682,
      "▁본다": 8683,
      "▁래": 8684,
      "▁offers": 8685,
      "inity": 8686,
      "▁네요": 8687,
      "▁나요": 8688,
      "oral": 8689,
      "adian": 8690,
      "▁citizens": 8691,
      "ouble": 8692,
      "▁YTN": 8693,
      "ello": 8694,
      "▁지표": 8695,
      "▁extension": 8696,
      "langle": 8697,
      "IF": 8698,
      "▁인프라": 8699,
      "▁TR": 8700,
      "▁remark": 8701,
      "________": 8702,
      "▁재무": 8703,
      "▁corpor": 8704,
      "▁밑": 8705,
      "▁제약": 8706,
      "▁세기": 8707,
      "chnology": 8708,
      "▁senior": 8709,
      "▁flex": 8710,
      "▁guy": 8711,
      "▁harm": 8712,
      "nIm": 8713,
      "▁모임": 8714,
      "▁에스": 8715,
      "CO": 8716,
      "▁__": 8717,
      "▁是": 8718,
      "▁otherwise": 8719,
      "▁tun": 8720,
      "▁Alex": 8721,
      "▁imaging": 8722,
      "▁PS": 8723,
      "▁잖": 8724,
      "▁%(": 8725,
      "▁헤럴드": 8726,
      "▁relation": 8727,
      "▁Bitcoin": 8728,
      "▁출범": 8729,
      "▁coach": 8730,
      "▁이곳": 8731,
      "▁shock": 8732,
      "▁Array": 8733,
      "▁prime": 8734,
      "▁variety": 8735,
      "▁바다": 8736,
      "▁charged": 8737,
      "iveness": 8738,
      "▁mortality": 8739,
      "▁절반": 8740,
      "▁Internet": 8741,
      "Not": 8742,
      "liament": 8743,
      "email": 8744,
      "▁eventually": 8745,
      "▁추세": 8746,
      "▁비즈": 8747,
      "ingly": 8748,
      "▁빚": 8749,
      "▁횡": 8750,
      "▁conver": 8751,
      "▁Union": 8752,
      "리트": 8753,
      "교육": 8754,
      ")/": 8755,
      "▁조제": 8756,
      "▁German": 8757,
      "TV": 8758,
      "▁odd": 8759,
      "▁꺼": 8760,
      "inte": 8761,
      "▁악화": 8762,
      "▁tit": 8763,
      "World": 8764,
      "▁polar": 8765,
      "▁Spec": 8766,
      "▁joint": 8767,
      "▁proof": 8768,
      "▁serve": 8769,
      "▁soc": 8770,
      "▁현금": 8771,
      "specific": 8772,
      "gar": 8773,
      "%.": 8774,
      "▁train": 8775,
      "▁Big": 8776,
      "▁Commun": 8777,
      "▁장점": 8778,
      "osa": 8779,
      "rapeut": 8780,
      "▁wel": 8781,
      "▁possibility": 8782,
      "asis": 8783,
      "▁예요": 8784,
      "▁membrane": 8785,
      "ideos": 8786,
      "트남": 8787,
      "스타": 8788,
      "▁저항": 8789,
      "▁Secret": 8790,
      "▁guys": 8791,
      "▁오프": 8792,
      "▁raised": 8793,
      "▁shooting": 8794,
      "루션": 8795,
      "▁HTML": 8796,
      "▁spectrum": 8797,
      "▁executive": 8798,
      "idation": 8799,
      "person": 8800,
      "house": 8801,
      "▁게이트": 8802,
      "▁diseases": 8803,
      "▁processing": 8804,
      "▁세금": 8805,
      "▁une": 8806,
      "▁impl": 8807,
      "▁밸브": 8808,
      "---": 8809,
      "▁Arab": 8810,
      "▁제일": 8811,
      "▁명칭": 8812,
      "▁posted": 8813,
      "Client": 8814,
      "anta": 8815,
      "▁재생": 8816,
      "uries": 8817,
      "▁비행": 8818,
      "request": 8819,
      "▁인원": 8820,
      "akistan": 8821,
      "▁storage": 8822,
      "rey": 8823,
      "▁터치": 8824,
      "▁elev": 8825,
      "▁origin": 8826,
      "ville": 8827,
      "▁versus": 8828,
      "▁Bank": 8829,
      "omal": 8830,
      "▁approximately": 8831,
      "▁팩": 8832,
      "이버": 8833,
      "▁lov": 8834,
      "▁placed": 8835,
      "].\\": 8836,
      "▁boy": 8837,
      "▁펼쳐": 8838,
      "=\\\"@": 8839,
      "▁distinct": 8840,
      "▁취임": 8841,
      "▁mel": 8842,
      "▁morph": 8843,
      "How": 8844,
      "▁매출액": 8845,
      "▁gain": 8846,
      "olf": 8847,
      "▁시위": 8848,
      "▁페이스": 8849,
      "▁faster": 8850,
      "ista": 8851,
      "▁MB": 8852,
      "▁혁명": 8853,
      "어지": 8854,
      "▁Di": 8855,
      "▁seeing": 8856,
      "▁dys": 8857,
      "▁dynamic": 8858,
      "▁virtual": 8859,
      "MR": 8860,
      "ben": 8861,
      "▁menu": 8862,
      "ston": 8863,
      "▁문서": 8864,
      "▁줘": 8865,
      "▁벌이": 8866,
      "▁gold": 8867,
      "▁도착": 8868,
      "aren": 8869,
      "cluded": 8870,
      "▁파트": 8871,
      "▁맞춤": 8872,
      "ko": 8873,
      "▁linked": 8874,
      "▁사유": 8875,
      "▁successfully": 8876,
      "▁Rich": 8877,
      "▁は": 8878,
      "rovers": 8879,
      "jo": 8880,
      "foot": 8881,
      "▁Rob": 8882,
      "look": 8883,
      "▁개정안": 8884,
      "itness": 8885,
      "▁기울": 8886,
      "▁plate": 8887,
      "▁봄": 8888,
      "▁Microsoft": 8889,
      "ipher": 8890,
      "aby": 8891,
      "▁Fin": 8892,
      "▁notice": 8893,
      "▁credit": 8894,
      "EE": 8895,
      "▁stars": 8896,
      "▁수집": 8897,
      "▁Image": 8898,
      "▁Council": 8899,
      "▁authors": 8900,
      "▁gast": 8901,
      "▁explicit": 8902,
      "▁plot": 8903,
      "▁정지": 8904,
      "▁cook": 8905,
      "iency": 8906,
      "cohol": 8907,
      "▁environmental": 8908,
      "▁Cap": 8909,
      "▁된다고": 8910,
      "▁gly": 8911,
      "sible": 8912,
      "▁symmet": 8913,
      "URL": 8914,
      "▁correctly": 8915,
      "▁extends": 8916,
      "▁Jer": 8917,
      "▁bond": 8918,
      "▁kg": 8919,
      "([": 8920,
      "<?": 8921,
      "▁hearing": 8922,
      "frame": 8923,
      "▁documents": 8924,
      "▁identity": 8925,
      "Create": 8926,
      "On": 8927,
      "**]{}": 8928,
      "overy": 8929,
      "▁적합": 8930,
      "▁의심": 8931,
      "▁으므로": 8932,
      "▁authorities": 8933,
      "▁엑": 8934,
      "usr": 8935,
      "▁리더": 8936,
      "▁박사": 8937,
      "▁공직": 8938,
      "▁candidates": 8939,
      "asy": 8940,
      "▁옷": 8941,
      "apse": 8942,
      "▁멤": 8943,
      "▁모니": 8944,
      "▁reson": 8945,
      "▁protected": 8946,
      "icago": 8947,
      "▁두께": 8948,
      "▁edge": 8949,
      "struct": 8950,
      "▁arrested": 8951,
      "nCom": 8952,
      "▁Security": 8953,
      "▁판사": 8954,
      "▁motion": 8955,
      "Omega": 8956,
      "nex": 8957,
      "▁starts": 8958,
      "▁district": 8959,
      "lock": 8960,
      "NG": 8961,
      "▁assessment": 8962,
      "▁족": 8963,
      "▁순환": 8964,
      "▁선임": 8965,
      "▁automatically": 8966,
      "▁직업": 8967,
      "▁진료": 8968,
      "uters": 8969,
      "▁tab": 8970,
      "write": 8971,
      "티브": 8972,
      "exec": 8973,
      "){": 8974,
      "▁von": 8975,
      "▁해제": 8976,
      "Load": 8977,
      "▁messages": 8978,
      "ima": 8979,
      "▁collected": 8980,
      "Source": 8981,
      "▁텐": 8982,
      "▁민족": 8983,
      "▁셋": 8984,
      "▁섬유": 8985,
      "▁neighbor": 8986,
      "▁Main": 8987,
      "▁겁니다": 8988,
      "▁animal": 8989,
      "▁유출": 8990,
      "▁사법": 8991,
      "▁policies": 8992,
      "Hz": 8993,
      "▁단기": 8994,
      "▁hem": 8995,
      "next": 8996,
      "lee": 8997,
      "▁goals": 8998,
      "▁veloc": 8999,
      "EX": 9000,
      "▁prepared": 9001,
      "▁wat": 9002,
      "▁Gold": 9003,
      "isted": 9004,
      "▁운행": 9005,
      "▁냉각": 9006,
      "▁mental": 9007,
      "▁cu": 9008,
      "▁Sanders": 9009,
      "info": 9010,
      "ambda": 9011,
      "▁radi": 9012,
      "▁surgical": 9013,
      "cut": 9014,
      "▁Game": 9015,
      "▁attribut": 9016,
      "▁불러": 9017,
      "▁elim": 9018,
      "▁pet": 9019,
      "uls": 9020,
      "▁proport": 9021,
      "▁OR": 9022,
      "▁door": 9023,
      "BM": 9024,
      "mal": 9025,
      "▁extremely": 9026,
      "▁스러운": 9027,
      "osh": 9028,
      "▁income": 9029,
      "▁literature": 9030,
      "▁폭력": 9031,
      "▁gradu": 9032,
      "▁Fore": 9033,
      "▁Dev": 9034,
      "▁ion": 9035,
      "▁증상": 9036,
      "TR": 9037,
      "nAlso": 9038,
      "▁hypot": 9039,
      "▁일어나": 9040,
      "▁surround": 9041,
      "itative": 9042,
      "cp": 9043,
      "▁Gra": 9044,
      "}(\\\\": 9045,
      "ellular": 9046,
      "▁회계": 9047,
      "▁dram": 9048,
      "▁향해": 9049,
      "abilities": 9050,
      "uby": 9051,
      "osite": 9052,
      "▁전형": 9053,
      "▁JSON": 9054,
      "▁누적": 9055,
      "▁tom": 9056,
      "▁축소": 9057,
      "▁recorded": 9058,
      "▁knows": 9059,
      "▁기다립니다": 9060,
      "amily": 9061,
      "ao": 9062,
      "▁construction": 9063,
      "▁warn": 9064,
      "orthern": 9065,
      "▁쓸": 9066,
      "adow": 9067,
      "▁재미": 9068,
      "▁상당히": 9069,
      "▁관광객": 9070,
      "From": 9071,
      "▁assessed": 9072,
      "▁tweet": 9073,
      "▁partners": 9074,
      "▁취약": 9075,
      "Pr": 9076,
      "▁occup": 9077,
      "ela": 9078,
      "}}$": 9079,
      "▁Korean": 9080,
      "▁genetic": 9081,
      "▁probability": 9082,
      "▁college": 9083,
      "▁$('": 9084,
      "Group": 9085,
      "▁pharm": 9086,
      "▁alter": 9087,
      "▁레벨": 9088,
      "▁거기": 9089,
      "$_": 9090,
      "▁Florida": 9091,
      "▁미사일": 9092,
      "▁plays": 9093,
      "nBy": 9094,
      "grade": 9095,
      "▁Office": 9096,
      "otyp": 9097,
      "IST": 9098,
      "▁가로": 9099,
      "▁떠나": 9100,
      "Action": 9101,
      "▁짧": 9102,
      "dr": 9103,
      "▁beaut": 9104,
      "ette": 9105,
      "▁duration": 9106,
      "DIT": 9107,
      "asion": 9108,
      "▁prices": 9109,
      "▁Pet": 9110,
      "Me": 9111,
      "king": 9112,
      "▁꼬": 9113,
      "idget": 9114,
      "▁Research": 9115,
      "고기": 9116,
      "▁바뀌": 9117,
      "▁경선": 9118,
      "ora": 9119,
      "▁agree": 9120,
      "▁커피": 9121,
      "▁지배": 9122,
      "▁권한": 9123,
      "Handler": 9124,
      "▁absor": 9125,
      "▁medium": 9126,
      "wer": 9127,
      "cknow": 9128,
      "event": 9129,
      "▁nm": 9130,
      "▁비트": 9131,
      "▁Show": 9132,
      "iful": 9133,
      "▁leaving": 9134,
      "▁리얼타임": 9135,
      "▁Sam": 9136,
      "apache": 9137,
      "connect": 9138,
      "ears": 9139,
      "creen": 9140,
      "검찰": 9141,
      "▁LED": 9142,
      "▁살펴보": 9143,
      "굉장": 9144,
      "▁depends": 9145,
      "▁폐기": 9146,
      "▁sensitivity": 9147,
      "▁materials": 9148,
      "Thread": 9149,
      "▁총회": 9150,
      "▁뿌": 9151,
      "ruit": 9152,
      "gi": 9153,
      "▁specifically": 9154,
      "reated": 9155,
      "vari": 9156,
      "lik": 9157,
      "▁즈": 9158,
      "▁Britain": 9159,
      "Trump": 9160,
      "▁단부": 9161,
      "▁kept": 9162,
      "▁belong": 9163,
      "helial": 9164,
      "hydro": 9165,
      "▁sust": 9166,
      "▁Name": 9167,
      "▁fresh": 9168,
      "append": 9169,
      "▁como": 9170,
      "▁crime": 9171,
      "▁nine": 9172,
      "▁description": 9173,
      "▁모니터": 9174,
      "▁명예": 9175,
      "▁books": 9176,
      "▁Br": 9177,
      "▁Committee": 9178,
      "세스": 9179,
      "▁우주": 9180,
      "▁직무": 9181,
      "scrib": 9182,
      "▁매입": 9183,
      "▁벗어나": 9184,
      "▁cert": 9185,
      "▁attract": 9186,
      "▁potentially": 9187,
      "▁바꾸": 9188,
      "▁pages": 9189,
      "ointer": 9190,
      "▁임명": 9191,
      "▁spending": 9192,
      "▁department": 9193,
      "▁og": 9194,
      "▁properly": 9195,
      "▁펜": 9196,
      "LT": 9197,
      "▁shop": 9198,
      "▁adults": 9199,
      "▁나노": 9200,
      "cA": 9201,
      "tilde": 9202,
      "AND": 9203,
      "▁런": 9204,
      "▁importance": 9205,
      "▁links": 9206,
      "nNote": 9207,
      "▁achieved": 9208,
      "▁장면": 9209,
      "부산": 9210,
      "▁공인": 9211,
      "▁블랙": 9212,
      "NET": 9213,
      "ups": 9214,
      "▁funding": 9215,
      "▁예시": 9216,
      "▁주말": 9217,
      "▁포기": 9218,
      "story": 9219,
      "▁용어": 9220,
      "▁Dist": 9221,
      "▁Mo": 9222,
      "▁vehicle": 9223,
      "▁종료": 9224,
      "root": 9225,
      "▁조명": 9226,
      "▁물리": 9227,
      "Application": 9228,
      "▁테크": 9229,
      "▁strongly": 9230,
      "▁원고": 9231,
      "▁조차": 9232,
      "▁reform": 9233,
      "▁MP": 9234,
      "▁England": 9235,
      "▁answers": 9236,
      "fit": 9237,
      "▁route": 9238,
      "▁intelligence": 9239,
      "▁twice": 9240,
      "▁의도": 9241,
      "▁completed": 9242,
      "▁documentation": 9243,
      "▁인재": 9244,
      "▁cities": 9245,
      "▁프리미": 9246,
      "▁vacc": 9247,
      "▁본체": 9248,
      "▁군수": 9249,
      "▁Type": 9250,
      "icated": 9251,
      "▁managed": 9252,
      "▁Che": 9253,
      "ventional": 9254,
      "▁보관": 9255,
      "▁텍스트": 9256,
      "roke": 9257,
      "▁메틸": 9258,
      "▁Rel": 9259,
      "▁buff": 9260,
      "resents": 9261,
      "▁fraction": 9262,
      "▁물가": 9263,
      "▁accused": 9264,
      "▁광역": 9265,
      "▁득": 9266,
      "framework": 9267,
      "bled": 9268,
      "▁성격": 9269,
      "escription": 9270,
      "▁amb": 9271,
      "▁생기": 9272,
      "▁NOT": 9273,
      "▁카카오": 9274,
      "arc": 9275,
      "uracy": 9276,
      "olean": 9277,
      "▁농도": 9278,
      "Input": 9279,
      "세대": 9280,
      "▁protection": 9281,
      "▁패션": 9282,
      "std": 9283,
      "▁솔루션": 9284,
      "iliar": 9285,
      "▁demonstrate": 9286,
      "▁께서": 9287,
      "▁주주": 9288,
      "▁pas": 9289,
      "▁planning": 9290,
      "컨대": 9291,
      "▁univers": 9292,
      "▁battle": 9293,
      "▁억제": 9294,
      "▁안타": 9295,
      "LG": 9296,
      "▁유형": 9297,
      "▁』": 9298,
      "▁peace": 9299,
      "Att": 9300,
      "ampionship": 9301,
      "▁FBI": 9302,
      "▁Amazon": 9303,
      "▁단면": 9304,
      "▁Mer": 9305,
      "search": 9306,
      "▁cir": 9307,
      "▁밝힌": 9308,
      "long": 9309,
      "oking": 9310,
      "▁멘": 9311,
      "▁공약": 9312,
      "▁fundament": 9313,
      "▁Vis": 9314,
      "▁톤": 9315,
      "▁칭": 9316,
      "▁사정": 9317,
      "▁권력": 9318,
      "Config": 9319,
      "▁supply": 9320,
      "nSh": 9321,
      "▁に": 9322,
      "▁Back": 9323,
      "▁confidence": 9324,
      "▁베트남": 9325,
      "▁징역": 9326,
      "Factory": 9327,
      "▁edaily": 9328,
      "▁메이": 9329,
      "icial": 9330,
      "▁politics": 9331,
      "▁이뤄지": 9332,
      "well": 9333,
      "ito": 9334,
      "olds": 9335,
      "▁은데": 9336,
      "align": 9337,
      "▁infect": 9338,
      "▁gender": 9339,
      "▁왼쪽": 9340,
      "▁굉장": 9341,
      "▁이게": 9342,
      "▁경고": 9343,
      "\\\\,": 9344,
      "▁종래": 9345,
      "icate": 9346,
      "jected": 9347,
      "▁단독": 9348,
      ")$.": 9349,
      "▁syn": 9350,
      "aven": 9351,
      "▁emergency": 9352,
      "elect": 9353,
      "▁owners": 9354,
      "▁lif": 9355,
      "▁빨리": 9356,
      "▁Mag": 9357,
      "▁실리": 9358,
      "Gamma": 9359,
      "▁marked": 9360,
      "▁필수": 9361,
      "▁sell": 9362,
      "▁스크": 9363,
      "▁html": 9364,
      "Number": 9365,
      "MB": 9366,
      "nAll": 9367,
      "▁단전": 9368,
      "▁Institute": 9369,
      "▁THE": 9370,
      "▁SC": 9371,
      "▁거든요": 9372,
      "▁ven": 9373,
      "nSince": 9374,
      "▁문자": 9375,
      "▁이사장": 9376,
      "▁deriv": 9377,
      "▁stored": 9378,
      "▁teacher": 9379,
      "▁traffic": 9380,
      "▁ended": 9381,
      "▁돼야": 9382,
      "Phone": 9383,
      "▁Si": 9384,
      "igrants": 9385,
      "▁fan": 9386,
      "png": 9387,
      "▁particles": 9388,
      "▁소설": 9389,
      "▁절대": 9390,
      "▁tal": 9391,
      "nSome": 9392,
      "▁현황": 9393,
      "▁첨가": 9394,
      "▁변환": 9395,
      "▁답변": 9396,
      "▁modified": 9397,
      "▁상하": 9398,
      "▁wind": 9399,
      "▁ing": 9400,
      "▁밥": 9401,
      "▁Los": 9402,
      "▁직후": 9403,
      "▁MBC": 9404,
      "achment": 9405,
      "▁텔레콤": 9406,
      "▁advanced": 9407,
      "▁allowing": 9408,
      "▁완전": 9409,
      "▁빠져": 9410,
      "▁possibly": 9411,
      "▁motor": 9412,
      "▁Python": 9413,
      "▁interval": 9414,
      "▁허브": 9415,
      "▁내일": 9416,
      "▁bug": 9417,
      "plete": 9418,
      "Result": 9419,
      "clusive": 9420,
      "Click": 9421,
      "항공": 9422,
      "$$\\\\": 9423,
      "Default": 9424,
      "kl": 9425,
      "xit": 9426,
      "Red": 9427,
      "chron": 9428,
      "▁truth": 9429,
      "▁preval": 9430,
      "iot": 9431,
      "▁alleg": 9432,
      "▁수학": 9433,
      "▁이외": 9434,
      "▁Rad": 9435,
      "▁controlled": 9436,
      "▁Id": 9437,
      "▁Cr": 9438,
      "yer": 9439,
      "ords": 9440,
      "▁percentage": 9441,
      "appe": 9442,
      "len": 9443,
      "▁remaining": 9444,
      "FI": 9445,
      "ferent": 9446,
      "outhern": 9447,
      "▁트랜": 9448,
      "▁ran": 9449,
      "▁전해졌": 9450,
      "▁그때": 9451,
      "older": 9452,
      "▁participants": 9453,
      ",'": 9454,
      "▁관람": 9455,
      "])": 9456,
      "uccess": 9457,
      "appro": 9458,
      "▁discussion": 9459,
      "▁늘어난": 9460,
      "▁metal": 9461,
      "▁력": 9462,
      "lines": 9463,
      "alls": 9464,
      "rapeutic": 9465,
      "▁Sil": 9466,
      "▁league": 9467,
      "dimensional": 9468,
      "널리": 9469,
      "endo": 9470,
      "▁Leg": 9471,
      "▁폐쇄": 9472,
      "lat": 9473,
      "abour": 9474,
      "tyle": 9475,
      "▁부진": 9476,
      "▁sin": 9477,
      "▁pure": 9478,
      "▁assault": 9479,
      "▁professional": 9480,
      "▁spend": 9481,
      "ulture": 9482,
      "nw": 9483,
      "bal": 9484,
      "▁draft": 9485,
      "faces": 9486,
      "▁signs": 9487,
      "▁CT": 9488,
      "▁weekend": 9489,
      "▁Kim": 9490,
      "System": 9491,
      "▁수직": 9492,
      "▁통해서": 9493,
      "▁pH": 9494,
      "▁oxy": 9495,
      "▁worse": 9496,
      "▁derived": 9497,
      "▁Science": 9498,
      "▁renal": 9499,
      "▁감시": 9500,
      "▁야구": 9501,
      "▁부서": 9502,
      "카드": 9503,
      "Control": 9504,
      "PL": 9505,
      "▁Mu": 9506,
      "cles": 9507,
      "▁.\\": 9508,
      "nint": 9509,
      "▁resulted": 9510,
      "/\\\\": 9511,
      "▁지주": 9512,
      "▁돌파": 9513,
      "▁이때": 9514,
      "▁주파": 9515,
      "▁Justice": 9516,
      "▁출입": 9517,
      "공감": 9518,
      "enter": 9519,
      "▁tens": 9520,
      "▁Hy": 9521,
      "▁조립": 9522,
      "matory": 9523,
      "▁로운": 9524,
      "민주": 9525,
      "▁vul": 9526,
      "jar": 9527,
      "▁카페": 9528,
      "▁deliver": 9529,
      "▁album": 9530,
      "Te": 9531,
      "▁announce": 9532,
      "{{\\\\": 9533,
      "ocs": 9534,
      "life": 9535,
      "▁옛": 9536,
      "▁receiving": 9537,
      "▁cos": 9538,
      "▁setup": 9539,
      "▁underw": 9540,
      "nNo": 9541,
      "▁arguments": 9542,
      "▁abuse": 9543,
      "▁communities": 9544,
      "▁pictures": 9545,
      "GE": 9546,
      "▁rough": 9547,
      "▁investment": 9548,
      "DR": 9549,
      "▁lose": 9550,
      "pled": 9551,
      "inations": 9552,
      "국민": 9553,
      "리케이션": 9554,
      "▁로드": 9555,
      "▁남편": 9556,
      "▁관측": 9557,
      "▁항목": 9558,
      "레이드": 9559,
      "▁controvers": 9560,
      "▁opened": 9561,
      "estion": 9562,
      "twitter": 9563,
      "▁대리": 9564,
      "▁rend": 9565,
      "biz": 9566,
      "▁Only": 9567,
      "▁nit": 9568,
      "Ab": 9569,
      "anted": 9570,
      "raine": 9571,
      "▁편집": 9572,
      "▁thick": 9573,
      "brid": 9574,
      "▁모아": 9575,
      "▁이송": 9576,
      "▁coe": 9577,
      "▁claimed": 9578,
      "▁뱅": 9579,
      "▁연출": 9580,
      "iro": 9581,
      "▁촉진": 9582,
      "다가": 9583,
      "scopy": 9584,
      "pected": 9585,
      "▁represents": 9586,
      "▁중공": 9587,
      "ariju": 9588,
      "▁방사": 9589,
      "▁offered": 9590,
      "▁scores": 9591,
      "▁Prime": 9592,
      "▁depending": 9593,
      "나무": 9594,
      "▁Johnson": 9595,
      "▁주간": 9596,
      "println": 9597,
      "omatic": 9598,
      "겨레": 9599,
      "▁중구": 9600,
[...]
