{
  "version": "1.0",
  "truncation": null,
  "padding": null,
  "added_tokens": [
    {
      "id": 0,
      "content": "<unk>",
      "single_word": false,
      "lstrip": false,
      "rstrip": false,
      "normalized": true,
      "special": true
    },
    {
      "id": 1,
      "content": "<s>",
      "single_word": false,
      "lstrip": false,
      "rstrip": false,
      "normalized": true,
      "special": true
    },
    {
      "id": 2,
      "content": "</s>",
      "single_word": false,
      "lstrip": false,
      "rstrip": false,
      "normalized": true,
      "special": true
    }
  ],
  "normalizer": {
    "type": "Sequence",
    "normalizers": [
      {
        "type": "Prepend",
        "prepend": "▁"
      },
      {
        "type": "Replace",
        "pattern": {
          "String": " "
        },
        "content": "▁"
      }
    ]
  },
  "pre_tokenizer": null,
  "post_processor": {
    "type": "TemplateProcessing",
    "single": [
      {
        "SpecialToken": {
          "id": "<s>",
          "type_id": 0
        }
      },
      {
        "Sequence": {
          "id": "A",
          "type_id": 0
        }
      },
      {
        "SpecialToken": {
          "id": "</s>",
          "type_id": 0
        }
      }
    ],
    "pair": [
      {
        "SpecialToken": {
          "id": "<s>",
          "type_id": 0
        }
      },
      {
        "Sequence": {
          "id": "A",
          "type_id": 0
        }
      },
      {
        "SpecialToken": {
          "id": "</s>",
          "type_id": 0
        }
      },
      {
        "SpecialToken": {
          "id": "<s>",
          "type_id": 1
        }
      },
      {
        "Sequence": {
          "id": "B",
          "type_id": 1
        }
      },
      {
        "SpecialToken": {
          "id": "</s>",
          "type_id": 1
        }
      }
    ],
    "special_tokens": {
      "</s>": {
        "id": "</s>",
        "ids": [
          2
        ],
        "tokens": [
          "</s>"
        ]
      },
      "<s>": {
        "id": "<s>",
        "ids": [
          1
        ],
        "tokens": [
          "<s>"
        ]
      }
    }
  },
  "decoder": {
    "type": "Sequence",
    "decoders": [
      {
        "type": "Replace",
        "pattern": {
          "String": "▁"
        },
        "content": " "
      },
      {
        "type": "ByteFallback"
      },
      {
        "type": "Fuse"
      },
      {
        "type": "Strip",
        "content": " ",
        "start": 1,
        "stop": 0
      }
    ]
  },
  "model": {
    "type": "BPE",
    "dropout": null,
    "unk_token": "<unk>",
    "continuing_subword_prefix": null,
    "end_of_word_suffix": null,
    "fuse_unk": true,
    "byte_fallback": true,
    "ignore_merges": false,
    "vocab": {
      "<unk>": 0,
      "<s>": 1,
      "</s>": 2,
      "<0x00>": 3,
      "<0x01>": 4,
      "<0x02>": 5,
      "<0x03>": 6,
      "<0x04>": 7,
      "<0x05>": 8,
      "<0x06>": 9,
      "<0x07>": 10,
      "<0x08>": 11,
      "<0x09>": 12,
      "<0x0A>": 13,
      "<0x0B>": 14,
      "<0x0C>": 15,
      "<0x0D>": 16,
      "<0x0E>": 17,
      "<0x0F>": 18,
      "<0x10>": 19,
      "<0x11>": 20,
      "<0x12>": 21,
      "<0x13>": 22,
      "<0x14>": 23,
      "<0x15>": 24,
      "<0x16>": 25,
      "<0x17>": 26,
      "<0x18>": 27,
      "<0x19>": 28,
      "<0x1A>": 29,
      "<0x1B>": 30,
      "<0x1C>": 31,
      "<0x1D>": 32,
      "<0x1E>": 33,
      "<0x1F>": 34,
      "<0x20>": 35,
      "<0x21>": 36,
      "<0x22>": 37,
      "<0x23>": 38,
      "<0x24>": 39,
      "<0x25>": 40,
      "<0x26>": 41,
      "<0x27>": 42,
      "<0x28>": 43,
      "<0x29>": 44,
      "<0x2A>": 45,
      "<0x2B>": 46,
      "<0x2C>": 47,
      "<0x2D>": 48,
      "<0x2E>": 49,
      "<0x2F>": 50,
      "<0x30>": 51,
      "<0x31>": 52,
      "<0x32>": 53,
      "<0x33>": 54,
      "<0x34>": 55,
      "<0x35>": 56,
      "<0x36>": 57,
      "<0x37>": 58,
      "<0x38>": 59,
      "<0x39>": 60,
      "<0x3A>": 61,
      "<0x3B>": 62,
      "<0x3C>": 63,
      "<0x3D>": 64,
      "<0x3E>": 65,
      "<0x3F>": 66,
      "<0x40>": 67,
      "<0x41>": 68,
      "<0x42>": 69,
      "<0x43>": 70,
      "<0x44>": 71,
      "<0x45>": 72,
      "<0x46>": 73,
      "<0x47>": 74,
      "<0x48>": 75,
      "<0x49>": 76,
      "<0x4A>": 77,
      "<0x4B>": 78,
      "<0x4C>": 79,
      "<0x4D>": 80,
      "<0x4E>": 81,
      "<0x4F>": 82,
      "<0x50>": 83,
      "<0x51>": 84,
      "<0x52>": 85,
      "<0x53>": 86,
      "<0x54>": 87,
      "<0x55>": 88,
      "<0x56>": 89,
      "<0x57>": 90,
      "<0x58>": 91,
      "<0x59>": 92,
      "<0x5A>": 93,
      "<0x5B>": 94,
      "<0x5C>": 95,
      "<0x5D>": 96,
      "<0x5E>": 97,
      "<0x5F>": 98,
      "<0x60>": 99,
      "<0x61>": 100,
      "<0x62>": 101,
      "<0x63>": 102,
      "<0x64>": 103,
      "<0x65>": 104,
      "<0x66>": 105,
      "<0x67>": 106,
      "<0x68>": 107,
      "<0x69>": 108,
      "<0x6A>": 109,
      "<0x6B>": 110,
      "<0x6C>": 111,
      "<0x6D>": 112,
      "<0x6E>": 113,
      "<0x6F>": 114,
      "<0x70>": 115,
      "<0x71>": 116,
      "<0x72>": 117,
      "<0x73>": 118,
      "<0x74>": 119,
      "<0x75>": 120,
      "<0x76>": 121,
      "<0x77>": 122,
      "<0x78>": 123,
      "<0x79>": 124,
      "<0x7A>": 125,
      "<0x7B>": 126,
      "<0x7C>": 127,
      "<0x7D>": 128,
      "<0x7E>": 129,
      "<0x7F>": 130,
      "<0x80>": 131,
      "<0x81>": 132,
      "<0x82>": 133,
      "<0x83>": 134,
      "<0x84>": 135,
      "<0x85>": 136,
      "<0x86>": 137,
      "<0x87>": 138,
      "<0x88>": 139,
      "<0x89>": 140,
      "<0x8A>": 141,
      "<0x8B>": 142,
      "<0x8C>": 143,
      "<0x8D>": 144,
      "<0x8E>": 145,
      "<0x8F>": 146,
      "<0x90>": 147,
      "<0x91>": 148,
      "<0x92>": 149,
      "<0x93>": 150,
      "<0x94>": 151,
      "<0x95>": 152,
      "<0x96>": 153,
      "<0x97>": 154,
      "<0x98>": 155,
      "<0x99>": 156,
      "<0x9A>": 157,
      "<0x9B>": 158,
      "<0x9C>": 159,
      "<0x9D>": 160,
      "<0x9E>": 161,
      "<0x9F>": 162,
      "<0xA0>": 163,
      "<0xA1>": 164,
      "<0xA2>": 165,
      "<0xA3>": 166,
      "<0xA4>": 167,
      "<0xA5>": 168,
      "<0xA6>": 169,
      "<0xA7>": 170,
      "<0xA8>": 171,
      "<0xA9>": 172,
      "<0xAA>": 173,
      "<0xAB>": 174,
      "<0xAC>": 175,
      "<0xAD>": 176,
      "<0xAE>": 177,
      "<0xAF>": 178,
      "<0xB0>": 179,
      "<0xB1>": 180,
      "<0xB2>": 181,
      "<0xB3>": 182,
      "<0xB4>": 183,
      "<0xB5>": 184,
      "<0xB6>": 185,
      "<0xB7>": 186,
      "<0xB8>": 187,
      "<0xB9>": 188,
      "<0xBA>": 189,
      "<0xBB>": 190,
      "<0xBC>": 191,
      "<0xBD>": 192,
      "<0xBE>": 193,
      "<0xBF>": 194,
      "<0xC0>": 195,
      "<0xC1>": 196,
      "<0xC2>": 197,
      "<0xC3>": 198,
      "<0xC4>": 199,
      "<0xC5>": 200,
      "<0xC6>": 201,
      "<0xC7>": 202,
      "<0xC8>": 203,
      "<0xC9>": 204,
      "<0xCA>": 205,
      "<0xCB>": 206,
      "<0xCC>": 207,
      "<0xCD>": 208,
      "<0xCE>": 209,
      "<0xCF>": 210,
      "<0xD0>": 211,
      "<0xD1>": 212,
      "<0xD2>": 213,
      "<0xD3>": 214,
      "<0xD4>": 215,
      "<0xD5>": 216,
      "<0xD6>": 217,
      "<0xD7>": 218,
      "<0xD8>": 219,
      "<0xD9>": 220,
      "<0xDA>": 221,
      "<0xDB>": 222,
      "<0xDC>": 223,
      "<0xDD>": 224,
      "<0xDE>": 225,
      "<0xDF>": 226,
      "<0xE0>": 227,
      "<0xE1>": 228,
      "<0xE2>": 229,
      "<0xE3>": 230,
      "<0xE4>": 231,
      "<0xE5>": 232,
      "<0xE6>": 233,
      "<0xE7>": 234,
      "<0xE8>": 235,
      "<0xE9>": 236,
      "<0xEA>": 237,
      "<0xEB>": 238,
      "<0xEC>": 239,
      "<0xED>": 240,
      "<0xEE>": 241,
      "<0xEF>": 242,
      "<0xF0>": 243,
      "<0xF1>": 244,
      "<0xF2>": 245,
      "<0xF3>": 246,
      "<0xF4>": 247,
      "<0xF5>": 248,
      "<0xF6>": 249,
      "<0xF7>": 250,
      "<0xF8>": 251,
      "<0xF9>": 252,
      "<0xFA>": 253,
      "<0xFB>": 254,
      "<0xFC>": 255,
      "<0xFD>": 256,
      "<0xFE>": 257,
      "<0xFF>": 258,
      "▁t": 259,
      "in": 260,
      "▁a": 261,
      "he": 262,
      "re": 263,
      "on": 264,
      "er": 265,
      "at": 266,
      "▁the": 267,
      "▁s": 268,
      "en": 269,
      "it": 270,
      "▁c": 271,
      "or": 272,
      "▁w": 273,
      "▁.": 274,
      "▁이": 275,
      "an": 276,
      "is": 277,
      "es": 278,
      "▁o": 279,
      "▁p": 280,
      "al": 281,
      "ed": 282,
      "▁f": 283,
      "ing": 284,
      "▁b": 285,
      "▁다": 286,
      "ar": 287,
      "▁에": 288,
      "▁in": 289,
      "ou": 290,
      "▁d": 291,
      "▁an": 292,
      "▁는": 293,
      "▁m": 294,
      "le": 295,
      "ic": 296,
      "ion": 297,
      "▁of": 298,
      "▁to": 299,
      "▁을": 300,
      "as": 301,
      "▁의": 302,
      "ro": 303,
      "▁and": 304,
      "▁(": 305,
      "▁하": 306,
      "▁h": 307,
      "▁,": 308,
      "ent": 309,
      "▁th": 310,
      "ct": 311,
      "st": 312,
      "om": 313,
      "▁n": 314,
      "et": 315,
      "▁re": 316,
      "▁가": 317,
      "id": 318,
      "el": 319,
      "▁고": 320,
      "▁한": 321,
      "▁를": 322,
      "▁l": 323,
      "▁\"": 324,
      "▁\\": 325,
      "il": 326,
      "▁은": 327,
      "▁e": 328,
      "ut": 329,
      ".\\": 330,
      "ra": 331,
      "▁지": 332,
      "ve": 333,
      "▁T": 334,
      "im": 335,
      "ot": 336,
      "▁)": 337,
      "▁g": 338,
      "▁I": 339,
      "▁기": 340,
      "ol": 341,
      "ig": 342,
      "▁is": 343,
      "ow": 344,
      "us": 345,
      "▁있": 346,
      "▁S": 347,
      "am": 348,
      "ur": 349,
      "▁'": 350,
      "ation": 351,
      "\\\"": 352,
      "▁으": 353,
      "ly": 354,
      "▁대": 355,
      "▁A": 356,
      "un": 357,
      "ce": 358,
      "▁도": 359,
      "▁for": 360,
      "▁C": 361,
      "▁on": 362,
      "\\\\": 363,
      "ver": 364,
      "ch": 365,
      "▁be": 366,
      "ad": 367,
      "▁으로": 368,
      "▁st": 369,
      "▁수": 370,
      "▁that": 371,
      "ay": 372,
      "ul": 373,
      "▁사": 374,
      "ith": 375,
      "▁전": 376,
      "▁시": 377,
      "▁y": 378,
      "▁로": 379,
      "▁인": 380,
      "os": 381,
      "ter": 382,
      "▁with": 383,
      "▁에서": 384,
      "▁M": 385,
      "if": 386,
      "▁일": 387,
      "pe": 388,
      "od": 389,
      "em": 390,
      "um": 391,
      "▁it": 392,
      "▁con": 393,
      "ir": 394,
      "▁했": 395,
      "▁P": 396,
      "▁들": 397,
      "▁과": 398,
      "▁as": 399,
      "ag": 400,
      "▁v": 401,
      "ate": 402,
      "▁pro": 403,
      "ac": 404,
      "\":": 405,
      "▁=": 406,
      "▁해": 407,
      "▁제": 408,
      "▁B": 409,
      "ab": 410,
      "red": 411,
      "▁de": 412,
      "▁al": 413,
      "▁아": 414,
      "ew": 415,
      "▁어": 416,
      "▁-": 417,
      "est": 418,
      "▁그": 419,
      "▁부": 420,
      "▁he": 421,
      "qu": 422,
      "▁wh": 423,
      "▁적": 424,
      "ri": 425,
      "▁we": 426,
      "res": 427,
      "▁you": 428,
      "▁상": 429,
      "te": 430,
      "▁보": 431,
      "▁것": 432,
      "se": 433,
      "▁com": 434,
      "▁[": 435,
      "▁D": 436,
      "op": 437,
      "ist": 438,
      "▁정": 439,
      "▁자": 440,
      "nt": 441,
      "▁$": 442,
      "oc": 443,
      "ers": 444,
      "▁ex": 445,
      "ill": 446,
      "ke": 447,
      "ld": 448,
      "--": 449,
      "▁The": 450,
      "▁위": 451,
      "▁F": 452,
      "pp": 453,
      "▁주": 454,
      "th": 455,
      "and": 456,
      "▁H": 457,
      "▁경": 458,
      "▁se": 459,
      "▁R": 460,
      "▁at": 461,
      "▁되": 462,
      "ht": 463,
      "iv": 464,
      "her": 465,
      "▁W": 466,
      "▁공": 467,
      "rom": 468,
      "ity": 469,
      "▁was": 470,
      "ore": 471,
      "ant": 472,
      "▁ha": 473,
      "▁등": 474,
      "▁r": 475,
      "nd": 476,
      "▁N": 477,
      "▁are": 478,
      "ess": 479,
      "ction": 480,
      "ment": 481,
      ";\\": 482,
      "xt": 483,
      "▁만": 484,
      "ub": 485,
      "▁된": 486,
      "ain": 487,
      "▁와": 488,
      "ort": 489,
      "▁여": 490,
      "▁L": 491,
      "▁E": 492,
      "▁us": 493,
      "▁this": 494,
      "▁중": 495,
      "▁or": 496,
      "▁나": 497,
      "ive": 498,
      "pt": 499,
      "▁할": 500,
      "▁by": 501,
      "▁면": 502,
      "▁라": 503,
      "▁조": 504,
      "▁G": 505,
      "ated": 506,
      "▁개": 507,
      "▁게": 508,
      "end": 509,
      "art": 510,
      "▁not": 511,
      "▁{": 512,
      "ang": 513,
      ":\\": 514,
      "▁from": 515,
      "▁k": 516,
      "▁have": 517,
      "▁ch": 518,
      "pl": 519,
      "▁\\\"": 520,
      "og": 521,
      "ud": 522,
      "ight": 523,
      "▁sh": 524,
      "▁관": 525,
      "ould": 526,
      "dit": 527,
      "ial": 528,
      "ies": 529,
      "tit": 530,
      "▁원": 531,
      "▁un": 532,
      "fe": 533,
      "▁연": 534,
      "ine": 535,
      "all": 536,
      "',": 537,
      "ack": 538,
      "▁서": 539,
      "nT": 540,
      "\",": 541,
      "▁can": 542,
      "▁국": 543,
      "▁<": 544,
      "▁le": 545,
      "ell": 546,
      "▁O": 547,
      "▁성": 548,
      "ure": 549,
      "▁한다": 550,
      "▁유": 551,
      "▁내": 552,
      "up": 553,
      "ust": 554,
      "▁구": 555,
      "▁en": 556,
      "ost": 557,
      "▁발": 558,
      "out": 559,
      "▁오": 560,
      "니다": 561,
      "ord": 562,
      "ue": 563,
      "iz": 564,
      "ame": 565,
      "▁ne": 566,
      "ical": 567,
      "▁소": 568,
      "▁j": 569,
      "▁재": 570,
      "]\\": 571,
      "▁신": 572,
      "rou": 573,
      "ass": 574,
      "▁비": 575,
      "ty": 576,
      "▁모": 577,
      "age": 578,
      "▁년": 579,
      "nI": 580,
      "▁방": 581,
      "ib": 582,
      "▁예": 583,
      "▁U": 584,
      "ap": 585,
      "▁ab": 586,
      "nA": 587,
      "our": 588,
      "com": 589,
      "ans": 590,
      "▁무": 591,
      "ult": 592,
      "▁J": 593,
      "▁cl": 594,
      "▁통": 595,
      "▁res": 596,
      "▁do": 597,
      "ast": 598,
      "ard": 599,
      "▁im": 600,
      "ase": 601,
      "ide": 602,
      "ich": 603,
      "▁선": 604,
      "ind": 605,
      "▁ad": 606,
      "▁마": 607,
      "▁pl": 608,
      "ia": 609,
      "ak": 610,
      "▁su": 611,
      "▁실": 612,
      "title": 613,
      "▁whe": 614,
      "▁but": 615,
      "▁었": 616,
      "▁장": 617,
      "reddit": 618,
      "▁%": 619,
      "▁has": 620,
      "▁분": 621,
      "cre": 622,
      "cl": 623,
      "act": 624,
      "▁미": 625,
      "▁및": 626,
      "orm": 627,
      "▁comp": 628,
      "▁며": 629,
      "▁세": 630,
      "▁배": 631,
      "low": 632,
      ")\\": 633,
      "per": 634,
      "▁['": 635,
      "able": 636,
      "']\\": 637,
      "ork": 638,
      "▁tr": 639,
      "ign": 640,
      "▁K": 641,
      "▁were": 642,
      "ile": 643,
      "ok": 644,
      "av": 645,
      "▁금": 646,
      "▁명": 647,
      "▁거": 648,
      "ong": 649,
      "▁me": 650,
      "ph": 651,
      "▁qu": 652,
      "▁cont": 653,
      "ount": 654,
      "ome": 655,
      "text": 656,
      "▁\\\\": 657,
      "▁회": 658,
      "cc": 659,
      ");\\": 660,
      "ice": 661,
      "▁will": 662,
      "▁동": 663,
      "▁화": 664,
      "ip": 665,
      "▁단": 666,
      "==": 667,
      "▁/": 668,
      "▁안": 669,
      "ents": 670,
      "----": 671,
      "▁문": 672,
      "▁스": 673,
      "}\\": 674,
      "ff": 675,
      "one": 676,
      "ime": 677,
      "int": 678,
      "▁최": 679,
      "ther": 680,
      "▁int": 681,
      "▁sa": 682,
      "are": 683,
      "ous": 684,
      "▁go": 685,
      "ge": 686,
      "▁않": 687,
      "▁말": 688,
      "ect": 689,
      "ress": 690,
      "▁생": 691,
      "con": 692,
      "ary": 693,
      "nThe": 694,
      "port": 695,
      "der": 696,
      "▁바": 697,
      "▁out": 698,
      "▁In": 699,
      "▁월": 700,
      "▁따": 701,
      "ie": 702,
      "ear": 703,
      "ions": 704,
      "▁·": 705,
      "du": 706,
      "▁영": 707,
      "▁차": 708,
      "▁교": 709,
      "▁또": 710,
      "ens": 711,
      "▁:": 712,
      "▁which": 713,
      "raw": 714,
      "ations": 715,
      ">\\": 716,
      "so": 717,
      "▁현": 718,
      "▁우": 719,
      "▁계": 720,
      "ep": 721,
      "▁all": 722,
      "▁당": 723,
      "▁진": 724,
      "▁“": 725,
      "▁per": 726,
      "▁없": 727,
      "ns": 728,
      "▁”": 729,
      "▁강": 730,
      "▁dis": 731,
      "=\\\"": 732,
      "..": 733,
      "▁if": 734,
      "▁‘": 735,
      "▁’": 736,
      "▁포": 737,
      "lic": 738,
      "ber": 739,
      "▁Th": 740,
      "gh": 741,
      "▁저": 742,
      "▁new": 743,
      "▁때": 744,
      "ire": 745,
      "▁입": 746,
      "ail": 747,
      "type": 748,
      "▁li": 749,
      "▁결": 750,
      "ally": 751,
      "▁습": 752,
      "ite": 753,
      "ence": 754,
      "ry": 755,
      "ace": 756,
      "ru": 757,
      "▁V": 758,
      "ose": 759,
      "▁>": 760,
      "▁one": 761,
      "ance": 762,
      "ath": 763,
      "▁more": 764,
      "▁they": 765,
      "▁up": 766,
      ",\\": 767,
      "les": 768,
      "ely": 769,
      "▁ar": 770,
      ").": 771,
      "ata": 772,
      "▁특": 773,
      "ach": 774,
      "ren": 775,
      "▁ev": 776,
      "▁so": 777,
      "▁확": 778,
      "nreddit": 779,
      "ake": 780,
      "▁their": 781,
      "▁습니다": 782,
      "▁your": 783,
      "▁까": 784,
      "\"}": 785,
      "▁{\"": 786,
      "ys": 787,
      "▁본": 788,
      "▁said": 789,
      "▁반": 790,
      "vel": 791,
      "//": 792,
      "ory": 793,
      "form": 794,
      "▁설": 795,
      "▁김": 796,
      "ll": 797,
      "▁his": 798,
      "▁app": 799,
      "▁까지": 800,
      "▁추": 801,
      "tp": 802,
      "ne": 803,
      "▁St": 804,
      "▁sp": 805,
      "ww": 806,
      "▁매": 807,
      "▁would": 808,
      "▁감": 809,
      "ook": 810,
      "▁받": 811,
      "▁형": 812,
      "▁더": 813,
      "▁work": 814,
      "very": 815,
      "▁ag": 816,
      "ors": 817,
      "▁노": 818,
      "▁지난": 819,
      "▁상기": 820,
      "▁후": 821,
      "fter": 822,
      "),": 823,
      "ob": 824,
      "ck": 825,
      "▁된다": 826,
      "▁who": 827,
      "eth": 828,
      "▁my": 829,
      "▁pre": 830,
      "erv": 831,
      "▁get": 832,
      "de": 833,
      "▁te": 834,
      "▁there": 835,
      "ound": 836,
      "▁같": 837,
      "ject": 838,
      "▁about": 839,
      "ays": 840,
      "▁{\\": 841,
      "iew": 842,
      "we": 843,
      "rent": 844,
      "▁대한": 845,
      "▁sc": 846,
      "▁part": 847,
      "ple": 848,
      "▁been": 849,
      "ring": 850,
      "▁=>": 851,
      "▁man": 852,
      "▁건": 853,
      "ode": 854,
      "_{": 855,
      "▁co": 856,
      "own": 857,
      "▁other": 858,
      "▁불": 859,
      "row": 860,
      "▁than": 861,
      "▁also": 862,
      "wo": 863,
      "▁던": 864,
      "ft": 865,
      "▁no": 866,
      "aus": 867,
      "reat": 868,
      "▁]": 869,
      "▁like": 870,
      "▁when": 871,
      "▁am": 872,
      "▁some": 873,
      "://": 874,
      "nS": 875,
      "▁any": 876,
      "▁다고": 877,
      "▁fun": 878,
      "▁Y": 879,
      "son": 880,
      "▁over": 881,
      "ific": 882,
      "▁함": 883,
      "▁에게": 884,
      "▁투": 885,
      "ree": 886,
      "lect": 887,
      "irst": 888,
      "▁코": 889,
      "▁뉴": 890,
      "▁면서": 891,
      "ick": 892,
      "▁bet": 893,
      "▁had": 894,
      "▁sy": 895,
      "▁증": 896,
      "▁ob": 897,
      "▁its": 898,
      "get": 899,
      "▁학": 900,
      "▁달": 901,
      "ates": 902,
      "▁use": 903,
      "▁time": 904,
      "ink": 905,
      "▁@": 906,
      "ark": 907,
      "▁출": 908,
      "▁year": 909,
      "pect": 910,
      "vers": 911,
      "▁dif": 912,
      "ian": 913,
      "▁지만": 914,
      "▁억": 915,
      "▁처": 916,
      "▁off": 917,
      "fect": 918,
      "▁될": 919,
      "ces": 920,
      "▁위해": 921,
      "▁됐": 922,
      "ram": 923,
      "ont": 924,
      "ttp": 925,
      "▁올": 926,
      "▁Ch": 927,
      "ati": 928,
      "▁pe": 929,
      "▁요": 930,
      "▁평": 931,
      "▁inter": 932,
      "▁?": 933,
      "▁after": 934,
      "▁산": 935,
      "▁&": 936,
      "▁겠": 937,
      "▁물": 938,
      "ange": 939,
      "ov": 940,
      "▁행": 941,
      "ild": 942,
      "▁간": 943,
      "▁서울": 944,
      "▁ass": 945,
      "▁았": 946,
      "▁val": 947,
      "▁권": 948,
      "mer": 949,
      "▁프": 950,
      "▁라고": 951,
      "ced": 952,
      "?\\": 953,
      "urn": 954,
      "▁데": 955,
      "▁into": 956,
      "▁act": 957,
      "▁한국": 958,
      "▁다는": 959,
      "▁기자": 960,
      "▁http": 961,
      "▁pol": 962,
      "▁rec": 963,
      "ict": 964,
      "▁ph": 965,
      "▁It": 966,
      "▁what": 967,
      "▁two": 968,
      "li": 969,
      "ock": 970,
      "ident": 971,
      "ove": 972,
      "▁운": 973,
      "▁+": 974,
      "ular": 975,
      "▁청": 976,
      "▁acc": 977,
      "▁kn": 978,
      "▁col": 979,
      "▁밝": 980,
      "▁just": 981,
      "ari": 982,
      "▁열": 983,
      "▁파": 984,
      "▁외": 985,
      "▁only": 986,
      "▁판": 987,
      "▁남": 988,
      "▁금지": 989,
      "ish": 990,
      "▁des": 991,
      "▁stud": 992,
      "pec": 993,
      "▁need": 994,
      "▁법": 995,
      "▁알": 996,
      "▁tra": 997,
      "▁la": 998,
      "erm": 999,
      "over": 1000,
      "nW": 1001,
      "▁ret": 1002,
      "rib": 1003,
      "▁작": 1004,
      "▁how": 1005,
      "▁참": 1006,
      "ings": 1007,
      "▁mod": 1008,
      "cs": 1009,
      "pon": 1010,
      "word": 1011,
      "▁ro": 1012,
      "▁업": 1013,
      "▁them": 1014,
      "ublic": 1015,
      "ec": 1016,
      "▁부터": 1017,
      "▁ra": 1018,
      "▁사업": 1019,
      "▁무단": 1020,
      "▁박": 1021,
      "url": 1022,
      "▁점": 1023,
      "**": 1024,
      "▁경우": 1025,
      "igh": 1026,
      "▁피": 1027,
      "▁first": 1028,
      "▁검": 1029,
      "che": 1030,
      "ual": 1031,
      "▁용": 1032,
      "▁bl": 1033,
      "▁직": 1034,
      "rit": 1035,
      "roup": 1036,
      "▁i": 1037,
      "ews": 1038,
      "iss": 1039,
      "ause": 1040,
      "▁gen": 1041,
      "▁pos": 1042,
      "▁using": 1043,
      "stem": 1044,
      "▁종": 1045,
      "ased": 1046,
      "▁전재": 1047,
      "▁$\\\\": 1048,
      "ople": 1049,
      "cy": 1050,
      "pro": 1051,
      "ative": 1052,
      "====": 1053,
      "▁호": 1054,
      "▁comm": 1055,
      "▁set": 1056,
      "▁통해": 1057,
      "▁pr": 1058,
      "▁trans": 1059,
      "ble": 1060,
      "▁합": 1061,
      "ffect": 1062,
      "nl": 1063,
      "▁fol": 1064,
      "──": 1065,
      "olog": 1066,
      "▁want": 1067,
      "▁배포": 1068,
      "ics": 1069,
      "clud": 1070,
      "ition": 1071,
      "▁많": 1072,
      "▁inv": 1073,
      "▁두": 1074,
      "▁diffe": 1075,
      "▁체": 1076,
      "oint": 1077,
      "▁각": 1078,
      "▁지역": 1079,
      "▁We": 1080,
      "▁변": 1081,
      "▁sub": 1082,
      "▁역": 1083,
      "▁사용": 1084,
      "▁활": 1085,
      "count": 1086,
      "▁reg": 1087,
      "▁민": 1088,
      "▁could": 1089,
      "ax": 1090,
      "▁경제": 1091,
      "▁협": 1092,
      "▁function": 1093,
      "▁}\\": 1094,
      "▁under": 1095,
      "▁our": 1096,
      "▁필": 1097,
      "▁pres": 1098,
      "▁class": 1099,
      "▁cons": 1100,
      "ert": 1101,
      "▁em": 1102,
      "▁양": 1103,
      "▁data": 1104,
      "old": 1105,
      "ex": 1106,
      "ox": 1107,
      "▁ac": 1108,
      "▁총": 1109,
      "▁show": 1110,
      "▁att": 1111,
      "▁번": 1112,
      "▁임": 1113,
      "{\\\\": 1114,
      "ption": 1115,
      "▁시장": 1116,
      "}$": 1117,
      "--------": 1118,
      "▁도록": 1119,
      "▁집": 1120,
      "▁리": 1121,
      "▁따라": 1122,
      "▁This": 1123,
      "▁pati": 1124,
      "nH": 1125,
      "▁ind": 1126,
      "oth": 1127,
      "▁sign": 1128,
      "ater": 1129,
      "▁people": 1130,
      "json": 1131,
      "▁아니": 1132,
      "▁result": 1133,
      "ating": 1134,
      "▁det": 1135,
      "iel": 1136,
      "▁보다": 1137,
      "▁where": 1138,
      "▁규": 1139,
      "day": 1140,
      "\\\",": 1141,
      "()": 1142,
      "ues": 1143,
      "▁가능": 1144,
      "▁rel": 1145,
      "▁these": 1146,
      "▁def": 1147,
      "▁밝혔": 1148,
      "put": 1149,
      "▁초": 1150,
      "▁위원": 1151,
      "ween": 1152,
      "round": 1153,
      "▁then": 1154,
      "▁씨": 1155,
      "▁치": 1156,
      "ning": 1157,
      "▁should": 1158,
      "▁대해": 1159,
      "cess": 1160,
      "▁~": 1161,
      "▁cor": 1162,
      "ss": 1163,
      "ution": 1164,
      "ied": 1165,
      "▁her": 1166,
      "</": 1167,
      "elf": 1168,
      "ump": 1169,
      "▁sim": 1170,
      "created": 1171,
      "▁add": 1172,
      "▁may": 1173,
      "▁표": 1174,
      "ible": 1175,
      "co": 1176,
      "▁때문": 1177,
      "▁환": 1178,
      "nsub": 1179,
      "ype": 1180,
      "nC": 1181,
      "▁between": 1182,
      "nurl": 1183,
      "▁He": 1184,
      "titles": 1185,
      "▁follow": 1186,
      "fore": 1187,
      "zst": 1188,
      "▁|": 1189,
      "nword": 1190,
      "▁기업": 1191,
      "reddits": 1192,
      "nlang": 1193,
      "jsonl": 1194,
      "utcs": 1195,
      "nsubreddits": 1196,
      "ility": 1197,
      "ood": 1198,
      "txt": 1199,
      "▁라는": 1200,
      "▁광": 1201,
      "uring": 1202,
      "▁정부": 1203,
      "ting": 1204,
      "▁sur": 1205,
      "▁심": 1206,
      "▁num": 1207,
      "ek": 1208,
      "ug": 1209,
      "ons": 1210,
      "ough": 1211,
      "▁앞": 1212,
      "▁높": 1213,
      "ize": 1214,
      "▁지원": 1215,
      "▁bec": 1216,
      "▁back": 1217,
      "ng": 1218,
      "▁위한": 1219,
      "ma": 1220,
      "▁Re": 1221,
      "▁call": 1222,
      "inal": 1223,
      "▁이상": 1224,
      "ise": 1225,
      "ments": 1226,
      "▁우리": 1227,
      "▁rem": 1228,
      "▁사람": 1229,
      "▁관련": 1230,
      "▁fe": 1231,
      "▁does": 1232,
      "St": 1233,
      "ious": 1234,
      "▁inst": 1235,
      "▁supp": 1236,
      "▁par": 1237,
      "▁는데": 1238,
      "ull": 1239,
      "amp": 1240,
      "▁Tr": 1241,
      "▁exp": 1242,
      "ix": 1243,
      "hat": 1244,
      "▁이름": 1245,
      "▁most": 1246,
      "▁end": 1247,
      "▁타": 1248,
      "hen": 1249,
      "▁디": 1250,
      "▁시간": 1251,
      "ield": 1252,
      "▁음": 1253,
      "▁대표": 1254,
      "▁way": 1255,
      "▁복": 1256,
      "ank": 1257,
      "ade": 1258,
      "▁know": 1259,
      "▁언": 1260,
      "uc": 1261,
      "▁group": 1262,
      "▁였": 1263,
      "▁play": 1264,
      "▁patients": 1265,
      "▁관계": 1266,
      "nB": 1267,
      "▁form": 1268,
      "▁she": 1269,
      "orld": 1270,
      "▁뉴스": 1271,
      "als": 1272,
      "▁새": 1273,
      "▁cell": 1274,
      "▁ser": 1275,
      "▁천": 1276,
      "▁실시": 1277,
      "▁문제": 1278,
      "read": 1279,
      "▁카": 1280,
      "▁fl": 1281,
      "▁또는": 1282,
      "ient": 1283,
      "▁정보": 1284,
      "oy": 1285,
      "ures": 1286,
      "▁포함": 1287,
      "▁includ": 1288,
      "▁spec": 1289,
      "io": 1290,
      "▁el": 1291,
      "▁because": 1292,
      "▁목": 1293,
      "(\\\"": 1294,
      "▁약": 1295,
      "ities": 1296,
      "nM": 1297,
      "ism": 1298,
      "let": 1299,
      "ational": 1300,
      "▁측": 1301,
      "ract": 1302,
      "▁used": 1303,
      "▁ke": 1304,
      "▁di": 1305,
      "rough": 1306,
      "nF": 1307,
      "▁system": 1308,
      "▁effect": 1309,
      "▁드": 1310,
      "▁make": 1311,
      "to": 1312,
      "▁don": 1313,
      "ins": 1314,
      "ful": 1315,
      "▁미국": 1316,
      "▁mon": 1317,
      "▁again": 1318,
      "err": 1319,
      "cent": 1320,
      "tern": 1321,
      "^{": 1322,
      "its": 1323,
      "ric": 1324,
      "ray": 1325,
      "▁네": 1326,
      "▁char": 1327,
      "▁different": 1328,
      "▁did": 1329,
      "▁look": 1330,
      "▁못": 1331,
      "ethod": 1332,
      "be": 1333,
      "▁prov": 1334,
      "▁ext": 1335,
      "▁same": 1336,
      "atch": 1337,
      "▁}": 1338,
      "uch": 1339,
      "ically": 1340,
      "▁발명": 1341,
      "ement": 1342,
      "▁저작": 1343,
      "right": 1344,
      "hed": 1345,
      "riv": 1346,
      "▁이번": 1347,
      "▁now": 1348,
      "▁메": 1349,
      "sc": 1350,
      "▁트": 1351,
      "The": 1352,
      "the": 1353,
      "▁온": 1354,
      "arch": 1355,
      "▁접": 1356,
      "ton": 1357,
      "ever": 1358,
      "flow": 1359,
      "▁years": 1360,
      "▁채": 1361,
      "▁cur": 1362,
      "▁high": 1363,
      "▁그러": 1364,
      "▁기술": 1365,
      "ger": 1366,
      "▁produ": 1367,
      "oad": 1368,
      "velop": 1369,
      "ined": 1370,
      "ines": 1371,
      "▁크": 1372,
      "rac": 1373,
      "▁such": 1374,
      "▁이용": 1375,
      "ash": 1376,
      "▁ent": 1377,
      "▁return": 1378,
      "lp": 1379,
      "▁incre": 1380,
      "ower": 1381,
      "imes": 1382,
      "▁well": 1383,
      "www": 1384,
      "▁함께": 1385,
      "▁report": 1386,
      "ef": 1387,
      "ince": 1388,
      "▁제공": 1389,
      "▁식": 1390,
      "pr": 1391,
      "▁through": 1392,
      "▁교육": 1393,
      "▁bu": 1394,
      "통령": 1395,
      "▁every": 1396,
      "▁sol": 1397,
      "▁see": 1398,
      "ars": 1399,
      "▁sm": 1400,
      "vent": 1401,
      "▁Un": 1402,
      "wn": 1403,
      "▁취": 1404,
      "ized": 1405,
      "▁med": 1406,
      "▁min": 1407,
      "▁requ": 1408,
      "▁even": 1409,
      "▁test": 1410,
      "▁항": 1411,
      "irect": 1412,
      "▁군": 1413,
      "rol": 1414,
      "▁대통령": 1415,
      "▁*": 1416,
      "other": 1417,
      "레이": 1418,
      "▁다른": 1419,
      "▁che": 1420,
      "ta": 1421,
      "권자": 1422,
      "ruct": 1423,
      "ctions": 1424,
      "ER": 1425,
      "▁북": 1426,
      "ample": 1427,
      "app": 1428,
      "▁야": 1429,
      "ited": 1430,
      "▁find": 1431,
      "▁run": 1432,
      "ional": 1433,
      "▁연구": 1434,
      "atic": 1435,
      "nIn": 1436,
      "▁gener": 1437,
      "▁som": 1438,
      "ases": 1439,
      "nP": 1440,
      "ages": 1441,
      "▁right": 1442,
      "gg": 1443,
      "▁투자": 1444,
      "▁found": 1445,
      "▁long": 1446,
      "ml": 1447,
      "▁삼": 1448,
      "▁public": 1449,
      "▁ap": 1450,
      "▁프로": 1451,
      "▁!": 1452,
      "▁start": 1453,
      "cept": 1454,
      "▁vari": 1455,
      "yn": 1456,
      "▁point": 1457,
      "▁필요": 1458,
      "▁속": 1459,
      "▁conf": 1460,
      "▁충": 1461,
      "▁ins": 1462,
      "▁code": 1463,
      ".\\\"": 1464,
      "▁살": 1465,
      "▁좋": 1466,
      "▁맞": 1467,
      "stack": 1468,
      "▁help": 1469,
      "blem": 1470,
      "▁both": 1471,
      "ute": 1472,
      "ale": 1473,
      "▁bel": 1474,
      "uss": 1475,
      "▁순": 1476,
      "cer": 1477,
      "cond": 1478,
      "▁those": 1479,
      "▁저작권자": 1480,
      "▁during": 1481,
      "ared": 1482,
      "▁사회": 1483,
      "pos": 1484,
      "▁aut": 1485,
      "view": 1486,
      "overflow": 1487,
      "▁him": 1488,
      "▁being": 1489,
      "▁Se": 1490,
      "ann": 1491,
      "val": 1492,
      "nD": 1493,
      "▁fact": 1494,
      "▁계획": 1495,
      "pen": 1496,
      "ron": 1497,
      "nO": 1498,
      "news": 1499,
      "▁설명": 1500,
      "▁cre": 1501,
      "▁very": 1502,
      "▁here": 1503,
      "]{": 1504,
      "▁count": 1505,
      "aking": 1506,
      "▁창": 1507,
      "▁세계": 1508,
      "oci": 1509,
      "stackoverflow": 1510,
      "▁손": 1511,
      "▁별": 1512,
      "▁inf": 1513,
      "▁x": 1514,
      "▁respon": 1515,
      "▁백": 1516,
      "▁경기": 1517,
      "oid": 1518,
      "▁개발": 1519,
      "▁조사": 1520,
      "▁dec": 1521,
      "itt": 1522,
      "▁value": 1523,
      "▁loc": 1524,
      "▁편": 1525,
      "▁dist": 1526,
      "▁농": 1527,
      "▁method": 1528,
      "▁해야": 1529,
      "▁의원": 1530,
      "▁하나": 1531,
      "▁think": 1532,
      "▁근": 1533,
      "▁before": 1534,
      "▁case": 1535,
      "▁many": 1536,
      "nTh": 1537,
      "▁develop": 1538,
      "▁진행": 1539,
      "▁while": 1540,
      "▁each": 1541,
      "sh": 1542,
      "▁국민": 1543,
      "ool": 1544,
      "▁last": 1545,
      "ason": 1546,
      "}\\\\": 1547,
      "▁try": 1548,
      "▁car": 1549,
      "▁problem": 1550,
      "any": 1551,
      "min": 1552,
      "▁prog": 1553,
      "▁z": 1554,
      "ily": 1555,
      "▁플": 1556,
      "▁결과": 1557,
      "ran": 1558,
      "▁토": 1559,
      "▁돼": 1560,
      "rence": 1561,
      "me": 1562,
      "▁효": 1563,
      "ivity": 1564,
      "▁number": 1565,
      "▁중국": 1566,
      "▁str": 1567,
      "ven": 1568,
      "ator": 1569,
      "▁model": 1570,
      "▁//": 1571,
      "yp": 1572,
      "▁절": 1573,
      "math": 1574,
      "set": 1575,
      "▁이나": 1576,
      "▁And": 1577,
      "alth": 1578,
      "ists": 1579,
      "▁줄": 1580,
      "▁exper": 1581,
      "▁ele": 1582,
      "('": 1583,
      "sp": 1584,
      "▁study": 1585,
      "▁anal": 1586,
      "▁이후": 1587,
      "▁mem": 1588,
      "▁#": 1589,
      "ner": 1590,
      "▁fil": 1591,
      "▁Pro": 1592,
      "▁Al": 1593,
      "ave": 1594,
      "ead": 1595,
      "▁준": 1596,
      "air": 1597,
      "▁나타": 1598,
      "▁돌": 1599,
      "ral": 1600,
      "▁Com": 1601,
      "▁But": 1602,
      "▁quest": 1603,
      "rest": 1604,
      "eb": 1605,
      "▁패": 1606,
      "ward": 1607,
      "▁센": 1608,
      "erson": 1609,
      "\\\"\\": 1610,
      "▁down": 1611,
      "▁est": 1612,
      "▁관리": 1613,
      "▁질": 1614,
      "nE": 1615,
      "ration": 1616,
      "oun": 1617,
      "▁...": 1618,
      "ery": 1619,
      "ually": 1620,
      "▁현재": 1621,
      "yl": 1622,
      "ices": 1623,
      "nN": 1624,
      "▁level": 1625,
      "▁poss": 1626,
      "eng": 1627,
      "▁도시": 1628,
      "▁much": 1629,
      "▁구성": 1630,
      "▁</": 1631,
      "uff": 1632,
      "▁own": 1633,
      "▁post": 1634,
      "▁Trump": 1635,
      "▁giv": 1636,
      "▁입니다": 1637,
      "▁대상": 1638,
      "▁생각": 1639,
      "비스": 1640,
      "ature": 1641,
      "▁ant": 1642,
      "▁say": 1643,
      "oot": 1644,
      "▁appro": 1645,
      "▁뒤": 1646,
      "ript": 1647,
      "ody": 1648,
      "▁사이": 1649,
      "▁line": 1650,
      "▁담": 1651,
      "▁급": 1652,
      "In": 1653,
      "▁독": 1654,
      "▁X": 1655,
      "부터": 1656,
      "▁이날": 1657,
      "▁dep": 1658,
      "ization": 1659,
      "▁발생": 1660,
      "▁const": 1661,
      "ively": 1662,
      "gin": 1663,
      "▁inte": 1664,
      "▁상황": 1665,
      "▁prote": 1666,
      "ier": 1667,
      "▁병": 1668,
      "▁또한": 1669,
      ",\\\"": 1670,
      "nR": 1671,
      "▁아이": 1672,
      "roid": 1673,
      "gan": 1674,
      "▁따른": 1675,
      "raph": 1676,
      "▁버": 1677,
      "gy": 1678,
      "man": 1679,
      "ument": 1680,
      "aj": 1681,
      "▁lead": 1682,
      "▁국내": 1683,
      "bl": 1684,
      "med": 1685,
      "ential": 1686,
      "▁Q": 1687,
      "ten": 1688,
      "tr": 1689,
      "ik": 1690,
      "ency": 1691,
      "frac": 1692,
      "▁gu": 1693,
      "▁후보": 1694,
      "az": 1695,
      "▁kr": 1696,
      "▁누": 1697,
      "▁가장": 1698,
      "lear": 1699,
      "▁lar": 1700,
      "▁type": 1701,
      "▁서비스": 1702,
      "▁read": 1703,
      "ters": 1704,
      "▁week": 1705,
      "▁three": 1706,
      "▁완": 1707,
      "ah": 1708,
      "par": 1709,
      "▁stat": 1710,
      "();\\": 1711,
      "▁state": 1712,
      "{\\": 1713,
      "▁good": 1714,
      "▁금융": 1715,
      "▁invest": 1716,
      "▁av": 1717,
      "▁still": 1718,
      "▁following": 1719,
      "▁지난해": 1720,
      "▁https": 1721,
      "▁import": 1722,
      "rid": 1723,
      "▁signific": 1724,
      "▁support": 1725,
      "ved": 1726,
      "error": 1727,
      "▁For": 1728,
      "ants": 1729,
      "▁승": 1730,
      "▁file": 1731,
      "alk": 1732,
      "▁시작": 1733,
      "▁니": 1734,
      "ames": 1735,
      "land": 1736,
      "▁으며": 1737,
      "▁non": 1738,
      "▁process": 1739,
      "__": 1740,
      "▁산업": 1741,
      "▁걸": 1742,
      "ife": 1743,
      "▁If": 1744,
      "name": 1745,
      "▁hand": 1746,
      "▁dem": 1747,
      "ST": 1748,
      "▁against": 1749,
      "▁second": 1750,
      "hes": 1751,
      ")$": 1752,
      "▁갖": 1753,
      "▁list": 1754,
      "IN": 1755,
      "▁잘": 1756,
      "▁tri": 1757,
      "way": 1758,
      "▁name": 1759,
      "▁You": 1760,
      "ts": 1761,
      "AT": 1762,
      "roll": 1763,
      "▁expl": 1764,
      "ital": 1765,
      "chn": 1766,
      "nL": 1767,
      "스트": 1768,
      "▁partic": 1769,
      "ym": 1770,
      "▁커": 1771,
      "▁브": 1772,
      "▁운영": 1773,
      "ouse": 1774,
      "▁ear": 1775,
      "meric": 1776,
      "▁다음": 1777,
      "▁연합": 1778,
      "ond": 1779,
      "▁통신": 1780,
      "of": 1781,
      "▁예정": 1782,
      "▁How": 1783,
      "▁최근": 1784,
      "ression": 1785,
      "ulation": 1786,
      "▁made": 1787,
      "vern": 1788,
      "▁rep": 1789,
      "ider": 1790,
      "line": 1791,
      "ote": 1792,
      "▁논": 1793,
      "▁특히": 1794,
      "ething": 1795,
      "formation": 1796,
      "▁An": 1797,
      "}}": 1798,
      "▁그리": 1799,
      ".\"}": 1800,
      "ource": 1801,
      "ava": 1802,
      "bb": 1803,
      "str": 1804,
      "▁문화": 1805,
      "]{}": 1806,
      "▁올해": 1807,
      "▁Is": 1808,
      "▁pass": 1809,
      "ole": 1810,
      "▁전문": 1811,
      "ets": 1812,
      "▁serv": 1813,
      "로나": 1814,
      "▁gl": 1815,
      "▁Z": 1816,
      "▁significant": 1817,
      "led": 1818,
      "▁results": 1819,
      "▁형성": 1820,
      "▁ref": 1821,
      "▁direct": 1822,
      "▁que": 1823,
      "▁ed": 1824,
      "▁기준": 1825,
      "ser": 1826,
      "▁cent": 1827,
      "▁거나": 1828,
      "▁장치": 1829,
      "▁take": 1830,
      "▁향": 1831,
      "▁층": 1832,
      "▁가지": 1833,
      "ON": 1834,
      "▁정책": 1835,
      "▁met": 1836,
      "▁코로나": 1837,
      "▁main": 1838,
      "▁del": 1839,
      "ium": 1840,
      "agn": 1841,
      "▁사실": 1842,
      "▁govern": 1843,
      "hip": 1844,
      "▁따르": 1845,
      "uro": 1846,
      "▁As": 1847,
      "ality": 1848,
      "▁자신": 1849,
      "abel": 1850,
      "▁태": 1851,
      "▁테": 1852,
      "▁current": 1853,
      "▁곳": 1854,
      "ired": 1855,
      "▁mat": 1856,
      "div": 1857,
      "▁사진": 1858,
      "ified": 1859,
      "▁모두": 1860,
      "▁다양": 1861,
      "▁방법": 1862,
      "▁평가": 1863,
      "for": 1864,
      "que": 1865,
      "▁without": 1866,
      "▁iss": 1867,
      "▁늘": 1868,
      "▁폭": 1869,
      "▁equ": 1870,
      "▁글": 1871,
      "▁US": 1872,
      "▁기관": 1873,
      "▁Sh": 1874,
      "▁chang": 1875,
      "aw": 1876,
      "========": 1877,
      "▁Ar": 1878,
      "ross": 1879,
      "▁es": 1880,
      "acter": 1881,
      "▁국가": 1882,
      "und": 1883,
      "ext": 1884,
      "▁민주": 1885,
      "rap": 1886,
      "▁perform": 1887,
      "serv": 1888,
      "tic": 1889,
      "ained": 1890,
      "▁child": 1891,
      "▁일본": 1892,
      "▁관계자": 1893,
      "▁month": 1894,
      "illion": 1895,
      "ats": 1896,
      "/\\": 1897,
      "ems": 1898,
      "▁허": 1899,
      "ology": 1900,
      "▁정도": 1901,
      "▁going": 1902,
      "▁disc": 1903,
      "▁는다": 1904,
      "View": 1905,
      "au": 1906,
      "▁treat": 1907,
      "▁team": 1908,
      "▁Ph": 1909,
      "▁Americ": 1910,
      "▁축": 1911,
      ").\\": 1912,
      "come": 1913,
      "▁mark": 1914,
      "▁증가": 1915,
      "▁큰": 1916,
      "ane": 1917,
      "▁change": 1918,
      "}{": 1919,
      "▁et": 1920,
      "▁이어": 1921,
      "opy": 1922,
      "▁범": 1923,
      "ify": 1924,
      "▁Cl": 1925,
      "▁날": 1926,
      "▁길": 1927,
      "▁since": 1928,
      "▁something": 1929,
      "▁시스": 1930,
      "▁De": 1931,
      "▁대학": 1932,
      "▁meas": 1933,
      "▁경찰": 1934,
      "▁world": 1935,
      "ior": 1936,
      "▁결정": 1937,
      "▁mult": 1938,
      "▁says": 1939,
      "▁라며": 1940,
      "▁기록": 1941,
      "NA": 1942,
      "ask": 1943,
      "ina": 1944,
      "▁Wh": 1945,
      "omen": 1946,
      "▁great": 1947,
      "ving": 1948,
      "add": 1949,
      "].": 1950,
      "▁이라": 1951,
      "ather": 1952,
      "nY": 1953,
      "akes": 1954,
      "ffic": 1955,
      "▁단계": 1956,
      "bers": 1957,
      "ision": 1958,
      "▁control": 1959,
      "▁Le": 1960,
      "▁만들": 1961,
      "▁open": 1962,
      "ience": 1963,
      "▁New": 1964,
      "▁찾": 1965,
      "▁상태": 1966,
      "▁넘": 1967,
      "▁려": 1968,
      "▁field": 1969,
      "arent": 1970,
      "gen": 1971,
      "▁fin": 1972,
      "▁지금": 1973,
      "▁눈": 1974,
      "▁allow": 1975,
      "ness": 1976,
      "▁around": 1977,
      "▁example": 1978,
      "vert": 1979,
      "이터": 1980,
      "▁fam": 1981,
      "▁hum": 1982,
      "ording": 1983,
      "▁contin": 1984,
      "dd": 1985,
      "icro": 1986,
      "▁시스템": 1987,
      "▁확인": 1988,
      "▁베": 1989,
      "▁oper": 1990,
      "▁present": 1991,
      "▁팀": 1992,
      "▁책": 1993,
      "▁rele": 1994,
      "시스": 1995,
      "▁위원회": 1996,
      "▁같이": 1997,
      ".,": 1998,
      "▁sugg": 1999,
      "▁suggest": 2000,
      "▁tem": 2001,
      "▁추진": 2002,
      "▁과정": 2003,
      "▁홍": 2004,
      "oh": 2005,
      "cur": 2006,
      "뉴스": 2007,
      "▁힘": 2008,
      "▁엔": 2009,
      "▁object": 2010,
      "────": 2011,
      "\\\":": 2012,
      "rad": 2013,
      "dition": 2014,
      "(\\\\": 2015,
      "arm": 2016,
      "LE": 2017,
      "fc": 2018,
      "▁beh": 2019,
      "vious": 2020,
      "▁proper": 2021,
      "▁another": 2022,
      "▁corre": 2023,
      "▁cells": 2024,
      "▁업체": 2025,
      "att": 2026,
      "▁어서": 2027,
      "ains": 2028,
      "▁day": 2029,
      "ID": 2030,
      "▁제품": 2031,
      "▁내용": 2032,
      "rop": 2033,
      "nThis": 2034,
      "▁국회": 2035,
      "▁오후": 2036,
      "play": 2037,
      "▁order": 2038,
      "▁appe": 2039,
      "itive": 2040,
      "▁▲": 2041,
      "▁pot": 2042,
      "AR": 2043,
      "▁느": 2044,
      "lex": 2045,
      "▁cour": 2046,
      "▁care": 2047,
      "▁cr": 2048,
      "▁친": 2049,
      "▁really": 2050,
      "▁규모": 2051,
      "▁애": 2052,
      "ere": 2053,
      "ense": 2054,
      "▁real": 2055,
      "▁활동": 2056,
      "▁그런": 2057,
      "ght": 2058,
      "ives": 2059,
      "work": 2060,
      "▁ident": 2061,
      "시아": 2062,
      "▁small": 2063,
      "▁top": 2064,
      "▁happ": 2065,
      "▁question": 2066,
      "▁시키": 2067,
      "cont": 2068,
      "▁program": 2069,
      "▁elect": 2070,
      "▁철": 2071,
      "▁head": 2072,
      "▁bre": 2073,
      "▁offic": 2074,
      "▁pop": 2075,
      "ured": 2076,
      "here": 2077,
      "eral": 2078,
      "▁might": 2079,
      "▁해서": 2080,
      "ged": 2081,
      "▁There": 2082,
      "▁law": 2083,
      "▁game": 2084,
      "isk": 2085,
      "▁합니다": 2086,
      "▁adv": 2087,
      "▁;": 2088,
      "▁구조": 2089,
      "▁다시": 2090,
      ".\\\"\\": 2091,
      "lam": 2092,
      "▁레": 2093,
      "ivers": 2094,
      "▁그러나": 2095,
      "▁인터": 2096,
      "ination": 2097,
      "▁let": 2098,
      "▁환경": 2099,
      "▁health": 2100,
      "▁뉴시스": 2101,
      "OR": 2102,
      "ysis": 2103,
      "ccess": 2104,
      "bf": 2105,
      "▁언론": 2106,
      "idth": 2107,
      "▁person": 2108,
      "lish": 2109,
      "wit": 2110,
      "▁sing": 2111,
      "ault": 2112,
      "ability": 2113,
      "▁put": 2114,
      "thing": 2115,
      "not": 2116,
      "ately": 2117,
      "▁To": 2118,
      "▁--": 2119,
      "▁stand": 2120,
      "▁techn": 2121,
      "It": 2122,
      "rm": 2123,
      "▁그리고": 2124,
      "ides": 2125,
      "$,": 2126,
      "stand": 2127,
      "bs": 2128,
      "▁user": 2129,
      "▁vis": 2130,
      "▁센터": 2131,
      "▁government": 2132,
      "▁볼": 2133,
      "▁view": 2134,
      "▁이라고": 2135,
      "▁redu": 2136,
      "▁블": 2137,
      "▁vers": 2138,
      "▁desc": 2139,
      "지만": 2140,
      "▁분석": 2141,
      "bd": 2142,
      "▁information": 2143,
      "▁이런": 2144,
      "▁best": 2145,
      "aut": 2146,
      "ung": 2147,
      "▁eng": 2148,
      "▁imp": 2149,
      "▁term": 2150,
      "▁Ind": 2151,
      "▁삼성": 2152,
      "ots": 2153,
      "▁。": 2154,
      "ural": 2155,
      "▁일부": 2156,
      "▁막": 2157,
      "▁possible": 2158,
      "▁시설": 2159,
      "iness": 2160,
      "ocument": 2161,
      "ern": 2162,
      "이스": 2163,
      "▁참여": 2164,
      "▁sit": 2165,
      "▁의해": 2166,
      "urs": 2167,
      "▁including": 2168,
      "▁학교": 2169,
      "anc": 2170,
      "amet": 2171,
      "▁추가": 2172,
      "\\\\]": 2173,
      "▁거래": 2174,
      "▁들어": 2175,
      "duct": 2176,
      "▁investig": 2177,
      "orth": 2178,
      "▁정치": 2179,
      "▁발표": 2180,
      "ene": 2181,
      "▁판매": 2182,
      "▁클": 2183,
      "▁few": 2184,
      "col": 2185,
      "▁행사": 2186,
      "▁less": 2187,
      "▁연합뉴스": 2188,
      "----------------": 2189,
      "indow": 2190,
      "▁commun": 2191,
      "▁설치": 2192,
      "▁Con": 2193,
      "▁grow": 2194,
      "▁송": 2195,
      "ently": 2196,
      "▁cal": 2197,
      "▁Ex": 2198,
      "▁위치": 2199,
      "ilar": 2200,
      "▁associ": 2201,
      "ves": 2202,
      "▁회사": 2203,
      "▁효과": 2204,
      "my": 2205,
      "'\\": 2206,
      "ream": 2207,
      "CT": 2208,
      "hor": 2209,
      "▁오전": 2210,
      "▁페": 2211,
      "▁sk": 2212,
      "▁이미": 2213,
      "▁으면": 2214,
      "nHow": 2215,
      "▁부분": 2216,
      "▁회의": 2217,
      "ways": 2218,
      "▁better": 2219,
      "▁ask": 2220,
      "date": 2221,
      "$\\\\": 2222,
      "\\\">": 2223,
      "▁next": 2224,
      "▁place": 2225,
      "▁지방": 2226,
      "▁탄": 2227,
      "▁키": 2228,
      "▁expect": 2229,
      "▁동안": 2230,
      "운데": 2231,
      "▁북한": 2232,
      "af": 2233,
      "plic": 2234,
      "▁영상": 2235,
      "▁left": 2236,
      "▁공급": 2237,
      "▁wr": 2238,
      "▁하지만": 2239,
      "yt": 2240,
      "▁mean": 2241,
      "lication": 2242,
      "▁hig": 2243,
      "orn": 2244,
      "pha": 2245,
      "▁가격": 2246,
      "▁부산": 2247,
      "oss": 2248,
      "▁각각": 2249,
      "ission": 2250,
      "▁rece": 2251,
      "▁머": 2252,
      "▁모든": 2253,
      "▁│": 2254,
      "▁ide": 2255,
      "...": 2256,
      "ably": 2257,
      "ps": 2258,
      "▁방향": 2259,
      "arget": 2260,
      "▁given": 2261,
      "▁달러": 2262,
      "Con": 2263,
      "▁low": 2264,
      "▁too": 2265,
      "PA": 2266,
      "▁장관": 2267,
      "ustom": 2268,
      "▁가운데": 2269,
      "▁u": 2270,
      "▁project": 2271,
      "▁한편": 2272,
      "▁확대": 2273,
      "▁spe": 2274,
      "left": 2275,
      "http": 2276,
      "▁안전": 2277,
      "▁데이터": 2278,
      "▁보이": 2279,
      "less": 2280,
      "lu": 2281,
      "▁power": 2282,
      "cul": 2283,
      "▁hy": 2284,
      "ially": 2285,
      "▁기간": 2286,
      "▁국제": 2287,
      "▁△": 2288,
      "▁build": 2289,
      "▁처럼": 2290,
      "els": 2291,
      "ploy": 2292,
      "▁벌": 2293,
      "▁phot": 2294,
      "Name": 2295,
      "ends": 2296,
      "▁피해": 2297,
      "\\\">\\": 2298,
      "ush": 2299,
      "▁lim": 2300,
      "hib": 2301,
      "▁뿐": 2302,
      "▁big": 2303,
      "▁sl": 2304,
      "▁leg": 2305,
      "리아": 2306,
      "ule": 2307,
      "▁treatment": 2308,
      "ready": 2309,
      "▁text": 2310,
      "▁cap": 2311,
      "▁성장": 2312,
      "rain": 2313,
      "▁error": 2314,
      "mun": 2315,
      "▁occ": 2316,
      "BS": 2317,
      "▁처리": 2318,
      "▁째": 2319,
      "ference": 2320,
      "▁Sp": 2321,
      "▁마련": 2322,
      "▁터": 2323,
      "chool": 2324,
      "▁eas": 2325,
      "cal": 2326,
      "▁check": 2327,
      "▁Sy": 2328,
      "▁상승": 2329,
      "▁연결": 2330,
      "▁string": 2331,
      "▁doesn": 2332,
      "IT": 2333,
      "▁로부터": 2334,
      "▁So": 2335,
      "▁opt": 2336,
      "▁ve": 2337,
      "Re": 2338,
      "action": 2339,
      "ott": 2340,
      "▁bi": 2341,
      "▁bas": 2342,
      "ished": 2343,
      "▁They": 2344,
      "sw": 2345,
      "Id": 2346,
      "go": 2347,
      "▁able": 2348,
      "▁첫": 2349,
      "▁struct": 2350,
      "uper": 2351,
      "::": 2352,
      "nal": 2353,
      "nIt": 2354,
      "▁id": 2355,
      "▁important": 2356,
      "BC": 2357,
      "▁local": 2358,
      "▁four": 2359,
      "▁끝": 2360,
      "▁열린": 2361,
      "▁tot": 2362,
      "_{\\\\": 2363,
      "idence": 2364,
      "▁within": 2365,
      "▁너": 2366,
      "eta": 2367,
      "▁determ": 2368,
      "nU": 2369,
      "▁여러": 2370,
      "igned": 2371,
      "requ": 2372,
      "np": 2373,
      "▁해당": 2374,
      "▁선거": 2375,
      "html": 2376,
      "ived": 2377,
      "▁새로": 2378,
      "▁Be": 2379,
      "▁opp": 2380,
      "▁전망": 2381,
      "▁최고": 2382,
      "▁called": 2383,
      "back": 2384,
      "▁news": 2385,
      "▁hist": 2386,
      "AN": 2387,
      "epend": 2388,
      "▁prof": 2389,
      "change": 2390,
      "▁생산": 2391,
      "fer": 2392,
      "▁은행": 2393,
      "usiness": 2394,
      "▁inc": 2395,
      "ajor": 2396,
      "->": 2397,
      "▁At": 2398,
      "!\\": 2399,
      "▁path": 2400,
      "▁working": 2401,
      "▁사건": 2402,
      "ety": 2403,
      "▁자동": 2404,
      "▁방송": 2405,
      "▁Bl": 2406,
      "▁대비": 2407,
      "face": 2408,
      "til": 2409,
      "▁init": 2410,
      "▁그렇": 2411,
      "▁ca": 2412,
      "ormal": 2413,
      "nIf": 2414,
      "conom": 2415,
      "▁values": 2416,
      "ither": 2417,
      "▁human": 2418,
      "▁전체": 2419,
      "Pro": 2420,
      "ald": 2421,
      "▁수준": 2422,
      "EN": 2423,
      "▁observ": 2424,
      "▁key": 2425,
      "osed": 2426,
      "▁won": 2427,
      "▁압": 2428,
      "ird": 2429,
      "fig": 2430,
      "▁낮": 2431,
      "unction": 2432,
      "▁현대": 2433,
      "aper": 2434,
      "이트": 2435,
      "▁bo": 2436,
      "▁얼": 2437,
      "▁polit": 2438,
      "▁create": 2439,
      "▁중심": 2440,
      "▁dev": 2441,
      "ised": 2442,
      "etic": 2443,
      "▁시민": 2444,
      "iron": 2445,
      "ertain": 2446,
      "▁회장": 2447,
      "▁rad": 2448,
      "▁told": 2449,
      "▁based": 2450,
      "▁윤": 2451,
      "▁trying": 2452,
      "▁최대": 2453,
      "▁got": 2454,
      "▁강화": 2455,
      "ided": 2456,
      "▁men": 2457,
      "▁self": 2458,
      "ope": 2459,
      "▁life": 2460,
      "▁must": 2461,
      "▁things": 2462,
      "▁ᆞ": 2463,
      "▁days": 2464,
      "self": 2465,
      "urther": 2466,
      "ms": 2467,
      "nG": 2468,
      "▁전자": 2469,
      "arn": 2470,
      "▁여성": 2471,
      "ological": 2472,
      "▁기대": 2473,
      "▁log": 2474,
      "▁character": 2475,
      "▁[@": 2476,
      "▁주장": 2477,
      "ocial": 2478,
      "▁응": 2479,
      "Ch": 2480,
      "lay": 2481,
      "▁why": 2482,
      "▁개선": 2483,
      "idd": 2484,
      "▁potential": 2485,
      "▁Sc": 2486,
      "▁ann": 2487,
      "ength": 2488,
      "▁바이": 2489,
      "▁single": 2490,
      "))": 2491,
      "▁percent": 2492,
      "▁`": 2493,
      "▁존": 2494,
      "leg": 2495,
      "ought": 2496,
      "bo": 2497,
      "ister": 2498,
      "nYou": 2499,
      "▁분야": 2500,
      "▁제조": 2501,
      "uck": 2502,
      "▁press": 2503,
      "▁rese": 2504,
      "yle": 2505,
      "ograph": 2506,
      "▁dise": 2507,
      "▁적용": 2508,
      "▁중앙": 2509,
      "▁belie": 2510,
      "▁그래": 2511,
      "▁similar": 2512,
      "▁already": 2513,
      "Cont": 2514,
      "▁impro": 2515,
      "▁respect": 2516,
      "▁%)": 2517,
      "▁폐": 2518,
      "▁home": 2519,
      "▁hard": 2520,
      "▁전국": 2521,
      "uk": 2522,
      "▁공개": 2523,
      "▁event": 2524,
      "▁휴": 2525,
      "hy": 2526,
      "▁lot": 2527,
      "▁der": 2528,
      "▁However": 2529,
      "▁쓰": 2530,
      "ittle": 2531,
      "▁고객": 2532,
      "▁lik": 2533,
      "$$": 2534,
      "ET": 2535,
      "],": 2536,
      "essage": 2537,
      "▁women": 2538,
      "ES": 2539,
      "ling": 2540,
      "▁select": 2541,
      "▁잡": 2542,
      "▁홈": 2543,
      "▁fail": 2544,
      "▁일반": 2545,
      "▁prom": 2546,
      "▁빠": 2547,
      "order": 2548,
      "▁이동": 2549,
      "▁cases": 2550,
      "▁는지": 2551,
      "▁률": 2552,
      "▁That": 2553,
      "▁알려": 2554,
      "ending": 2555,
      "▁interest": 2556,
      "$.": 2557,
      "▁학생": 2558,
      "rem": 2559,
      "▁갈": 2560,
      "▁access": 2561,
      "by": 2562,
      "▁이유": 2563,
      "data": 2564,
      "▁ener": 2565,
      "▁camp": 2566,
      "mit": 2567,
      "▁유지": 2568,
      "ware": 2569,
      "aps": 2570,
      "▁keep": 2571,
      "reg": 2572,
      "osis": 2573,
      "▁arg": 2574,
      "na": 2575,
      "var": 2576,
      "▁organ": 2577,
      "▁당시": 2578,
      "▁clear": 2579,
      "ention": 2580,
      "▁come": 2581,
      "랜드": 2582,
      "ret": 2583,
      "orean": 2584,
      "▁priv": 2585,
      "▁sent": 2586,
      "etwork": 2587,
      "AS": 2588,
      "▁rest": 2589,
      "▁On": 2590,
      "▁move": 2591,
      "▁케": 2592,
      "▁product": 2593,
      "▁prob": 2594,
      "▁활용": 2595,
      "ien": 2596,
      "▁mov": 2597,
      "Ex": 2598,
      "ler": 2599,
      "ideo": 2600,
      "▁never": 2601,
      "▁far": 2602,
      "▁var": 2603,
      "▁risk": 2604,
      "▁직접": 2605,
      "▁Ad": 2606,
      "▁예상": 2607,
      "▁발전": 2608,
      "lection": 2609,
      "▁극": 2610,
      "▁major": 2611,
      "▁주택": 2612,
      "▁pred": 2613,
      "List": 2614,
      "rand": 2615,
      "▁공동": 2616,
      "▁요구": 2617,
      "▁한다는": 2618,
      "▁free": 2619,
      "osp": 2620,
      "▁기능": 2621,
      "▁생활": 2622,
      "aim": 2623,
      "▁방식": 2624,
      "▁record": 2625,
      "String": 2626,
      "▁액": 2627,
      "▁understand": 2628,
      "▁near": 2629,
      "▁large": 2630,
      "mod": 2631,
      "▁plan": 2632,
      "▁밖": 2633,
      "▁바람": 2634,
      "▁골": 2635,
      "▁invol": 2636,
      "ining": 2637,
      "AL": 2638,
      "▁상품": 2639,
      "▁writ": 2640,
      "▁response": 2641,
      "▁콘": 2642,
      "▁판단": 2643,
      "▁소비": 2644,
      "We": 2645,
      "▁많이": 2646,
      "▁위원장": 2647,
      "▁밀": 2648,
      "▁다가": 2649,
      "▁sever": 2650,
      "irc": 2651,
      "▁mil": 2652,
      "▁All": 2653,
      "▁always": 2654,
      "time": 2655,
      "IS": 2656,
      "▁모습": 2657,
      "라인": 2658,
      "mon": 2659,
      "▁indic": 2660,
      "new": 2661,
      "▁핵": 2662,
      "▁true": 2663,
      "IC": 2664,
      "그램": 2665,
      "ailable": 2666,
      "resent": 2667,
      "▁old": 2668,
      "ception": 2669,
      "▁analysis": 2670,
      "▁한다고": 2671,
      "ification": 2672,
      "▁중요": 2673,
      ");": 2674,
      "▁선택": 2675,
      "▁먹": 2676,
      "인다": 2677,
      "▁mass": 2678,
      "▁TV": 2679,
      "▁least": 2680,
      "org": 2681,
      "▁여기": 2682,
      "▁sure": 2683,
      "▁total": 2684,
      "으며": 2685,
      "▁children": 2686,
      "▁어려": 2687,
      "ocr": 2688,
      "▁돈": 2689,
      "▁수사": 2690,
      "▁교수": 2691,
      "▁lo": 2692,
      "▁조성": 2693,
      "▁crit": 2694,
      "▁block": 2695,
      "▁country": 2696,
      "▁Can": 2697,
      "▁comb": 2698,
      "rug": 2699,
      "pi": 2700,
      "▁이러": 2701,
      "ai": 2702,
      "▁민주당": 2703,
      "ries": 2704,
      "▁경쟁": 2705,
      "year": 2706,
      "resident": 2707,
      "asc": 2708,
      "por": 2709,
      "test": 2710,
      "▁table": 2711,
      "▁검사": 2712,
      "▁캐": 2713,
      "▁영향": 2714,
      "▁특별": 2715,
      "▁게임": 2716,
      "atter": 2717,
      "bar": 2718,
      "▁없이": 2719,
      "▁프로그램": 2720,
      "book": 2721,
      "▁changes": 2722,
      "▁above": 2723,
      "▁Ob": 2724,
      "iod": 2725,
      "▁No": 2726,
      "ribut": 2727,
      "▁activ": 2728,
      "▁혼": 2729,
      "iple": 2730,
      "▁due": 2731,
      "▁td": 2732,
      "▁higher": 2733,
      "rag": 2734,
      "▁link": 2735,
      "olit": 2736,
      "▁Col": 2737,
      "▁Rep": 2738,
      "ee": 2739,
      "▁image": 2740,
      "ateg": 2741,
      "▁왔": 2742,
      "ison": 2743,
      "▁manag": 2744,
      "▁대해서": 2745,
      "net": 2746,
      "▁행정": 2747,
      "▁그룹": 2748,
      "▁단체": 2749,
      "label": 2750,
      "▁gra": 2751,
      "▁강조": 2752,
      "▁지적": 2753,
      "▁fac": 2754,
      "▁경영": 2755,
      "▁rate": 2756,
      "nBut": 2757,
      "usion": 2758,
      "ogle": 2759,
      "▁little": 2760,
      "▁▶": 2761,
      "OM": 2762,
      "alse": 2763,
      "mat": 2764,
      "▁turn": 2765,
      "▁검찰": 2766,
      "Th": 2767,
      "▁activity": 2768,
      "ivid": 2769,
      "ground": 2770,
      "ament": 2771,
      "▁size": 2772,
      "▁새로운": 2773,
      "▁pay": 2774,
      "▁Im": 2775,
      "▁기존": 2776,
      "▁else": 2777,
      "▁병원": 2778,
      "▁dat": 2779,
      "▁paramet": 2780,
      "▁침": 2781,
      "ada": 2782,
      "▁million": 2783,
      "nect": 2784,
      "▁times": 2785,
      "▁answ": 2786,
      "▁입장": 2787,
      "outh": 2788,
      "▁describ": 2789,
      "opt": 2790,
      "▁word": 2791,
      "▁android": 2792,
      "ering": 2793,
      "▁개인": 2794,
      "▁whether": 2795,
      "▁지지": 2796,
      "▁만큼": 2797,
      "▁bro": 2798,
      "▁지속": 2799,
      "aining": 2800,
      "▁orig": 2801,
      "cd": 2802,
      "▁success": 2803,
      "▁어요": 2804,
      "▁reported": 2805,
      "▁싶": 2806,
      "▁난": 2807,
      "▁page": 2808,
      "▁황": 2809,
      "box": 2810,
      "ait": 2811,
      "▁로서": 2812,
      "iment": 2813,
      "▁micro": 2814,
      "▁give": 2815,
      "oney": 2816,
      "wh": 2817,
      "▁적극": 2818,
      "▁attack": 2819,
      "▁president": 2820,
      "▁놓": 2821,
      "imate": 2822,
      "viron": 2823,
      "▁육": 2824,
      "▁주요": 2825,
      "▁신문": 2826,
      "ique": 2827,
      "▁clin": 2828,
      "uture": 2829,
      "load": 2830,
      "▁typ": 2831,
      "▁긴": 2832,
      "class": 2833,
      "ores": 2834,
      "▁러": 2835,
      "ples": 2836,
      "▁previous": 2837,
      "니까": 2838,
      "▁주민": 2839,
      "ga": 2840,
      "()\\": 2841,
      "▁건설": 2842,
      "alpha": 2843,
      "iol": 2844,
      "▁석": 2845,
      "▁이하": 2846,
      "▁처음": 2847,
      "ched": 2848,
      "log": 2849,
      "▁levels": 2850,
      "▁pur": 2851,
      "▁cou": 2852,
      "ours": 2853,
      "▁specific": 2854,
      "▁target": 2855,
      "▁변화": 2856,
      "▁energy": 2857,
      "▁나라": 2858,
      "▁계속": 2859,
      "▁준비": 2860,
      "▁array": 2861,
      "▁cost": 2862,
      "▁These": 2863,
      "▁시행": 2864,
      "▁exam": 2865,
      "lement": 2866,
      "▁몰": 2867,
      "alu": 2868,
      "▁among": 2869,
      "ials": 2870,
      "ories": 2871,
      "대로": 2872,
      "▁의미": 2873,
      "▁according": 2874,
      "▁sym": 2875,
      "oo": 2876,
      "▁effects": 2877,
      "▁short": 2878,
      "▁groups": 2879,
      "sy": 2880,
      "▁consider": 2881,
      "▁months": 2882,
      "▁보호": 2883,
      "▁즉": 2884,
      "▁업무": 2885,
      "▁해외": 2886,
      "ators": 2887,
      "side": 2888,
      "▁having": 2889,
      "ci": 2890,
      "ended": 2891,
      "▁doing": 2892,
      "▁자리": 2893,
      "▁several": 2894,
      "▁available": 2895,
      "▁Res": 2896,
      "▁war": 2897,
      "▁오늘": 2898,
      "ED": 2899,
      "olution": 2900,
      "▁대응": 2901,
      "▁sum": 2902,
      "▁talk": 2903,
      "cI": 2904,
      "▁협력": 2905,
      "▁잠": 2906,
      "▁vol": 2907,
      "▁below": 2908,
      "▁떨": 2909,
      "ny": 2910,
      "▁company": 2911,
      "▁님": 2912,
      "▁방문": 2913,
      "nf": 2914,
      "▁먼": 2915,
      "ales": 2916,
      "ising": 2917,
      "▁means": 2918,
      "ival": 2919,
      "▁fore": 2920,
      "▁형태": 2921,
      "▁enc": 2922,
      "▁full": 2923,
      "ails": 2924,
      "▁tre": 2925,
      "ding": 2926,
      "▁mar": 2927,
      "▁이루": 2928,
      "▁관한": 2929,
      "ables": 2930,
      "▁bit": 2931,
      "▁노동": 2932,
      "oin": 2933,
      ",\\\\": 2934,
      "▁희": 2935,
      "▁compared": 2936,
      "▁App": 2937,
      "▁later": 2938,
      "▁done": 2939,
      "▁space": 2940,
      "▁어떤": 2941,
      "▁Or": 2942,
      "▁mus": 2943,
      "▁particular": 2944,
      "cing": 2945,
      "▁현장": 2946,
      "▁신호": 2947,
      "▁didn": 2948,
      "▁울": 2949,
      "ront": 2950,
      "▁development": 2951,
      "▁혐": 2952,
      "part": 2953,
      "마트": 2954,
      "ney": 2955,
      "inf": 2956,
      "▁strong": 2957,
      "aster": 2958,
      "▁Dem": 2959,
      "cret": 2960,
      "key": 2961,
      "▁cho": 2962,
      "Cl": 2963,
      "itor": 2964,
      "▁issue": 2965,
      "▁inde": 2966,
      "▁prim": 2967,
      "▁ben": 2968,
      "▁컨": 2969,
      "▁해결": 2970,
      "▁차량": 2971,
      "ibr": 2972,
      "head": 2973,
      "▁obt": 2974,
      "ards": 2975,
      "▁general": 2976,
      "ama": 2977,
      "aring": 2978,
      "umn": 2979,
      "▁associated": 2980,
      "oor": 2981,
      "▁율": 2982,
      "▁increased": 2983,
      "ury": 2984,
      "▁공감": 2985,
      "▁제도": 2986,
      "▁상대": 2987,
      "NS": 2988,
      "▁win": 2989,
      "▁role": 2990,
      "irus": 2991,
      "▁disease": 2992,
      "▁dom": 2993,
      "ift": 2994,
      "▁내부": 2995,
      "▁job": 2996,
      "chan": 2997,
      "=\\\\": 2998,
      "ches": 2999,
      "▁보험": 3000,
      "Val": 3001,
      "▁thing": 3002,
      "▁age": 3003,
      "aign": 3004,
      "px": 3005,
      "▁인사": 3006,
      "▁school": 3007,
      "▁My": 3008,
      "▁evalu": 3009,
      "▁으로써": 3010,
      "▁either": 3011,
      "imal": 3012,
      "Data": 3013,
      "ember": 3014,
      "▁discuss": 3015,
      "ca": 3016,
      "ume": 3017,
      "lease": 3018,
      "▁조정": 3019,
      "this": 3020,
      "▁ep": 3021,
      "▁란": 3022,
      "▁www": 3023,
      "▁phys": 3024,
      "ditional": 3025,
      "nJ": 3026,
      "▁seen": 3027,
      "place": 3028,
      "▁관심": 3029,
      "▁혁": 3030,
      "lete": 3031,
      "ocus": 3032,
      "oper": 3033,
      "▁family": 3034,
      "▁econom": 3035,
      "ians": 3036,
      "ances": 3037,
      "▁가치": 3038,
      "▁den": 3039,
      "▁분기": 3040,
      "▁exist": 3041,
      "▁사고": 3042,
      "▁version": 3043,
      "▁early": 3044,
      "ands": 3045,
      "▁police": 3046,
      "▁계약": 3047,
      "▁action": 3048,
      "▁content": 3049,
      "▁외국": 3050,
      "▁공간": 3051,
      "▁듯": 3052,
      "▁business": 3053,
      "plement": 3054,
      "OS": 3055,
      "▁Te": 3056,
      "▁미래": 3057,
      "▁매출": 3058,
      "verage": 3059,
      "▁account": 3060,
      "▁Russ": 3061,
      "▁운동": 3062,
      "▁tell": 3063,
      "aken": 3064,
      "urope": 3065,
      "▁diff": 3066,
      "▁신청": 3067,
      "▁inj": 3068,
      "\\\");\\": 3069,
      "but": 3070,
      "▁period": 3071,
      "▁season": 3072,
      "▁works": 3073,
      "▁개월": 3074,
      "▁얻": 3075,
      "▁cy": 3076,
      "▁actually": 3077,
      "▁탈": 3078,
      "▁정상": 3079,
      "obal": 3080,
      "▁happen": 3081,
      "전자": 3082,
      "ctor": 3083,
      "▁의견": 3084,
      "ey": 3085,
      "empt": 3086,
      "iversity": 3087,
      "▁water": 3088,
      "▁expression": 3089,
      "▁감소": 3090,
      "▁caus": 3091,
      "nim": 3092,
      "▁안정": 3093,
      "▁light": 3094,
      "▁side": 3095,
      "▁대책": 3096,
      "▁solution": 3097,
      "▁영화": 3098,
      "($": 3099,
      "▁showed": 3100,
      "▁혐의": 3101,
      "ibility": 3102,
      "vironment": 3103,
      "▁대구": 3104,
      "▁feel": 3105,
      "▁abs": 3106,
      "ones": 3107,
      "▁==": 3108,
      "▁making": 3109,
      "▁전기": 3110,
      "▁악": 3111,
      "▁President": 3112,
      "▁request": 3113,
      "ros": 3114,
      "Ar": 3115,
      "▁korean": 3116,
      "▁더욱": 3117,
      "▁position": 3118,
      "no": 3119,
      "▁증권": 3120,
      "▁전략": 3121,
      "▁봉": 3122,
      "▁er": 3123,
      "▁헤": 3124,
      "▁ver": 3125,
      "RE": 3126,
      "▁increase": 3127,
      "▁종합": 3128,
      "anks": 3129,
      "▁though": 3130,
      "▁건강": 3131,
      "omet": 3132,
      "▁reason": 3133,
      "▁When": 3134,
      "▁글로": 3135,
      "Col": 3136,
      "alf": 3137,
      "▁가족": 3138,
      "▁통합": 3139,
      "▁final": 3140,
      "▁likely": 3141,
      "▁custom": 3142,
      "▁kind": 3143,
      "▁물론": 3144,
      "atures": 3145,
      "iver": 3146,
      "use": 3147,
      "▁admin": 3148,
      "▁죠": 3149,
      "most": 3150,
      "ued": 3151,
      "ux": 3152,
      "▁Man": 3153,
      ")\\\\": 3154,
      "▁scre": 3155,
      "러스": 3156,
      "▁exec": 3157,
      "▁known": 3158,
      "▁getting": 3159,
      "너지": 3160,
      "ored": 3161,
      "▁behav": 3162,
      "▁application": 3163,
      "▁May": 3164,
      "▁enough": 3165,
      "ividual": 3166,
      "▁수행": 3167,
      "ession": 3168,
      "▁past": 3169,
      "ties": 3170,
      "Com": 3171,
      "▁social": 3172,
      "rist": 3173,
      "▁자동차": 3174,
      "▁deal": 3175,
      "▁step": 3176,
      "▁until": 3177,
      "ener": 3178,
      "▁실제": 3179,
      "▁claim": 3180,
      "▁neg": 3181,
      "▁site": 3182,
      "ynam": 3183,
      "▁영업": 3184,
      "▁성공": 3185,
      "▁added": 3186,
      "asing": 3187,
      "어나": 3188,
      "▁루": 3189,
      "ude": 3190,
      "java": 3191,
      "▁스타": 3192,
      "▁document": 3193,
      "▁kill": 3194,
      "▁선정": 3195,
      "oph": 3196,
      "▁개정": 3197,
      "▁pract": 3198,
      "▁관광": 3199,
      "▁확보": 3200,
      "respon": 3201,
      "▁공정": 3202,
      "▁provide": 3203,
      "▁creat": 3204,
      "▁대회": 3205,
      "▁polic": 3206,
      "▁아닌": 3207,
      "angle": 3208,
      "▁작업": 3209,
      "▁stop": 3210,
      "▁significantly": 3211,
      "▁능": 3212,
      "▁sex": 3213,
      "▁노력": 3214,
      "ges": 3215,
      "\\\\[": 3216,
      "lation": 3217,
      "▁치료": 3218,
      "▁공사": 3219,
      "▁instead": 3220,
      "▁나오": 3221,
      "▁normal": 3222,
      "ources": 3223,
      "aily": 3224,
      "이드": 3225,
      "▁떨어": 3226,
      "▁Mon": 3227,
      "ror": 3228,
      "ender": 3229,
      "user": 3230,
      "▁review": 3231,
      "▁감염": 3232,
      "▁_": 3233,
      "opyright": 3234,
      "▁광주": 3235,
      "▁red": 3236,
      "▁못하": 3237,
      "▁mom": 3238,
      "▁Mar": 3239,
      "ero": 3240,
      "ae": 3241,
      "▁의료": 3242,
      "▁좀": 3243,
      "];\\": 3244,
      "though": 3245,
      "nAs": 3246,
      "js": 3247,
      "▁티": 3248,
      "▁영역": 3249,
      "▁이야": 3250,
      "▁..": 3251,
      "▁다면": 3252,
      "ences": 3253,
      "▁represent": 3254,
      "▁엄": 3255,
      "ho": 3256,
      "▁Min": 3257,
      "Text": 3258,
      "▁media": 3259,
      "ado": 3260,
      "uration": 3261,
      "▁shows": 3262,
      "▁확진": 3263,
      "▁LG": 3264,
      "▁drug": 3265,
      "▁along": 3266,
      "▁super": 3267,
      "▁격": 3268,
      "▁simple": 3269,
      "▁approach": 3270,
      "▁자유": 3271,
      "▁American": 3272,
      "▁책임": 3273,
      "▁common": 3274,
      "une": 3275,
      "▁sus": 3276,
      "▁Pl": 3277,
      "▁What": 3278,
      "▁이사": 3279,
      "▁print": 3280,
      "▁직원": 3281,
      "br": 3282,
      "▁further": 3283,
      "elta": 3284,
      "ension": 3285,
      "lim": 3286,
      "▁몸": 3287,
      "ules": 3288,
      "▁조치": 3289,
      "▁글로벌": 3290,
      "▁내년": 3291,
      "▁design": 3292,
      "▁lower": 3293,
      "▁often": 3294,
      "▁certain": 3295,
      "▁마음": 3296,
      "▁United": 3297,
      "▁across": 3298,
      "▁예산": 3299,
      "▁demon": 3300,
      "▁온라인": 3301,
      "▁Go": 3302,
      "▁보도": 3303,
      "nSo": 3304,
      "▁network": 3305,
      "▁seems": 3306,
      "▁보여": 3307,
      "atory": 3308,
      "AM": 3309,
      "▁결합": 3310,
      "▁sens": 3311,
      "▁품": 3312,
      "cThe": 3313,
      "▁area": 3314,
      "oman": 3315,
      "oll": 3316,
      "▁참석": 3317,
      "▁book": 3318,
      "▁future": 3319,
      "▁인천": 3320,
      "▁via": 3321,
      "file": 3322,
      "▁mor": 3323,
      "▁이렇": 3324,
      "▁service": 3325,
      "▁dou": 3326,
      "nFor": 3327,
      "ogen": 3328,
      "rences": 3329,
      "▁studies": 3330,
      "▁address": 3331,
      "▁With": 3332,
      "▁course": 3333,
      "▁자료": 3334,
      "upp": 3335,
      "artment": 3336,
      "cle": 3337,
      "roller": 3338,
      "▁본부": 3339,
      "ocal": 3340,
      "amma": 3341,
      "▁individual": 3342,
      "td": 3343,
      "▁body": 3344,
      "▁implement": 3345,
      "▁miss": 3346,
      "iving": 3347,
      "▁인터넷": 3348,
      "▁앞서": 3349,
      "▁away": 3350,
      "므로": 3351,
      "▁private": 3352,
      "cher": 3353,
      "▁She": 3354,
      "ley": 3355,
      "▁vot": 3356,
      "cho": 3357,
      "▁row": 3358,
      "▁tried": 3359,
      "▁역시": 3360,
      "▁correct": 3361,
      "▁mot": 3362,
      "▁디지": 3363,
      "▁city": 3364,
      "mber": 3365,
      "▁촉": 3366,
      "▁become": 3367,
      "▁market": 3368,
      "▁respons": 3369,
      "▁relations": 3370,
      "▁One": 3371,
      "nWhat": 3372,
      "curity": 3373,
      "AC": 3374,
      "ependent": 3375,
      "ino": 3376,
      "▁우려": 3377,
      "▁방안": 3378,
      "▁자금": 3379,
      "}(": 3380,
      "ogn": 3381,
      "▁meet": 3382,
      "▁선수": 3383,
      "ref": 3384,
      "medi": 3385,
      "▁range": 3386,
      "▁거리": 3387,
      ">>": 3388,
      "▁five": 3389,
      "▁환자": 3390,
      "▁Car": 3391,
      "▁predict": 3392,
      "ball": 3393,
      "▁mechan": 3394,
      "****": 3395,
      "▁어떻": 3396,
      "mu": 3397,
      "▁평균": 3398,
      "▁AP": 3399,
      "▁multiple": 3400,
      "▁이야기": 3401,
      "ection": 3402,
      "▁폴": 3403,
      "▁air": 3404,
      "▁source": 3405,
      "▁따라서": 3406,
      "▁measure": 3407,
      "▁thought": 3408,
      "▁어야": 3409,
      "▁points": 3410,
      "▁역할": 3411,
      "▁hold": 3412,
      "▁고려": 3413,
      "▁cult": 3414,
      "▁비롯": 3415,
      "▁once": 3416,
      "rapy": 3417,
      "ipp": 3418,
      "▁artic": 3419,
      "▁보인다": 3420,
      "▁however": 3421,
      "LL": 3422,
      "▁풀": 3423,
      "kr": 3424,
      "▁%,": 3425,
      "▁현지": 3426,
      "▁complex": 3427,
      "comm": 3428,
      "▁exc": 3429,
      "▁Pr": 3430,
      "▁money": 3431,
      "Im": 3432,
      "▁둘": 3433,
      "▁디지털": 3434,
      "abase": 3435,
      "bda": 3436,
      "▁display": 3437,
      "ids": 3438,
      "▁착": 3439,
      "▁install": 3440,
      "▁load": 3441,
      "aces": 3442,
      "▁death": 3443,
      "witter": 3444,
      "▁answer": 3445,
      "▁이제": 3446,
      "▁귀": 3447,
      "istic": 3448,
      "ij": 3449,
      "▁decre": 3450,
      "▁comput": 3451,
      "▁void": 3452,
      "▁수출": 3453,
      "\\\\\\\\": 3454,
      "ache": 3455,
      "▁video": 3456,
      "▁quant": 3457,
      "▁makes": 3458,
      "▁research": 3459,
      "▁아래": 3460,
      "▁concent": 3461,
      "▁former": 3462,
      "▁죽": 3463,
      "스크": 3464,
      "▁campaign": 3465,
      "raft": 3466,
      "aff": 3467,
      "ze": 3468,
      "enc": 3469,
      "▁max": 3470,
      "▁스마트": 3471,
      "▁기사": 3472,
      "▁fri": 3473,
      "istration": 3474,
      "ribution": 3475,
      "▁감독": 3476,
      "▁바로": 3477,
      "인트": 3478,
      "▁frequ": 3479,
      "acy": 3480,
      "▁pack": 3481,
      "▁수익": 3482,
      "body": 3483,
      "▁looking": 3484,
      "ditions": 3485,
      "sum": 3486,
      "ams": 3487,
      "▁observed": 3488,
      "ike": 3489,
      "▁recent": 3490,
      "▁reve": 3491,
      "▁complet": 3492,
      "▁anti": 3493,
      "디어": 3494,
      "df": 3495,
      "▁input": 3496,
      "++": 3497,
      "▁떠": 3498,
      "▁Democr": 3499,
      "AP": 3500,
      "stac": 3501,
      "▁반응": 3502,
      "▁제주": 3503,
      "▁인지": 3504,
      "▁아파": 3505,
      "▁값": 3506,
      "▁decl": 3507,
      "▁deb": 3508,
      "▁구체": 3509,
      "▁match": 3510,
      "▁spect": 3511,
      "▁shown": 3512,
      "▁바람직": 3513,
      "▁자체": 3514,
      "unch": 3515,
      "rame": 3516,
      "▁Joh": 3517,
      "▁die": 3518,
      "▁fix": 3519,
      "▁조직": 3520,
      "▁break": 3521,
      "stit": 3522,
      "▁기본": 3523,
      "unt": 3524,
      "News": 3525,
      "▁기반": 3526,
      "nWe": 3527,
      "lished": 3528,
      "ortun": 3529,
      "To": 3530,
      "def": 3531,
      "▁그것": 3532,
      "▁dri": 3533,
      "▁개최": 3534,
      "▁감사": 3535,
      "▁제어": 3536,
      "▁focus": 3537,
      "▁답": 3538,
      "rel": 3539,
      "▁어느": 3540,
      "▁bar": 3541,
      "▁하락": 3542,
      "▁내지": 3543,
      "now": 3544,
      "▁Ass": 3545,
      "▁young": 3546,
      "print": 3547,
      "▁String": 3548,
      "▁목적": 3549,
      "▁protein": 3550,
      "▁tax": 3551,
      "▁전달": 3552,
      "▁separ": 3553,
      "ev": 3554,
      "ensive": 3555,
      "이지": 3556,
      "Res": 3557,
      "▁교통": 3558,
      "met": 3559,
      "inc": 3560,
      "▁seem": 3561,
      "▁제작": 3562,
      "▁inhib": 3563,
      "▁subject": 3564,
      "▁running": 3565,
      "▁clinical": 3566,
      "▁Europe": 3567,
      "\\\",\\": 3568,
      "▁PC": 3569,
      "ks": 3570,
      "US": 3571,
      "ster": 3572,
      "▁반영": 3573,
      "▁코리아": 3574,
      "▁idea": 3575,
      "▁사랑": 3576,
      "▁states": 3577,
      "▁div": 3578,
      "▁아시아": 3579,
      "iter": 3580,
      "▁활성": 3581,
      "▁이해": 3582,
      "▁yet": 3583,
      "▁워": 3584,
      "▁members": 3585,
      "off": 3586,
      "진다": 3587,
      "ML": 3588,
      "▁전문가": 3589,
      "▁News": 3590,
      "▁비용": 3591,
      "rodu": 3592,
      "▁community": 3593,
      "▁came": 3594,
      "▁Pol": 3595,
      "onald": 3596,
      "▁든": 3597,
      "▁이렇게": 3598,
      "Type": 3599,
      "▁암": 3600,
      "▁인정": 3601,
      "▁냐": 3602,
      "▁compon": 3603,
      "▁복지": 3604,
      "chie": 3605,
      "ea": 3606,
      "▁위해서": 3607,
      "gest": 3608,
      "▁affect": 3609,
      "iation": 3610,
      "OT": 3611,
      "▁deg": 3612,
      "▁employ": 3613,
      "andom": 3614,
      "angu": 3615,
      "▁여부": 3616,
      "nAnd": 3617,
      "irm": 3618,
      "▁output": 3619,
      "▁series": 3620,
      "▁House": 3621,
      "itle": 3622,
      "▁표시": 3623,
      "▁port": 3624,
      "ply": 3625,
      "▁hom": 3626,
      "▁blood": 3627,
      "▁에너지": 3628,
      "▁돌아": 3629,
      "##": 3630,
      "▁assess": 3631,
      "▁이익": 3632,
      "▁Cent": 3633,
      "gr": 3634,
      "rix": 3635,
      "ports": 3636,
      "▁cancer": 3637,
      "abor": 3638,
      "atal": 3639,
      "▁Me": 3640,
      "▁아파트": 3641,
      "▁과학": 3642,
      "▁server": 3643,
      "▁cut": 3644,
      "▁author": 3645,
      "▁card": 3646,
      "lor": 3647,
      "II": 3648,
      "ba": 3649,
      "▁도입": 3650,
      "▁lay": 3651,
      "▁카드": 3652,
      "▁일정": 3653,
      "▁제한": 3654,
      "umber": 3655,
      "ste": 3656,
      "▁풍": 3657,
      "▁고정": 3658,
      "rypt": 3659,
      "▁대부": 3660,
      "▁index": 3661,
      "▁op": 3662,
      "sub": 3663,
      "▁demonstr": 3664,
      "▁사무": 3665,
      "Ob": 3666,
      "▁gr": 3667,
      "▁부담": 3668,
      "▁슬": 3669,
      "▁files": 3670,
      "▁Republic": 3671,
      "▁목표": 3672,
      "▁으로부터": 3673,
      "Tr": 3674,
      "▁today": 3675,
      "value": 3676,
      "▁아직": 3677,
      "init": 3678,
      "▁detect": 3679,
      "▁concer": 3680,
      "▁require": 3681,
      "▁상당": 3682,
      "▁주식": 3683,
      "ounds": 3684,
      "▁논의": 3685,
      "▁situ": 3686,
      "▁왕": 3687,
      "▁cannot": 3688,
      "▁중소": 3689,
      "la": 3690,
      "▁범위": 3691,
      "▁레이": 3692,
      "Qu": 3693,
      "▁diagn": 3694,
      "▁사항": 3695,
      "▁isn": 3696,
      "ana": 3697,
      "▁inside": 3698,
      "▁close": 3699,
      "▁팔": 3700,
      "▁story": 3701,
      "string": 3702,
      "▁growth": 3703,
      "▁parent": 3704,
      "iddle": 3705,
      "▁협의": 3706,
      "▁pat": 3707,
      "ape": 3708,
      "AD": 3709,
      "uf": 3710,
      "uments": 3711,
      "oms": 3712,
      "▁sequ": 3713,
      "▁viol": 3714,
      "▁위기": 3715,
      "itary": 3716,
      "▁조선": 3717,
      "ription": 3718,
      "▁les": 3719,
      "▁fig": 3720,
      "dro": 3721,
      "reen": 3722,
      "}^": 3723,
      "▁지수": 3724,
      "▁rather": 3725,
      "bit": 3726,
      "▁toget": 3727,
      "icle": 3728,
      "▁재판": 3729,
      "▁together": 3730,
      "▁special": 3731,
      "xchange": 3732,
      "ressed": 3733,
      "▁China": 3734,
      "▁자기": 3735,
      "▁규정": 3736,
      "nection": 3737,
      "▁structure": 3738,
      "▁등록": 3739,
      "▁created": 3740,
      "['": 3741,
      "▁immun": 3742,
      "mission": 3743,
      "▁art": 3744,
      "bre": 3745,
      "kexchange": 3746,
      "tered": 3747,
      "ights": 3748,
      "▁이전": 3749,
      "imum": 3750,
      "php": 3751,
      "▁coll": 3752,
      "▁역사": 3753,
      "begin": 3754,
      "▁probably": 3755,
      "stackexchange": 3756,
      "▁amount": 3757,
      "^{-": 3758,
      "amer": 3759,
      "▁related": 3760,
      "▁took": 3761,
      "ging": 3762,
      "nes": 3763,
      "▁und": 3764,
      "▁지난달": 3765,
      "▁Copyright": 3766,
      "▁왜": 3767,
      "based": 3768,
      "▁너무": 3769,
      "▁모델": 3770,
      "inding": 3771,
      "▁ever": 3772,
      "▁null": 3773,
      "▁magn": 3774,
      "▁expected": 3775,
      "라이": 3776,
      "▁전화": 3777,
      "inary": 3778,
      "▁홀": 3779,
      "▁∼": 3780,
      "▁pub": 3781,
      "▁문장": 3782,
      "▁어린": 3783,
      "▁Ste": 3784,
      "▁공공": 3785,
      "▁><": 3786,
      "▁host": 3787,
      "▁include": 3788,
      "oma": 3789,
      "UT": 3790,
      "comp": 3791,
      "▁쉽": 3792,
      "zy": 3793,
      "▁업계": 3794,
      "▁political": 3795,
      "ql": 3796,
      "▁지급": 3797,
      "rt": 3798,
      "Ph": 3799,
      "▁라면": 3800,
      "▁tum": 3801,
      "▁비교": 3802,
      "▁search": 3803,
      "▁propos": 3804,
      "▁부재": 3805,
      "▁York": 3806,
      "width": 3807,
      "SS": 3808,
      "▁쇼": 3809,
      "▁포인트": 3810,
      "ague": 3811,
      "▁eff": 3812,
      "ett": 3813,
      "▁가구": 3814,
      "▁출시": 3815,
      "▁Cont": 3816,
      "▁evidence": 3817,
      "▁System": 3818,
      "▁announ": 3819,
      "▁시대": 3820,
      "▁statement": 3821,
      "▁이뤄": 3822,
      "▁ang": 3823,
      "▁다만": 3824,
      "▁냉": 3825,
      "▁ut": 3826,
      "▁으로서": 3827,
      "ager": 3828,
      "CC": 3829,
      "▁[\\\"": 3830,
      "▁mater": 3831,
      "▁anything": 3832,
      "▁nuc": 3833,
      "rote": 3834,
      "▁집중": 3835,
      "▁wrong": 3836,
      "▁experience": 3837,
      "indows": 3838,
      "▁environment": 3839,
      "ds": 3840,
      "den": 3841,
      "▁Gu": 3842,
      "ober": 3843,
      "▁구축": 3844,
      "▁others": 3845,
      "▁needs": 3846,
      "▁improve": 3847,
      "▁회전": 3848,
      "▁benef": 3849,
      "igma": 3850,
      "sec": 3851,
      "▁protect": 3852,
      "▁EPA": 3853,
      "ura": 3854,
      "▁University": 3855,
      "▁history": 3856,
      "▁Co": 3857,
      "aled": 3858,
      "▁대부분": 3859,
      "▁더라": 3860,
      "▁standard": 3861,
      "irt": 3862,
      "▁Mc": 3863,
      "list": 3864,
      "hing": 3865,
      "주의": 3866,
      "ensity": 3867,
      "▁users": 3868,
      "자리": 3869,
      "▁Med": 3870,
      "\\\")": 3871,
      "iles": 3872,
      "▁occur": 3873,
      "iting": 3874,
      "▁동시": 3875,
      "down": 3876,
      "ires": 3877,
      "▁respectively": 3878,
      "urns": 3879,
      "▁wor": 3880,
      "▁tool": 3881,
      "▁conditions": 3882,
      "▁World": 3883,
      "bc": 3884,
      "andid": 3885,
      "▁배치": 3886,
      "▁징": 3887,
      "▁브랜드": 3888,
      "▁En": 3889,
      "▁performance": 3890,
      "▁Phys": 3891,
      "itted": 3892,
      "lo": 3893,
      "▁taken": 3894,
      "▁english": 3895,
      "▁재배": 3896,
      "ered": 3897,
      "wards": 3898,
      "mp": 3899,
      "▁$$\\\\": 3900,
      "▁comes": 3901,
      "EC": 3902,
      "▁요청": 3903,
      "]{},": 3904,
      "▁pain": 3905,
      "iction": 3906,
      "▁effic": 3907,
      "▁맡": 3908,
      "▁calcul": 3909,
      "▁표현": 3910,
      "▁대출": 3911,
      "):\\": 3912,
      "▁전했": 3913,
      "ashing": 3914,
      "sequ": 3915,
      "UR": 3916,
      "▁SK": 3917,
      "▁능력": 3918,
      "▁시켜": 3919,
      "▁서로": 3920,
      "[@": 3921,
      "PS": 3922,
      "used": 3923,
      "nThere": 3924,
      "▁State": 3925,
      "▁After": 3926,
      "▁전환": 3927,
      "plate": 3928,
      "▁six": 3929,
      "▁indu": 3930,
      "▁매우": 3931,
      "▁element": 3932,
      "▁km": 3933,
      "▁influ": 3934,
      "▁ur": 3935,
      "▁achie": 3936,
      "yth": 3937,
      "▁Qu": 3938,
      "▁Am": 3939,
      "▁인데": 3940,
      "▁someone": 3941,
      "App": 3942,
      "▁indust": 3943,
      "▁release": 3944,
      "▁Cal": 3945,
      "ilt": 3946,
      "▁mm": 3947,
      "▁entire": 3948,
      "▁false": 3949,
      "▁존재": 3950,
      "▁펀": 3951,
      "utes": 3952,
      "▁attempt": 3953,
      "▁initial": 3954,
      "▁exact": 3955,
      "▁기획": 3956,
      "▁확산": 3957,
      "▁half": 3958,
      "▁connect": 3959,
      "▁부동": 3960,
      "▁Eng": 3961,
      "▁사장": 3962,
      "},": 3963,
      "▁통신사": 3964,
      "▁Par": 3965,
      "izing": 3966,
      "▁혁신": 3967,
      "▁paper": 3968,
      "▁소비자": 3969,
      "▁방지": 3970,
      "▁moment": 3971,
      "▁©": 3972,
      "▁face": 3973,
      "▁addition": 3974,
      "equ": 3975,
      "▁factor": 3976,
      "▁bring": 3977,
      "like": 3978,
      "▁부문": 3979,
      "▁da": 3980,
      "▁clos": 3981,
      "▁프레": 3982,
      "▁수요": 3983,
      "▁sat": 3984,
      "')": 3985,
      "▁date": 3986,
      "▁장애": 3987,
      "▁players": 3988,
      "▁whole": 3989,
      "▁맛": 3990,
      "▁difference": 3991,
      "▁temper": 3992,
      "▁Part": 3993,
      "▁나타났": 3994,
      "▁pri": 3995,
      "▁required": 3996,
      "rc": 3997,
      "▁relationship": 3998,
      "OP": 3999,
      "▁message": 4000,
      "▁특징": 4001,
      "▁금리": 4002,
      "phi": 4003,
      "input": 4004,
      "aging": 4005,
      "▁necess": 4006,
      "무원": 4007,
      "▁dr": 4008,
      "▁believe": 4009,
      "iff": 4010,
      "▁almost": 4011,
      "▁반대": 4012,
      "▁started": 4013,
      "▁security": 4014,
      "기업": 4015,
      "▁어떻게": 4016,
      "▁퍼": 4017,
      "▁Do": 4018,
      "hel": 4019,
      "▁께": 4020,
      "plit": 4021,
      "▁vs": 4022,
      "npublic": 4023,
      "▁나가": 4024,
      "▁chall": 4025,
      "▁시험": 4026,
      "irl": 4027,
      "$\\": 4028,
      "apan": 4029,
      "▁prevent": 4030,
      "으나": 4031,
      "▁games": 4032,
      "▁우선": 4033,
      "ief": 4034,
      "▁실적": 4035,
      "▁asked": 4036,
      "▁food": 4037,
      "▁보내": 4038,
      "▁third": 4039,
      "▁행위": 4040,
      "▁검토": 4041,
      "▁이루어": 4042,
      "▁위험": 4043,
      "function": 4044,
      "▁청와": 4045,
      "post": 4046,
      "▁나온": 4047,
      "▁공식": 4048,
      "sing": 4049,
      "▁black": 4050,
      "▁청와대": 4051,
      "nWhen": 4052,
      "ospital": 4053,
      "▁positive": 4054,
      "▁씩": 4055,
      "olitics": 4056,
      "전히": 4057,
      "-\\\\": 4058,
      "AA": 4059,
      "▁weeks": 4060,
      "▁depend": 4061,
      "▁Sen": 4062,
      "▁캠": 4063,
      "fully": 4064,
      "▁측정": 4065,
      "▁compet": 4066,
      "OL": 4067,
      "reed": 4068,
      "▁patient": 4069,
      "ython": 4070,
      "ederal": 4071,
      "▁하루": 4072,
      "ervice": 4073,
      "▁systems": 4074,
      "▁party": 4075,
      "▁변경": 4076,
      "▁methods": 4077,
      "\\\";\\": 4078,
      "beta": 4079,
      "nimport": 4080,
      "ework": 4081,
      "▁우수": 4082,
      "uly": 4083,
      "▁config": 4084,
      "▁sam": 4085,
      "▁설정": 4086,
      "▁컴": 4087,
      "▁sw": 4088,
      "▁land": 4089,
      "▁얘": 4090,
      "▁재정": 4091,
      "verse": 4092,
      "xy": 4093,
      "▁matter": 4094,
      "oke": 4095,
      "▁appear": 4096,
      "▁제기": 4097,
      "▁circ": 4098,
      "▁Aust": 4099,
      "▁제시": 4100,
      "▁hours": 4101,
      "ribute": 4102,
      "▁issues": 4103,
      "▁Af": 4104,
      "▁region": 4105,
      "▁장기": 4106,
      "▁diffic": 4107,
      "▁즐": 4108,
      "▁Here": 4109,
      "▁부동산": 4110,
      "▁몇": 4111,
      "▁흐": 4112,
      "▁대로": 4113,
      "▁color": 4114,
      "lib": 4115,
      "▁screen": 4116,
      "Value": 4117,
      "▁만나": 4118,
      "▁비해": 4119,
      "▁various": 4120,
      "▁결국": 4121,
      "▁\\\\[": 4122,
      "▁합의": 4123,
      "omy": 4124,
      "▁night": 4125,
      "▁fem": 4126,
      "텐츠": 4127,
      "▁ce": 4128,
      "▁염": 4129,
      "▁그래서": 4130,
      "반기": 4131,
      "pm": 4132,
      "▁외부": 4133,
      "▁작품": 4134,
      "▁random": 4135,
      "▁valid": 4136,
      "▁command": 4137,
      "▁동일": 4138,
      "▁fav": 4139,
      "QL": 4140,
      "▁terms": 4141,
      "================": 4142,
      "▁뜻": 4143,
      "▁photo": 4144,
      "▁States": 4145,
      "▁Ser": 4146,
      "▁자산": 4147,
      "▁needed": 4148,
      "Sc": 4149,
      "▁인해": 4150,
      "amed": 4151,
      "ND": 4152,
      "▁공격": 4153,
      "lier": 4154,
      "rael": 4155,
      "▁du": 4156,
      "▁simply": 4157,
      "▁단지": 4158,
      "▁obtained": 4159,
      "comes": 4160,
      "▁background": 4161,
      "▁먼저": 4162,
      "▁write": 4163,
      "anced": 4164,
      "▁pret": 4165,
      "▁impact": 4166,
      "▁experiment": 4167,
      "▁flu": 4168,
      "▁Jan": 4169,
      "▁좌": 4170,
      "▁factors": 4171,
      "▁taking": 4172,
      "▁begin": 4173,
      "ops": 4174,
      "▁지정": 4175,
      "▁went": 4176,
      "▁헌": 4177,
      "▁쪽": 4178,
      "▁녹": 4179,
      "▁national": 4180,
      "▁으나": 4181,
      "▁아무": 4182,
      "▁자연": 4183,
      "▁코스": 4184,
      "▁신규": 4185,
      "odes": 4186,
      "olic": 4187,
      "▁numbers": 4188,
      "▁높이": 4189,
      "cin": 4190,
      "ris": 4191,
      "▁hit": 4192,
      "▁web": 4193,
      "▁dam": 4194,
      "▁included": 4195,
      "▁Ge": 4196,
      "term": 4197,
      "▁loss": 4198,
      "pecially": 4199,
      "▁물질": 4200,
      "▁Dep": 4201,
      "▁accept": 4202,
      "▁production": 4203,
      "▁problems": 4204,
      "▁첨": 4205,
      "▁규제": 4206,
      "▁effort": 4207,
      "▁lines": 4208,
      "Se": 4209,
      "ried": 4210,
      "▁questions": 4211,
      "▁신고": 4212,
      "▁수도": 4213,
      "▁bad": 4214,
      "▁cross": 4215,
      "sel": 4216,
      "esc": 4217,
      "script": 4218,
      "MS": 4219,
      "▁style": 4220,
      "/-": 4221,
      "sole": 4222,
      "%)": 4223,
      "▁North": 4224,
      "이션": 4225,
      "▁고용": 4226,
      "ico": 4227,
      "ese": 4228,
      "▁대전": 4229,
      "▁South": 4230,
      "▁National": 4231,
      "▁dest": 4232,
      "▁models": 4233,
      "▁events": 4234,
      "▁사례": 4235,
      "ography": 4236,
      "스터": 4237,
      "▁Int": 4238,
      "Mod": 4239,
      "▁자원": 4240,
      "▁지도": 4241,
      "▁los": 4242,
      "▁variable": 4243,
      "▁가스": 4244,
      "ounter": 4245,
      "▁담당": 4246,
      "▁fall": 4247,
      "sk": 4248,
      "▁surv": 4249,
      "pre": 4250,
      "nHere": 4251,
      "▁base": 4252,
      "late": 4253,
      "rror": 4254,
      "alt": 4255,
      "▁유럽": 4256,
      "▁특정": 4257,
      "nder": 4258,
      "acebook": 4259,
      "▁과제": 4260,
      "▁견": 4261,
      "pite": 4262,
      "▁cle": 4263,
      "▁Not": 4264,
      "enn": 4265,
      "▁반면": 4266,
      "reet": 4267,
      "▁itself": 4268,
      "▁article": 4269,
      "▁global": 4270,
      "▁도로": 4271,
      "▁dig": 4272,
      "▁properties": 4273,
      "▁candid": 4274,
      "ramework": 4275,
      "▁체결": 4276,
      "▁nothing": 4277,
      "tt": 4278,
      "▁얘기": 4279,
      "▁잔": 4280,
      "▁pick": 4281,
      "arrow": 4282,
      "▁front": 4283,
      "▁속도": 4284,
      "▁그런데": 4285,
      "▁live": 4286,
      "▁요소": 4287,
      "='": 4288,
      "ony": 4289,
      "▁everything": 4290,
      "▁공연": 4291,
      "ruction": 4292,
      "▁움": 4293,
      "aid": 4294,
      "▁Act": 4295,
      "']": 4296,
      "▁quick": 4297,
      "▁려는": 4298,
      "▁option": 4299,
      "▁ago": 4300,
      "▁쿠": 4301,
      "도체": 4302,
      "▁마다": 4303,
      "▁By": 4304,
      "▁property": 4305,
      "gu": 4306,
      "▁population": 4307,
      "-\\": 4308,
      "▁주변": 4309,
      "▁pers": 4310,
      "▁average": 4311,
      "▁remov": 4312,
      "▁해도": 4313,
      "▁인식": 4314,
      "▁fire": 4315,
      "ilities": 4316,
      "▁Then": 4317,
      "▁연구원": 4318,
      "▁경기도": 4319,
      "▁IT": 4320,
      "▁Intern": 4321,
      "ronic": 4322,
      "lected": 4323,
      "Aut": 4324,
      "▁외국인": 4325,
      "▁length": 4326,
      "inese": 4327,
      "ulated": 4328,
      "은행": 4329,
      "▁의사": 4330,
      "▁이것": 4331,
      "hem": 4332,
      "resh": 4333,
      "▁전시": 4334,
      "▁synt": 4335,
      "▁$(": 4336,
      "▁Mr": 4337,
      "▁pan": 4338,
      "▁phase": 4339,
      "▁ge": 4340,
      "▁인가": 4341,
      "rew": 4342,
      "▁Christ": 4343,
      "uge": 4344,
      "▁식품": 4345,
      "▁performed": 4346,
      "▁hyp": 4347,
      "▁당국": 4348,
      "▁경험": 4349,
      "바일": 4350,
      "▁히": 4351,
      "eter": 4352,
      "▁항공": 4353,
      "▁더불": 4354,
      "gl": 4355,
      "▁consist": 4356,
      "▁features": 4357,
      "▁particip": 4358,
      "▁제외": 4359,
      "rast": 4360,
      "mar": 4361,
      "▁마을": 4362,
      "▁aff": 4363,
      "▁롯": 4364,
      "▁Brit": 4365,
      "with": 4366,
      "▁모바일": 4367,
      "rite": 4368,
      "▁flow": 4369,
      "▁primary": 4370,
      "anguage": 4371,
      "▁services": 4372,
      "field": 4373,
      "▁lat": 4374,
      "▁functions": 4375,
      "But": 4376,
      "▁default": 4377,
      "nOn": 4378,
      "▁조건": 4379,
      "iqu": 4380,
      "▁width": 4381,
      "▁nat": 4382,
      "▁드러": 4383,
      "▁뛰": 4384,
      "nc": 4385,
      "▁기회": 4386,
      "▁디자": 4387,
      "ached": 4388,
      "▁Ne": 4389,
      "▁il": 4390,
      "▁analy": 4391,
      "▁Trans": 4392,
      "▁Bar": 4393,
      "path": 4394,
      "▁훈": 4395,
      "민국": 4396,
      "▁선보": 4397,
      "프트": 4398,
      "▁compan": 4399,
      "...\\": 4400,
      "▁students": 4401,
      "▁방침": 4402,
      "):": 4403,
      "ION": 4404,
      "한다": 4405,
      "▁참가": 4406,
      "utions": 4407,
      "거리": 4408,
      "▁인기": 4409,
      "IM": 4410,
      "▁outside": 4411,
      "▁Germ": 4412,
      "▁surface": 4413,
      "▁[**": 4414,
      "▁task": 4415,
      "clude": 4416,
      "ibrary": 4417,
      "▁주가": 4418,
      "▁십": 4419,
      "lambda": 4420,
      "().": 4421,
      "EM": 4422,
      "▁acid": 4423,
      "▁anyone": 4424,
      "▁보유": 4425,
      "▁퇴": 4426,
      "▁끌": 4427,
      "▁ID": 4428,
      "▁mechanism": 4429,
      "AB": 4430,
      "uel": 4431,
      "▁도움": 4432,
      "▁pressure": 4433,
      "▁fight": 4434,
      "▁por": 4435,
      "▁벤": 4436,
      "mathbb": 4437,
      "lying": 4438,
      "lin": 4439,
      "▁behind": 4440,
      "▁모르": 4441,
      "▁링": 4442,
      "▁original": 4443,
      "▁estab": 4444,
      "▁소재": 4445,
      "▁놀": 4446,
      "\\\")\\": 4447,
      "actions": 4448,
      "▁회복": 4449,
      "▁예방": 4450,
      "▁saying": 4451,
      "astic": 4452,
      "do": 4453,
      "▁mut": 4454,
      "▁대한민국": 4455,
      "▁차이": 4456,
      "▁차지": 4457,
      "▁라인": 4458,
      "aul": 4459,
      "▁Sun": 4460,
      "▁보고": 4461,
      "▁공장": 4462,
      "▁vict": 4463,
      "▁인간": 4464,
      "▁draw": 4465,
      "▁최종": 4466,
      "▁decision": 4467,
      "▁involved": 4468,
      "▁핵심": 4469,
      "CH": 4470,
      "rack": 4471,
      "▁stri": 4472,
      "▁청소": 4473,
      "sl": 4474,
      "▁received": 4475,
      "▁Just": 4476,
      "roph": 4477,
      "▁chem": 4478,
      "char": 4479,
      "▁heart": 4480,
      "▁가입": 4481,
      "▁덧": 4482,
      "▁click": 4483,
      "▁threat": 4484,
      "▁limit": 4485,
      "\\\\\\": 4486,
      "▁correspon": 4487,
      "▁War": 4488,
      "▁database": 4489,
      "▁parameters": 4490,
      "▁court": 4491,
      "apt": 4492,
      "By": 4493,
      "▁─": 4494,
      "▁prot": 4495,
      "▁CD": 4496,
      "▁협회": 4497,
      "▁펀드": 4498,
      "▁롯데": 4499,
      "raction": 4500,
      "▁도면": 4501,
      "▁구매": 4502,
      "▁regard": 4503,
      "▁비판": 4504,
      "▁공무원": 4505,
      "▁looks": 4506,
      "▁currently": 4507,
      "▁번역": 4508,
      "▁소속": 4509,
      "pper": 4510,
      "일리": 4511,
      "▁여행": 4512,
      "quest": 4513,
      "ication": 4514,
      "light": 4515,
      "men": 4516,
      "▁최초": 4517,
      "▁conduct": 4518,
      "▁webs": 4519,
      "Object": 4520,
      "▁화학": 4521,
      "▁America": 4522,
      "▁introdu": 4523,
      "idered": 4524,
      "▁ey": 4525,
      "atively": 4526,
      "ites": 4527,
      "▁recently": 4528,
      "▁mole": 4529,
      "dis": 4530,
      "▁펼": 4531,
      "▁bill": 4532,
      "▁column": 4533,
      "▁sort": 4534,
      "▁인상": 4535,
      "▁소득": 4536,
      "▁policy": 4537,
      "▁soft": 4538,
      "▁More": 4539,
      "▁foot": 4540,
      "ults": 4541,
      "bu": 4542,
      "▁City": 4543,
      "▁기념": 4544,
      "how": 4545,
      "▁learn": 4546,
      "▁online": 4547,
      "▁dynam": 4548,
      "▁균": 4549,
      "▁um": 4550,
      "▁측면": 4551,
      "\\\"]\\": 4552,
      "▁비율": 4553,
      "▁세요": 4554,
      "▁org": 4555,
      "atform": 4556,
      "▁솔": 4557,
      "▁뭐": 4558,
      "top": 4559,
      "▁anim": 4560,
      "▁단말": 4561,
      "▁track": 4562,
      "▁continue": 4563,
      "EO": 4564,
      "▁compar": 4565,
      "imens": 4566,
      "▁CO": 4567,
      "▁aim": 4568,
      "▁considered": 4569,
      "index": 4570,
      "▁script": 4571,
      "▁cause": 4572,
      "▁quite": 4573,
      "▁각종": 4574,
      "pped": 4575,
      "cast": 4576,
      "ken": 4577,
      "▁longer": 4578,
      "▁네트": 4579,
      "▁수단": 4580,
      "▁Google": 4581,
      "+\\\\": 4582,
      "▁포금": 4583,
      "▁player": 4584,
      "▁납": 4585,
      "▁behavior": 4586,
      "pose": 4587,
      "aving": 4588,
      "▁흡": 4589,
      "▁효율": 4590,
      "item": 4591,
      "▁mind": 4592,
      "▁emb": 4593,
      "_\\\\": 4594,
      "▁지나": 4595,
      "▁보건": 4596,
      "▁wanted": 4597,
      "▁삼성전자": 4598,
      "');\\": 4599,
      "▁절차": 4600,
      "____": 4601,
      "atives": 4602,
      "▁coming": 4603,
      "▁rights": 4604,
      "ashington": 4605,
      "어난": 4606,
      "run": 4607,
      "▁참조": 4608,
      "▁여자": 4609,
      "▁easy": 4610,
      "▁Cor": 4611,
      "▁static": 4612,
      "aced": 4613,
      "▁기판": 4614,
      "▁AS": 4615,
      "nK": 4616,
      "▁Ag": 4617,
      "▁지구": 4618,
      "erc": 4619,
      "▁숨": 4620,
      "▁love": 4621,
      "▁quality": 4622,
      "iding": 4623,
      "▁pict": 4624,
      "dom": 4625,
      "▁especially": 4626,
      "▁comment": 4627,
      "▁described": 4628,
      "nAl": 4629,
      "const": 4630,
      "span": 4631,
      "▁택": 4632,
      "▁올라": 4633,
      "▁반도체": 4634,
      "ria": 4635,
      "▁기초": 4636,
      "▁마이": 4637,
      "▁ill": 4638,
      "▁복수": 4639,
      "selves": 4640,
      "▁사망": 4641,
      "▁hyper": 4642,
      "▁폴리": 4643,
      "▁white": 4644,
      "ises": 4645,
      "ming": 4646,
      "▁음악": 4647,
      "▁달리": 4648,
      "▁的": 4649,
      "▁덧붙": 4650,
      "▁context": 4651,
      "▁부족": 4652,
      "▁',": 4653,
      "▁hope": 4654,
      "▁심사": 4655,
      "▁map": 4656,
      "▁ground": 4657,
      "iet": 4658,
      "▁◇": 4659,
      "ournal": 4660,
      "▁administration": 4661,
      "point": 4662,
      "▁dire": 4663,
      "▁저장": 4664,
      "nHe": 4665,
      "▁countries": 4666,
      "tee": 4667,
      "▁기다": 4668,
      "▁defined": 4669,
      "▁emer": 4670,
      "▁알려졌": 4671,
      "ili": 4672,
      "uit": 4673,
      "▁체계": 4674,
      "▁특성": 4675,
      "▁발견": 4676,
      "oto": 4677,
      "Man": 4678,
      "▁->": 4679,
      "▁Fig": 4680,
      "▁presence": 4681,
      "',\\": 4682,
      "ips": 4683,
      "▁avoid": 4684,
      "▁March": 4685,
      "osph": 4686,
      "▁increasing": 4687,
      "elt": 4688,
      "coin": 4689,
      "▁tiss": 4690,
      "istance": 4691,
      "nIs": 4692,
      "▁어렵": 4693,
      "▁status": 4694,
      "▁takes": 4695,
      "oe": 4696,
      "▁difficult": 4697,
      "group": 4698,
      "▁proced": 4699,
      "▁이미지": 4700,
      "▁Sch": 4701,
      "▁effective": 4702,
      "rown": 4703,
      "nTo": 4704,
      "rome": 4705,
      "▁고자": 4706,
      "▁query": 4707,
      "oul": 4708,
      "▁imm": 4709,
      "▁complete": 4710,
      "eds": 4711,
      "▁para": 4712,
      "query": 4713,
      "▁미디어": 4714,
      "▁제출": 4715,
      "▁directly": 4716,
      "▁대선": 4717,
      "▁콘텐츠": 4718,
      "▁색": 4719,
      "▁recept": 4720,
      "▁무엇": 4721,
      "▁fine": 4722,
      "▁estim": 4723,
      "sigma": 4724,
      "▁체험": 4725,
      "▁consum": 4726,
      "cular": 4727,
      "▁구비": 4728,
      "일보": 4729,
      "IV": 4730,
      "▁여야": 4731,
      "eration": 4732,
      "▁섬": 4733,
      "▁execut": 4734,
      "▁Per": 4735,
      "^{\\\\": 4736,
      "▁Israel": 4737,
      "▁강원": 4738,
      "▁br": 4739,
      "▁영국": 4740,
      "▁대신": 4741,
      "ica": 4742,
      "머니": 4743,
      "IL": 4744,
      "▁모듈": 4745,
      "▁의혹": 4746,
      "ha": 4747,
      "▁옥": 4748,
      "▁autom": 4749,
      "▁법원": 4750,
      "▁채널": 4751,
      "▁망": 4752,
      "▁words": 4753,
      "▁types": 4754,
      "▁medical": 4755,
      "▁Em": 4756,
      "▁예술": 4757,
      "bor": 4758,
      "▁companies": 4759,
      "▁Obama": 4760,
      "▁Fr": 4761,
      "▁ess": 4762,
      "more": 4763,
      "Item": 4764,
      "▁특허": 4765,
      "▁추천": 4766,
      "▁정신": 4767,
      "▁elements": 4768,
      "▁대형": 4769,
      "ii": 4770,
      "▁본격": 4771,
      "▁Mod": 4772,
      "▁성과": 4773,
      "just": 4774,
      "ades": 4775,
      "▁slow": 4776,
      "▁IN": 4777,
      "▁gene": 4778,
      "Class": 4779,
      "▁나타내": 4780,
      "ying": 4781,
      "▁못했": 4782,
      "aligned": 4783,
      "▁distribution": 4784,
      "동안": 4785,
      "oon": 4786,
      "uary": 4787,
      "▁현실": 4788,
      "▁contain": 4789,
      "▁force": 4790,
      "▁condition": 4791,
      "▁DNA": 4792,
      "OD": 4793,
      "aling": 4794,
      "▁images": 4795,
      "ocation": 4796,
      "▁recogn": 4797,
      "igen": 4798,
      "▁빌": 4799,
      "▁recomm": 4800,
      "▁얼마": 4801,
      "▁보였": 4802,
      "▁라이": 4803,
      "▁update": 4804,
      "린다": 4805,
      "})": 4806,
      "augh": 4807,
      "▁contact": 4808,
      "▁intern": 4809,
      "▁IS": 4810,
      "▁sem": 4811,
      "pat": 4812,
      "▁John": 4813,
      "▁플레이": 4814,
      "▁나왔": 4815,
      "▁developed": 4816,
      "▁El": 4817,
      "▁수입": 4818,
      "▁광고": 4819,
      "osition": 4820,
      "▁email": 4821,
      "▁언어": 4822,
      "▁논란": 4823,
      "▁오른": 4824,
      "▁Har": 4825,
      "▁tw": 4826,
      "▁분양": 4827,
      "▁온도": 4828,
      "▁최소": 4829,
      "▁더라도": 4830,
      "▁중소기업": 4831,
      "▁향후": 4832,
      "▁차원": 4833,
      "▁ult": 4834,
      "▁button": 4835,
      "elling": 4836,
      "▁갑": 4837,
      "▁민간": 4838,
      "bin": 4839,
      "▁instance": 4840,
      "▁sense": 4841,
      "▁aud": 4842,
      "▁낙": 4843,
      "▁ball": 4844,
      "}^{": 4845,
      "▁경남": 4846,
      "▁남자": 4847,
      "▁Dis": 4848,
      "▁box": 4849,
      "ING": 4850,
      "▁셀": 4851,
      "world": 4852,
      "ccording": 4853,
      "▁military": 4854,
      "array": 4855,
      "▁외교": 4856,
      "▁의한": 4857,
      "▁숙": 4858,
      "▁late": 4859,
      "▁차례": 4860,
      "fl": 4861,
      "He": 4862,
      "otic": 4863,
      "ulations": 4864,
      "▁과거": 4865,
      "▁lib": 4866,
      "map": 4867,
      "tex": 4868,
      "hood": 4869,
      "fd": 4870,
      "▁류": 4871,
      "▁매일": 4872,
      "▁사전": 4873,
      "ula": 4874,
      "▁통한": 4875,
      "arter": 4876,
      "▁etc": 4877,
      "▁빈": 4878,
      "lied": 4879,
      "xim": 4880,
      "▁item": 4881,
      "▁weight": 4882,
      "hol": 4883,
      "▁충분": 4884,
      "▁총리": 4885,
      "gs": 4886,
      "▁접촉": 4887,
      "▁희망": 4888,
      "▁officials": 4889,
      "▁예측": 4890,
      "▁바이러스": 4891,
      "▁%),": 4892,
      "▁전력": 4893,
      "▁repe": 4894,
      "igr": 4895,
      "▁음식": 4896,
      "▁푸": 4897,
      "This": 4898,
      "vere": 4899,
      "rim": 4900,
      "▁ens": 4901,
      "▁붙": 4902,
      "────────": 4903,
      "▁forward": 4904,
      "▁additional": 4905,
      "▁ability": 4906,
      "▁생성": 4907,
      "▁향상": 4908,
      "bol": 4909,
      "▁덧붙였": 4910,
      "▁연장": 4911,
      "▁배우": 4912,
      "▁마지": 4913,
      "▁mach": 4914,
      "><": 4915,
      "▁디자인": 4916,
      "▁educ": 4917,
      "▁내려": 4918,
      "▁interview": 4919,
      "▁Facebook": 4920,
      "lick": 4921,
      "▁building": 4922,
      "▁therapy": 4923,
      "gamma": 4924,
      "aker": 4925,
      "워크": 4926,
      "▁secret": 4927,
      "▁분리": 4928,
      "▁친구": 4929,
      "▁TH": 4930,
      "▁double": 4931,
      "▁rati": 4932,
      "▁겨": 4933,
      "▁gets": 4934,
      "▁film": 4935,
      "nV": 4936,
      "▁commit": 4937,
      "▁어린이": 4938,
      "▁Now": 4939,
      "▁조금": 4940,
      "▁White": 4941,
      "▁프리": 4942,
      "▁블록": 4943,
      "':": 4944,
      "▁회담": 4945,
      "▁투표": 4946,
      "▁시기": 4947,
      "▁촬": 4948,
      "▁정확": 4949,
      "▁일자리": 4950,
      "▁ways": 4951,
      "▁제안": 4952,
      "state": 4953,
      "▁근로": 4954,
      "nvar": 4955,
      "▁brain": 4956,
      "▁leaders": 4957,
      "▁꾸": 4958,
      "▁released": 4959,
      "....": 4960,
      "ils": 4961,
      "▁밤": 4962,
      "▁infe": 4963,
      "nSt": 4964,
      "nu": 4965,
      "▁training": 4966,
      "cWe": 4967,
      "ham": 4968,
      "소리": 4969,
      "▁Austral": 4970,
      "witch": 4971,
      "layout": 4972,
      "bt": 4973,
      "▁Oct": 4974,
      "▁memory": 4975,
      "▁법인": 4976,
      "▁데일리": 4977,
      "▁세대": 4978,
      "ners": 4979,
      "▁유치": 4980,
      "▁identified": 4981,
      "▁설립": 4982,
      "ned": 4983,
      "ternal": 4984,
      "▁II": 4985,
      "나라": 4986,
      "▁prior": 4987,
      "▁울산": 4988,
      "▁woman": 4989,
      "▁에선": 4990,
      "vant": 4991,
      "https": 4992,
      "▁fund": 4993,
      "▁구속": 4994,
      "▁Pe": 4995,
      "▁시즌": 4996,
      "▁곡": 4997,
      "trans": 4998,
      "where": 4999,
      "sq": 5000,
      "▁stay": 5001,
      "▁($": 5002,
      "▁Our": 5003,
      "▁election": 5004,
      "▁삶": 5005,
      "▁세상": 5006,
      "▁전년": 5007,
      "▁혜": 5008,
      "▁rates": 5009,
      "coming": 5010,
      "▁슈": 5011,
      "ressive": 5012,
      "▁pretty": 5013,
      "))\\": 5014,
      "▁/>\\": 5015,
      "▁인력": 5016,
      "CD": 5017,
      "eps": 5018,
      "▁mis": 5019,
      "▁mg": 5020,
      "▁수신": 5021,
      "▁청년": 5022,
      "▁가진": 5023,
      "▁provided": 5024,
      "▁bound": 5025,
      "sych": 5026,
      "pril": 5027,
      "▁연속": 5028,
      "▁gives": 5029,
      "orea": 5030,
      "ledge": 5031,
      "▁son": 5032,
      "▁공원": 5033,
      "▁청구": 5034,
      "▁alle": 5035,
      "▁Ang": 5036,
      "▁흥": 5037,
      "▁immedi": 5038,
      "▁했으며": 5039,
      "▁움직": 5040,
      "ida": 5041,
      "gram": 5042,
      "▁share": 5043,
      "▁의회": 5044,
      "File": 5045,
      "▁Twitter": 5046,
      "▁인도": 5047,
      "▁rev": 5048,
      "▁입력": 5049,
      "▁house": 5050,
      "▁height": 5051,
      "▁진단": 5052,
      "▁contract": 5053,
      "▁determine": 5054,
      "▁Of": 5055,
      "▁stra": 5056,
      "SE": 5057,
      "▁분위": 5058,
      "ech": 5059,
      "▁마지막": 5060,
      "▁Red": 5061,
      "Form": 5062,
      "soft": 5063,
      "▁products": 5064,
      "▁시청": 5065,
      "▁Sm": 5066,
      "attle": 5067,
      "▁Aug": 5068,
      "▁office": 5069,
      "nMy": 5070,
      "▁유통": 5071,
      "▁방역": 5072,
      "▁wrote": 5073,
      "PC": 5074,
      "▁서울시": 5075,
      "inter": 5076,
      "▁continu": 5077,
      "emb": 5078,
      "디오": 5079,
      "▁watch": 5080,
      "▁minutes": 5081,
      "aa": 5082,
      "size": 5083,
      "obile": 5084,
      "inton": 5085,
      "}{\\\\": 5086,
      "atus": 5087,
      "oud": 5088,
      "▁areas": 5089,
      "cm": 5090,
      "▁매수": 5091,
      "gra": 5092,
      "▁technology": 5093,
      "▁전해": 5094,
      "▁Washington": 5095,
      "cos": 5096,
      "▁Japan": 5097,
      "▁정당": 5098,
      "cial": 5099,
      "▁법률": 5100,
      "▁center": 5101,
      "▁fast": 5102,
      "▁찾아": 5103,
      "▁sett": 5104,
      "▁Get": 5105,
      "umb": 5106,
      "yna": 5107,
      "▁네트워크": 5108,
      "▁텍": 5109,
      "▁squ": 5110,
      "py": 5111,
      "▁므로": 5112,
      "▁통과": 5113,
      "▁술": 5114,
      "▁temperature": 5115,
      "earch": 5116,
      "RI": 5117,
      "▁store": 5118,
      "▁백신": 5119,
      "▁건물": 5120,
      "▁[*": 5121,
      "▁수용": 5122,
      "▁industry": 5123,
      "▁Val": 5124,
      "▁situation": 5125,
      "ottom": 5126,
      "▁팬": 5127,
      "Get": 5128,
      "ilon": 5129,
      "istics": 5130,
      "times": 5131,
      "▁시킬": 5132,
      "▁소리": 5133,
      "▁walk": 5134,
      "▁isol": 5135,
      "eq": 5136,
      "▁Will": 5137,
      "▁Stud": 5138,
      "mathcal": 5139,
      "▁EU": 5140,
      "▁financ": 5141,
      "▁개혁": 5142,
      "▁hospital": 5143,
      "▁스포": 5144,
      "▁cm": 5145,
      "▁coron": 5146,
      "ube": 5147,
      "▁사태": 5148,
      "▁constant": 5149,
      "As": 5150,
      "▁조합": 5151,
      "▁등장": 5152,
      "ario": 5153,
      "omb": 5154,
      "annel": 5155,
      "▁정의": 5156,
      "}_": 5157,
      "▁revealed": 5158,
      "▁Ant": 5159,
      "▁발언": 5160,
      "플레이": 5161,
      "rict": 5162,
      "Time": 5163,
      "▁끼": 5164,
      "▁」": 5165,
      "ATE": 5166,
      "OC": 5167,
      "▁border": 5168,
      "▁Sept": 5169,
      "active": 5170,
      "▁말씀": 5171,
      "▁가까": 5172,
      "▁billion": 5173,
      "▁greater": 5174,
      "▁ST": 5175,
      "▁poly": 5176,
      "▁led": 5177,
      ")-": 5178,
      "▁촬영": 5179,
      "></": 5180,
      "▁누리": 5181,
      "▁소개": 5182,
      "Ad": 5183,
      "pri": 5184,
      "▁sample": 5185,
      "▁전극": 5186,
      "▁프레임": 5187,
      "nAd": 5188,
      "▁머니": 5189,
      "▁upd": 5190,
      "▁'(": 5191,
      "▁협상": 5192,
      "▁평화": 5193,
      "Exception": 5194,
      "content": 5195,
      "▁센서": 5196,
      "▁reports": 5197,
      "▁device": 5198,
      "asons": 5199,
      "▁진출": 5200,
      "pir": 5201,
      "▁});\\": 5202,
      "▁earlier": 5203,
      "▁Mus": 5204,
      "ills": 5205,
      "board": 5206,
      "▁reduced": 5207,
      "▁reference": 5208,
      "ously": 5209,
      "▁wait": 5210,
      "▁Cong": 5211,
      "▁Gen": 5212,
      "▁Gl": 5213,
      "▁ste": 5214,
      "▁La": 5215,
      "▁대화": 5216,
      "▁출신": 5217,
      "aged": 5218,
      "TP": 5219,
      "itions": 5220,
      "▁construct": 5221,
      "vey": 5222,
      "▁라도": 5223,
      "oring": 5224,
      "▁sal": 5225,
      "▁디스": 5226,
      "▁느냐": 5227,
      "och": 5228,
      "▁금속": 5229,
      "▁options": 5230,
      "▁ter": 5231,
      "▁Data": 5232,
      "hern": 5233,
      "Al": 5234,
      "kn": 5235,
      "').": 5236,
      "▁싸": 5237,
      "iven": 5238,
      "sqrt": 5239,
      "icon": 5240,
      "데이": 5241,
      "Date": 5242,
      "MA": 5243,
      "▁June": 5244,
      "▁differences": 5245,
      "▁됩": 5246,
      "▁점검": 5247,
      "\\\").": 5248,
      "▁가정": 5249,
      "▁웨": 5250,
      "▁시킨": 5251,
      "▁꿈": 5252,
      "▁분위기": 5253,
      "▁「": 5254,
      "▁국정": 5255,
      "▁saf": 5256,
      "xx": 5257,
      "can": 5258,
      "▁중단": 5259,
      "▁legal": 5260,
      "▁인수": 5261,
      "aries": 5262,
      "▁lack": 5263,
      "▁아야": 5264,
      "▁주목": 5265,
      "▁빨": 5266,
      "▁파악": 5267,
      "▁위반": 5268,
      "▁Department": 5269,
      "▁vote": 5270,
      "▁NS": 5271,
      "▁active": 5272,
      "▁배출": 5273,
      "▁goal": 5274,
      "▁동작": 5275,
      "gor": 5276,
      "▁section": 5277,
      "ais": 5278,
      "▁cred": 5279,
      "▁resid": 5280,
      "aves": 5281,
      "▁겪": 5282,
      "▁treated": 5283,
      "(\\": 5284,
      "▁mention": 5285,
      "▁그녀": 5286,
      "▁vac": 5287,
      "▁price": 5288,
      "▁봐": 5289,
      "ening": 5290,
      "▁measured": 5291,
      "mark": 5292,
      "ancy": 5293,
      "▁Dav": 5294,
      "▁탑": 5295,
      "ourt": 5296,
      "▁pie": 5297,
      "이어": 5298,
      "▁opportun": 5299,
      "▁website": 5300,
      "▁las": 5301,
      "▁Russia": 5302,
      "▁보장": 5303,
      "▁applic": 5304,
      "럼프": 5305,
      "gery": 5306,
      "omega": 5307,
      "▁출력": 5308,
      "▁언급": 5309,
      "▁stage": 5310,
      "ivil": 5311,
      "▁complic": 5312,
      "nNow": 5313,
      "amb": 5314,
      "▁federal": 5315,
      "▁loop": 5316,
      "▁HT": 5317,
      "▁설계": 5318,
      "za": 5319,
      "▁jud": 5320,
      "▁dead": 5321,
      "▁April": 5322,
      "table": 5323,
      "anger": 5324,
      "▁거의": 5325,
      "▁그렇게": 5326,
      "▁Ab": 5327,
      "▁extra": 5328,
      "▁altern": 5329,
      "▁남북": 5330,
      "inally": 5331,
      "code": 5332,
      "sim": 5333,
      "▁IP": 5334,
      "▁regular": 5335,
      "▁determined": 5336,
      "ategory": 5337,
      "ecause": 5338,
      "clus": 5339,
      "▁홍보": 5340,
      "벤트": 5341,
      "▁uses": 5342,
      "▁누구": 5343,
      "리스": 5344,
      "▁details": 5345,
      "▁sen": 5346,
      "▁위하": 5347,
      "▁lost": 5348,
      "▁names": 5349,
      "avirus": 5350,
      "▁broad": 5351,
      "▁표면": 5352,
      "$$\\": 5353,
      "▁stim": 5354,
      "▁이벤트": 5355,
      "▁불법": 5356,
      "▁Post": 5357,
      "ester": 5358,
      "▁+/-": 5359,
      "▁질문": 5360,
      "▁제거": 5361,
      "▁변호": 5362,
      "▁밖에": 5363,
      "▁species": 5364,
      "▁거쳐": 5365,
      "▁assum": 5366,
      "Is": 5367,
      "▁UK": 5368,
      "▁제대로": 5369,
      "▁트럼프": 5370,
      "Act": 5371,
      "▁management": 5372,
      "▁personal": 5373,
      "▁토론": 5374,
      "▁send": 5375,
      "heck": 5376,
      "▁장비": 5377,
      "▁지사": 5378,
      "▁맥": 5379,
      "}$,": 5380,
      "▁practice": 5381,
      "eline": 5382,
      "▁official": 5383,
      "▁Some": 5384,
      "riday": 5385,
      "▁label": 5386,
      "▁language": 5387,
      "rho": 5388,
      "▁compl": 5389,
      "[]": 5390,
      "▁공기": 5391,
      "▁room": 5392,
      "fil": 5393,
      "▁followed": 5394,
      "ni": 5395,
      "▁혈": 5396,
      "▁원인": 5397,
      "bon": 5398,
      "▁changed": 5399,
      "theta": 5400,
      "urb": 5401,
      "$-": 5402,
      "▁깊": 5403,
      "▁pair": 5404,
      "ENT": 5405,
      "ients": 5406,
      "▁soon": 5407,
      "▁ir": 5408,
      "▁goes": 5409,
      "▁혹": 5410,
      "ulate": 5411,
      "▁shoot": 5412,
      "▁January": 5413,
      "rial": 5414,
      "▁현상": 5415,
      "ares": 5416,
      "aches": 5417,
      "PD": 5418,
      "ona": 5419,
      "▁Aut": 5420,
      "▁AI": 5421,
      "▁staff": 5422,
      "▁웃": 5423,
      "▁전날": 5424,
      "ride": 5425,
      "▁central": 5426,
      "▁prec": 5427,
      "▁India": 5428,
      "EL": 5429,
      "RA": 5430,
      "▁physical": 5431,
      "▁행동": 5432,
      "▁deep": 5433,
      "▁mid": 5434,
      "▁창업": 5435,
      "▁범죄": 5436,
      "And": 5437,
      "▁parameter": 5438,
      "▁생명": 5439,
      "▁신용": 5440,
      "pass": 5441,
      "▁여러분": 5442,
      "▁통상": 5443,
      "Add": 5444,
      "nWh": 5445,
      "▁ful": 5446,
      "▁useful": 5447,
      "▁칼": 5448,
      "▁fit": 5449,
      "▁정말": 5450,
      "▁appears": 5451,
      "▁됩니다": 5452,
      "▁member": 5453,
      "▁스포츠": 5454,
      "▁론": 5455,
      "▁지하": 5456,
      "▁confir": 5457,
      "▁July": 5458,
      "pid": 5459,
      "▁arrest": 5460,
      "▁Korea": 5461,
      "vertis": 5462,
      "▁mit": 5463,
      "▁구동": 5464,
      "▁금액": 5465,
      "%,": 5466,
      "cel": 5467,
      "▁serious": 5468,
      "▁인증": 5469,
      "다는": 5470,
      "▁원장": 5471,
      "▁investigation": 5472,
      "ouch": 5473,
      "▁gun": 5474,
      "▁부장": 5475,
      "▁의장": 5476,
      "▁fill": 5477,
      "▁문재": 5478,
      "▁자치": 5479,
      "합물": 5480,
      "version": 5481,
      "\\\\_": 5482,
      "▁넣": 5483,
      "▁전쟁": 5484,
      "Context": 5485,
      "▁전남": 5486,
      "oday": 5487,
      "Ind": 5488,
      "어도": 5489,
      "▁전통": 5490,
      "▁enh": 5491,
      "▁Count": 5492,
      "▁plas": 5493,
      "urch": 5494,
      "▁Sim": 5495,
      "▁하이": 5496,
      "▁har": 5497,
      "▁replace": 5498,
      "▁번호": 5499,
      "▁everyone": 5500,
      "▁exactly": 5501,
      "▁독일": 5502,
      "▁West": 5503,
      "▁°": 5504,
      "▁First": 5505,
      "db": 5506,
      "istry": 5507,
      "▁스트": 5508,
      "wise": 5509,
      "ags": 5510,
      "▁종목": 5511,
      "▁necessary": 5512,
      "iforn": 5513,
      "erve": 5514,
      "▁유닛": 5515,
      "For": 5516,
      "clusion": 5517,
      "politics": 5518,
      "▁Mark": 5519,
      "▁확정": 5520,
      "){\\": 5521,
      "▁star": 5522,
      "▁Rec": 5523,
      "▁깨": 5524,
      "MP": 5525,
      "▁케이": 5526,
      "nAn": 5527,
      "icles": 5528,
      "▁allowed": 5529,
      "TA": 5530,
      "▁themselves": 5531,
      "▁이르": 5532,
      "▁임대": 5533,
      "▁While": 5534,
      "▁훈련": 5535,
      "▁allows": 5536,
      "▁title": 5537,
      "▁From": 5538,
      "▁theory": 5539,
      "▁규칙": 5540,
      "(-": 5541,
      "User": 5542,
      "▁**": 5543,
      "sm": 5544,
      "}_{": 5545,
      "▁전송": 5546,
      "perty": 5547,
      "▁hor": 5548,
      "▁girl": 5549,
      "arily": 5550,
      "Image": 5551,
      "▁자세": 5552,
      "IA": 5553,
      "▁held": 5554,
      "▁previously": 5555,
      "▁Feb": 5556,
      "▁노조": 5557,
      "▁당신": 5558,
      "▁platform": 5559,
      "inate": 5560,
      "▁달성": 5561,
      "▁수상": 5562,
      "indu": 5563,
      "▁러시아": 5564,
      "gn": 5565,
      "▁whose": 5566,
      "ui": 5567,
      "▁려고": 5568,
      "▁보수": 5569,
      "aks": 5570,
      "▁선물": 5571,
      "▁heav": 5572,
      "▁싱": 5573,
      "weet": 5574,
      "}$$": 5575,
      "itation": 5576,
      "eg": 5577,
      "▁gas": 5578,
      "▁na": 5579,
      "▁sil": 5580,
      "FF": 5581,
      "▁feature": 5582,
      "▁멀": 5583,
      "link": 5584,
      "arning": 5585,
      "hesis": 5586,
      "▁findings": 5587,
      "▁throw": 5588,
      "▁회원": 5589,
      "▁antib": 5590,
      "select": 5591,
      "▁휴대": 5592,
      "▁workers": 5593,
      "rs": 5594,
      "inated": 5595,
      "▁client": 5596,
      "▁negative": 5597,
      "reate": 5598,
      "▁Rev": 5599,
      "▁mess": 5600,
      "▁해양": 5601,
      "ental": 5602,
      "IP": 5603,
      "▁leave": 5604,
      "nab": 5605,
      "▁경북": 5606,
      "▁올림": 5607,
      "atur": 5608,
      "▁작용": 5609,
      "▁colle": 5610,
      "▁근무": 5611,
      "▁hydro": 5612,
      "▁worked": 5613,
      "▁주제": 5614,
      "cor": 5615,
      "▁scale": 5616,
      "▁mal": 5617,
      "▁density": 5618,
      "▁연기": 5619,
      "▁List": 5620,
      "uesday": 5621,
      "unk": 5622,
      "▁수지": 5623,
      "));\\": 5624,
      "▁버스": 5625,
      "apter": 5626,
      "gorith": 5627,
      "페이지": 5628,
      "▁seg": 5629,
      "▁studied": 5630,
      "▁Pre": 5631,
      "pective": 5632,
      "▁vit": 5633,
      "▁덕": 5634,
      "tor": 5635,
      "▁Friday": 5636,
      "▁홈페이지": 5637,
      "▁caused": 5638,
      "▁☞": 5639,
      "ded": 5640,
      "▁wasn": 5641,
      "cil": 5642,
      "ias": 5643,
      "▁remove": 5644,
      "▁부정": 5645,
      "▁capt": 5646,
      "▁maint": 5647,
      "▁남성": 5648,
      "▁phone": 5649,
      "▁원내": 5650,
      "▁tour": 5651,
      "haps": 5652,
      "encies": 5653,
      "▁적어도": 5654,
      "▁획": 5655,
      "▁건축": 5656,
      "▁대하": 5657,
      "▁meeting": 5658,
      "reng": 5659,
      "▁프랑": 5660,
      "▁figure": 5661,
      "▁component": 5662,
      "▁favor": 5663,
      "ras": 5664,
      "▁rules": 5665,
      "▁announced": 5666,
      "▁총장": 5667,
      "▁상부": 5668,
      "▁{\\\\": 5669,
      "▁written": 5670,
      "▁독자": 5671,
      "▁location": 5672,
      "▁투입": 5673,
      "▁Inst": 5674,
      "버지": 5675,
      "iant": 5676,
      "▁Let": 5677,
      "ira": 5678,
      "▁economic": 5679,
      "ato": 5680,
      "▁offer": 5681,
      "▁graph": 5682,
      "▁지식": 5683,
      "▁sympt": 5684,
      "▁PD": 5685,
      "▁Des": 5686,
      "시지": 5687,
      "▁만든": 5688,
      "ille": 5689,
      "▁인한": 5690,
      "▁mys": 5691,
      "▁봤": 5692,
      "▁어려운": 5693,
      "▁엘": 5694,
      "▁natural": 5695,
      ")=": 5696,
      "ystem": 5697,
      "▁조절": 5698,
      "▁사상": 5699,
      "cell": 5700,
      "Key": 5701,
      "▁찬": 5702,
      "rees": 5703,
      "▁items": 5704,
      "\\\",\\\"": 5705,
      "▁무역": 5706,
      "mail": 5707,
      "ifornia": 5708,
      "**]{},": 5709,
      "▁java": 5710,
      "erate": 5711,
      "ius": 5712,
      "▁concentr": 5713,
      "oding": 5714,
      "▁completely": 5715,
      "▁calls": 5716,
      "▁Mich": 5717,
      "android": 5718,
      "▁Sub": 5719,
      "▁Congress": 5720,
      "▁벗": 5721,
      "▁hot": 5722,
      "▁samples": 5723,
      "▁nearly": 5724,
      "iam": 5725,
      "host": 5726,
      "▁playing": 5727,
      "color": 5728,
      "▁컴퓨": 5729,
      "▁sn": 5730,
      "isf": 5731,
      "▁탐": 5732,
      "▁unique": 5733,
      "force": 5734,
      "▁highly": 5735,
      "▁중량": 5736,
      "▁built": 5737,
      "▁engine": 5738,
      "ements": 5739,
      "NN": 5740,
      "없이": 5741,
      "▁Monday": 5742,
      "▁latest": 5743,
      "hest": 5744,
      "plant": 5745,
      "▁node": 5746,
      "▁인근": 5747,
      "▁saw": 5748,
      "\\\".": 5749,
      "▁visit": 5750,
      "▁variables": 5751,
      "using": 5752,
      "▁유리": 5753,
      "▁재산": 5754,
      "▁체육": 5755,
      "Lay": 5756,
      "▁push": 5757,
      "▁Sw": 5758,
      "▁reach": 5759,
      "ethyl": 5760,
      "xi": 5761,
      "▁목소리": 5762,
      "▁published": 5763,
      "▁His": 5764,
      "▁window": 5765,
      "▁제보": 5766,
      "▁공항": 5767,
      "cf": 5768,
      "ceed": 5769,
      "▁청소년": 5770,
      "PR": 5771,
      "istan": 5772,
      "▁pul": 5773,
      "ean": 5774,
      "▁remains": 5775,
      "fered": 5776,
      "vention": 5777,
      "▁졸": 5778,
      "▁폼": 5779,
      "▁콜": 5780,
      "▁출연": 5781,
      "▁adding": 5782,
      "▁비중": 5783,
      "▁Clinton": 5784,
      "▁Donald": 5785,
      "newsis": 5786,
      "image": 5787,
      "Delta": 5788,
      "▁Since": 5789,
      "Query": 5790,
      "press": 5791,
      "▁흔": 5792,
      "▁들어가": 5793,
      "ondon": 5794,
      "▁어디": 5795,
      "icrosoft": 5796,
      "▁fields": 5797,
      "▁selected": 5798,
      "▁thus": 5799,
      "Controller": 5800,
      "itiz": 5801,
      "▁공유": 5802,
      "▁presented": 5803,
      "button": 5804,
      "▁drop": 5805,
      "Path": 5806,
      "▁ratio": 5807,
      "reme": 5808,
      "rum": 5809,
      "▁접종": 5810,
      "▁leading": 5811,
      "mitted": 5812,
      "infty": 5813,
      "▁music": 5814,
      "▁Char": 5815,
      "true": 5816,
      "style": 5817,
      "▁stress": 5818,
      "▁larger": 5819,
      "학교": 5820,
      "ascular": 5821,
      "▁단위": 5822,
      "ocuments": 5823,
      "urrent": 5824,
      "레스": 5825,
      "▁통화": 5826,
      "▁Fl": 5827,
      "ellig": 5828,
      "▁friend": 5829,
      "▁European": 5830,
      "▁잇": 5831,
      "▁mode": 5832,
      "ocol": 5833,
      "ibly": 5834,
      "')\\": 5835,
      "▁independent": 5836,
      "LECT": 5837,
      "▁아요": 5838,
      "▁Tuesday": 5839,
      "▁Wed": 5840,
      "▁caption": 5841,
      "▁기구": 5842,
      "option": 5843,
      "▁provides": 5844,
      "▁대체": 5845,
      "▁올림픽": 5846,
      "▁San": 5847,
      "▁◆": 5848,
      "▁objects": 5849,
      "▁failed": 5850,
      "▁얼굴": 5851,
      "▁save": 5852,
      "▁sup": 5853,
      "▁contains": 5854,
      "▁popular": 5855,
      ".*": 5856,
      "uth": 5857,
      "▁쇼핑": 5858,
      "▁profess": 5859,
      "▁디스플레이": 5860,
      "osure": 5861,
      "FA": 5862,
      "▁testing": 5863,
      "acity": 5864,
      "▁투자자": 5865,
      "Array": 5866,
      "▁poll": 5867,
      "▁limited": 5868,
      "▁을까": 5869,
      "▁호텔": 5870,
      "rangle": 5871,
      "▁driv": 5872,
      "▁투데이": 5873,
      "leep": 5874,
      "▁laws": 5875,
      "▁prep": 5876,
      "arr": 5877,
      "▁Chinese": 5878,
      "▁identify": 5879,
      "▁starting": 5880,
      "';\\": 5881,
      "call": 5882,
      "▁실장": 5883,
      "My": 5884,
      "osc": 5885,
      "▁stru": 5886,
      "▁foreign": 5887,
      "▁작가": 5888,
      "▁pattern": 5889,
      "nThat": 5890,
      "lig": 5891,
      "▁Reg": 5892,
      "▁essential": 5893,
      "▁September": 5894,
      "related": 5895,
      "emic": 5896,
      "▁경쟁력": 5897,
      "▁pull": 5898,
      "▁mix": 5899,
      "▁overall": 5900,
      "▁듣": 5901,
      "▁Park": 5902,
      "▁conv": 5903,
      "▁worth": 5904,
      "▁comments": 5905,
      "▁니까": 5906,
      "▁재료": 5907,
      "▁scient": 5908,
      "▁transfer": 5909,
      "▁surgery": 5910,
      "▁unc": 5911,
      "▁sites": 5912,
      "▁유기": 5913,
      "▁파이": 5914,
      "▁넘어": 5915,
      "▁밸": 5916,
      "▁note": 5917,
      "▁international": 5918,
      "▁의하": 5919,
      "ovember": 5920,
      "▁그대로": 5921,
      "irth": 5922,
      "▁proposed": 5923,
      "▁newsis": 5924,
      "▁Cons": 5925,
      "igration": 5926,
      "num": 5927,
      "▁피부": 5928,
      "▁국방": 5929,
      "▁multi": 5930,
      "ael": 5931,
      "▁usually": 5932,
      "▁contribut": 5933,
      "▁보조": 5934,
      "▁복합": 5935,
      "main": 5936,
      "vis": 5937,
      "orph": 5938,
      "▁root": 5939,
      "max": 5940,
      "▁Pal": 5941,
      "▁아서": 5942,
      "▁국무": 5943,
      "▁$$": 5944,
      "▁그동안": 5945,
      "Event": 5946,
      "othe": 5947,
      "▁mer": 5948,
      "FL": 5949,
      "ytes": 5950,
      "▁perfect": 5951,
      "▁sche": 5952,
      "▁cyt": 5953,
      "partial": 5954,
      "▁앵": 5955,
      "젝트": 5956,
      "length": 5957,
      "▁trade": 5958,
      "▁我": 5959,
      "▁교사": 5960,
      "▁speed": 5961,
      "▁tests": 5962,
      "IG": 5963,
      "▁seek": 5964,
      "▁도전": 5965,
      "▁himself": 5966,
      "nesday": 5967,
      "▁matrix": 5968,
      "▁upon": 5969,
      "▁주인": 5970,
      "akers": 5971,
      "▁주도": 5972,
      "▁기기": 5973,
      "▁인터뷰": 5974,
      "▁August": 5975,
      "▁소방": 5976,
      "▁killed": 5977,
      "▁experien": 5978,
      "ln": 5979,
      "position": 5980,
      "▁할인": 5981,
      "▁Windows": 5982,
      "▁KT": 5983,
      "▁추정": 5984,
      "ped": 5985,
      "▁thread": 5986,
      "▁Java": 5987,
      "▁소송": 5988,
      "▁psych": 5989,
      "▁졌": 5990,
      "▁connection": 5991,
      "ky": 5992,
      "▁critical": 5993,
      "▁became": 5994,
      "▁attention": 5995,
      "▁부품": 5996,
      "▁Bre": 5997,
      "icit": 5998,
      "▁phen": 5999,
      "▁virus": 6000,
      "▁재단": 6001,
      "acters": 6002,
      "▁경향": 6003,
      "vertisement": 6004,
      "▁대변": 6005,
      "▁Afric": 6006,
      "▁Iran": 6007,
      "Of": 6008,
      "▁크기": 6009,
      "▁피해자": 6010,
      "▁format": 6011,
      "delta": 6012,
      "▁tim": 6013,
      "▁낸": 6014,
      "▁텔": 6015,
      "▁nation": 6016,
      "▁일단": 6017,
      "ursday": 6018,
      "RL": 6019,
      "▁tumor": 6020,
      "ollow": 6021,
      "okes": 6022,
      "▁detail": 6023,
      "parent": 6024,
      "▁buy": 6025,
      "▁setting": 6026,
      "rolled": 6027,
      "▁선언": 6028,
      "▁집단": 6029,
      "▁믿": 6030,
      "▁living": 6031,
      "▁rats": 6032,
      "known": 6033,
      "reement": 6034,
      "spec": 6035,
      "start": 6036,
      "atically": 6037,
      ".)": 6038,
      "▁console": 6039,
      "▁poor": 6040,
      "▁운용": 6041,
      "\\\"></": 6042,
      "upport": 6043,
      "▁follows": 6044,
      "▁한정": 6045,
      "▁demand": 6046,
      "▁MS": 6047,
      "cIt": 6048,
      "▁못한": 6049,
      "▁played": 6050,
      "BA": 6051,
      "BI": 6052,
      "▁plans": 6053,
      "▁학습": 6054,
      "▁travel": 6055,
      "▁패턴": 6056,
      "hand": 6057,
      "ici": 6058,
      "▁began": 6059,
      "ROM": 6060,
      "▁clean": 6061,
      "mathbf": 6062,
      "▁채용": 6063,
      "▁surpr": 6064,
      "▁protest": 6065,
      "▁메시지": 6066,
      "▁pen": 6067,
      "▁상담": 6068,
      "nn": 6069,
      "▁둔": 6070,
      "▁cover": 6071,
      "▁강력": 6072,
      "▁시도": 6073,
      "▁이달": 6074,
      "▁익": 6075,
      "가지": 6076,
      "▁echo": 6077,
      "▁prop": 6078,
      "▁err": 6079,
      "▁전용": 6080,
      "TN": 6081,
      "▁conserv": 6082,
      "Sh": 6083,
      "▁플랫": 6084,
      "▁cardi": 6085,
      "▁financial": 6086,
      "▁Court": 6087,
      "▁October": 6088,
      "ju": 6089,
      "▁liter": 6090,
      "ranch": 6091,
      "see": 6092,
      "ponent": 6093,
      "open": 6094,
      "▁oil": 6095,
      "▁aw": 6096,
      "▁although": 6097,
      "cember": 6098,
      "▁remain": 6099,
      "▁가량": 6100,
      "▁transition": 6101,
      "▁fib": 6102,
      "▁couple": 6103,
      "▁spin": 6104,
      "▁판결": 6105,
      "▁neigh": 6106,
      "▁독립": 6107,
      "▁wall": 6108,
      "▁ones": 6109,
      "▁unit": 6110,
      "▁veh": 6111,
      "▁취업": 6112,
      "zz": 6113,
      "▁feed": 6114,
      "립니다": 6115,
      "▁cat": 6116,
      "OU": 6117,
      "overn": 6118,
      "▁다르": 6119,
      "check": 6120,
      "▁parts": 6121,
      "▁국토": 6122,
      "▁Bo": 6123,
      "▁mother": 6124,
      "▁인구": 6125,
      "▁frequency": 6126,
      "▁creating": 6127,
      "▁damage": 6128,
      "▁jo": 6129,
      "agon": 6130,
      "$.\\": 6131,
      "page": 6132,
      "▁confirmed": 6133,
      "▁tissue": 6134,
      "스로": 6135,
      "▁체제": 6136,
      "▁나타낸": 6137,
      "rie": 6138,
      "▁sequence": 6139,
      "▁nuclear": 6140,
      "▁읽": 6141,
      "▁오히": 6142,
      "▁knowledge": 6143,
      "pty": 6144,
      "▁basis": 6145,
      "▁restr": 6146,
      "▁choice": 6147,
      "▁행복": 6148,
      "▁━": 6149,
      "▁신뢰": 6150,
      "▁여전히": 6151,
      "▁CH": 6152,
      "▁주로": 6153,
      "▁오히려": 6154,
      "orage": 6155,
      "▁집행": 6156,
      "▁actual": 6157,
      "urg": 6158,
      "▁IC": 6159,
      "▁obvious": 6160,
      "▁streng": 6161,
      "nHowever": 6162,
      "miss": 6163,
      "▁됨": 6164,
      "▁culture": 6165,
      "▁counter": 6166,
      "Le": 6167,
      "mathrm": 6168,
      "▁프랑스": 6169,
      "ategy": 6170,
      "rian": 6171,
      "berg": 6172,
      "▁Tra": 6173,
      "▁Wednesday": 6174,
      "local": 6175,
      "ka": 6176,
      "▁증시": 6177,
      "▁열리": 6178,
      "}=": 6179,
      "▁자본": 6180,
      "▁November": 6181,
      "▁easily": 6182,
      "arth": 6183,
      "▁강남": 6184,
      "▁불과": 6185,
      "▁다수": 6186,
      "▁<<": 6187,
      "▁applied": 6188,
      "anned": 6189,
      "ught": 6190,
      "rupt": 6191,
      "GF": 6192,
      "actory": 6193,
      "▁Minister": 6194,
      "Button": 6195,
      "TE": 6196,
      "▁achieve": 6197,
      "▁binding": 6198,
      "▁safe": 6199,
      "which": 6200,
      "▁dog": 6201,
      "▁novel": 6202,
      "▁셨": 6203,
      "▁과장": 6204,
      "aur": 6205,
      "Un": 6206,
      "▁safety": 6207,
      "DA": 6208,
      "enge": 6209,
      "▁vo": 6210,
      "aming": 6211,
      "anged": 6212,
      "▁ox": 6213,
      "undred": 6214,
      "Box": 6215,
      "▁refer": 6216,
      "▁이때": 6217,
      "▁alone": 6218,
      "emplate": 6219,
      "▁dos": 6220,
      "▁동물": 6221,
      "▁해석": 6222,
      "▁concentration": 6223,
      "ees": 6224,
      "HT": 6225,
      "▁완화": 6226,
      "▁relative": 6227,
      "▁다며": 6228,
      "▁Thursday": 6229,
      "▁등급": 6230,
      "▁(\\": 6231,
      "▁zero": 6232,
      "▁arch": 6233,
      "ociety": 6234,
      "▁쯤": 6235,
      "stance": 6236,
      "▁California": 6237,
      "▁promot": 6238,
      "▁influence": 6239,
      "amin": 6240,
      "▁쉬": 6241,
      "non": 6242,
      "▁software": 6243,
      "▁기재": 6244,
      "▁CEO": 6245,
      "PO": 6246,
      "auto": 6247,
      "▁쌍": 6248,
      "▁algorith": 6249,
      "▁실제로": 6250,
      "▁의무": 6251,
      "▁approxim": 6252,
      "▁shot": 6253,
      "▁국립": 6254,
      "▁neut": 6255,
      "페인": 6256,
      "▁소프트": 6257,
      "▁접근": 6258,
      "▁band": 6259,
      "itis": 6260,
      "▁defin": 6261,
      "▁solid": 6262,
      "aly": 6263,
      "▁rot": 6264,
      "▁brow": 6265,
      "▁understanding": 6266,
      "어들": 6267,
      "▁learning": 6268,
      "▁성분": 6269,
      "▁computer": 6270,
      "server": 6271,
      "▁작성": 6272,
      "▁friends": 6273,
      "▁round": 6274,
      "▁please": 6275,
      "je": 6276,
      "▁race": 6277,
      "▁material": 6278,
      "rig": 6279,
      "▁missing": 6280,
      "▁보상": 6281,
      "rab": 6282,
      "ders": 6283,
      "mm": 6284,
      "▁프로젝트": 6285,
      "▁유명": 6286,
      "▁Comp": 6287,
      "▁Russian": 6288,
      "▁particularly": 6289,
      "fficient": 6290,
      "HP": 6291,
      "▁동기": 6292,
      "ara": 6293,
      "▁시각": 6294,
      "▁별도": 6295,
      "▁},\\": 6296,
      "IR": 6297,
      "▁basic": 6298,
      "oken": 6299,
      "▁board": 6300,
      "ymph": 6301,
      "▁produced": 6302,
      "estern": 6303,
      "▁hop": 6304,
      "▁Off": 6305,
      "▁화제": 6306,
      "▁wants": 6307,
      "induced": 6308,
      "▁concept": 6309,
      "▁빛": 6310,
      "▁머리": 6311,
      "▁returns": 6312,
      "opl": 6313,
      "▁소식": 6314,
      "Color": 6315,
      "▁서버": 6316,
      "▁부모": 6317,
      "ouncil": 6318,
      "With": 6319,
      "ruary": 6320,
      "▁수석": 6321,
      "▁enter": 6322,
      "▁charge": 6323,
      "umns": 6324,
      "▁road": 6325,
      "Error": 6326,
      "chers": 6327,
      "▁director": 6328,
      "▁차별": 6329,
      "▁전원": 6330,
      "▁혜택": 6331,
      "▁비슷": 6332,
      "▁김정": 6333,
      "▁integr": 6334,
      "▁mill": 6335,
      "▁sentences": 6336,
      "tau": 6337,
      "▁스마트폰": 6338,
      "iat": 6339,
      "▁trig": 6340,
      "▁writing": 6341,
      "▁mag": 6342,
      "▁gave": 6343,
      "▁po": 6344,
      "▁sexual": 6345,
      "▁Bit": 6346,
      "Bl": 6347,
      "SON": 6348,
      "▁Health": 6349,
      "▁plus": 6350,
      "^\\\\": 6351,
      "▁victim": 6352,
      "web": 6353,
      "▁마스크": 6354,
      "▁형상": 6355,
      "▁공모": 6356,
      "You": 6357,
      "State": 6358,
      "▁스스로": 6359,
      "▁rat": 6360,
      "SA": 6361,
      "▁capital": 6362,
      "▁아동": 6363,
      "▁Republican": 6364,
      "▁stream": 6365,
      "ULL": 6366,
      "▁vent": 6367,
      "▁Canada": 6368,
      "케팅": 6369,
      "▁characters": 6370,
      "메라": 6371,
      "overed": 6372,
      "eda": 6373,
      "▁direction": 6374,
      "▁곧": 6375,
      "▁아들": 6376,
      "han": 6377,
      "▁임금": 6378,
      "De": 6379,
      "otal": 6380,
      "▁December": 6381,
      "▁leader": 6382,
      "▁삽": 6383,
      "▁linear": 6384,
      "urity": 6385,
      "▁operation": 6386,
      "▁arter": 6387,
      "▁cycl": 6388,
      "▁signal": 6389,
      "Element": 6390,
      "nAfter": 6391,
      "▁van": 6392,
      "▁club": 6393,
      "izes": 6394,
      "대표": 6395,
      "olar": 6396,
      "ialog": 6397,
      "mic": 6398,
      "▁작년": 6399,
      "▁reduce": 6400,
      "▁designed": 6401,
      "▁chance": 6402,
      "ened": 6403,
      "▁선고": 6404,
      "▁(@": 6405,
      "ano": 6406,
      "▁sold": 6407,
      "▁유입": 6408,
      "▁컴퓨터": 6409,
      "▁middle": 6410,
      "fo": 6411,
      "▁Ca": 6412,
      "▁단순": 6413,
      "▁Inter": 6414,
      "▁나서": 6415,
      "rought": 6416,
      "▁하우": 6417,
      "nWith": 6418,
      "yond": 6419,
      "erg": 6420,
      "▁bank": 6421,
      "▁sound": 6422,
      "▁시점": 6423,
      "▁std": 6424,
      "▁metab": 6425,
      "▁젊": 6426,
      "xml": 6427,
      "▁WH": 6428,
      "▁마케팅": 6429,
      "▁연계": 6430,
      "car": 6431,
      "▁absol": 6432,
      "Ps": 6433,
      "▁package": 6434,
      "▁fair": 6435,
      "▁Over": 6436,
      "▁investigated": 6437,
      "ando": 6438,
      "▁London": 6439,
      "▁copy": 6440,
      "reci": 6441,
      "aint": 6442,
      "irtual": 6443,
      "ocket": 6444,
      "▁잘못": 6445,
      "nif": 6446,
      "amera": 6447,
      "▁사이트": 6448,
      "ellow": 6449,
      "▁무선": 6450,
      "▁척": 6451,
      "▁축제": 6452,
      "▁세포": 6453,
      "▁Hol": 6454,
      "▁하부": 6455,
      "▁mice": 6456,
      "▁Center": 6457,
      "▁magnetic": 6458,
      "Model": 6459,
      "▁앞두": 6460,
      "▁sources": 6461,
      "▁diagnosis": 6462,
      "▁어려움": 6463,
      "▁argument": 6464,
      "▁변호사": 6465,
      "▁includes": 6466,
      "어진": 6467,
      "isions": 6468,
      "draw": 6469,
      "▁appropri": 6470,
      "▁대사": 6471,
      "▁ax": 6472,
      "▁Hill": 6473,
      "▁렌": 6474,
      "▁대학교": 6475,
      "lev": 6476,
      "▁'[": 6477,
      "▁Out": 6478,
      "▁score": 6479,
      "▁therefore": 6480,
      "▁extract": 6481,
      "닷컴": 6482,
      "▁challeng": 6483,
      "▁아울": 6484,
      "▁초기": 6485,
      "▁차단": 6486,
      "▁회견": 6487,
      "▁SNS": 6488,
      "▁suggested": 6489,
      "▁API": 6490,
      "zed": 6491,
      "▁궁": 6492,
      "vest": 6493,
      "▁신종": 6494,
      "Set": 6495,
      "sor": 6496,
      "▁접속": 6497,
      "▁interesting": 6498,
      "러운": 6499,
      "▁조례": 6500,
      "▁완료": 6501,
      "▁벽": 6502,
      "▁inn": 6503,
      "▁뇌": 6504,
      "▁spread": 6505,
      "▁Paul": 6506,
      "▁despite": 6507,
      "atever": 6508,
      "Service": 6509,
      "ping": 6510,
      "aud": 6511,
      "▁본인": 6512,
      "odies": 6513,
      "▁terror": 6514,
      "▁fat": 6515,
      "▁coord": 6516,
      "▁지분": 6517,
      "▁contrast": 6518,
      "▁보안": 6519,
      "▁numer": 6520,
      "itory": 6521,
      "▁receive": 6522,
      "sin": 6523,
      "▁Group": 6524,
      "▁phosph": 6525,
      "▁사업자": 6526,
      "big": 6527,
      "▁quickly": 6528,
      "▁decided": 6529,
      "idden": 6530,
      "▁seven": 6531,
      "▁satisf": 6532,
      "▁구현": 6533,
      "Field": 6534,
      "▁화장": 6535,
      "▁transform": 6536,
      "▁una": 6537,
      "▁integ": 6538,
      "▁애플": 6539,
      "▁ten": 6540,
      "▁문재인": 6541,
      "iers": 6542,
      "▁transport": 6543,
      "▁Def": 6544,
      "▁정권": 6545,
      "▁융": 6546,
      "nadd": 6547,
      "Par": 6548,
      "hi": 6549,
      "▁흑": 6550,
      "▁업종": 6551,
      "ivo": 6552,
      "▁reading": 6553,
      "▁climate": 6554,
      "LA": 6555,
      "▁바탕": 6556,
      "▁내놓": 6557,
      "▁스럽": 6558,
      "▁전북": 6559,
      "▁agg": 6560,
      "▁응답": 6561,
      "FC": 6562,
      "Layout": 6563,
      "oute": 6564,
      "from": 6565,
      "▁separate": 6566,
      "▁pros": 6567,
      "orters": 6568,
      "▁Sunday": 6569,
      "▁scen": 6570,
      "onic": 6571,
      "▁fans": 6572,
      "operative": 6573,
      "▁바라": 6574,
      "▁tested": 6575,
      "▁흐름": 6576,
      "paper": 6577,
      "▁demonstrated": 6578,
      "▁Democrats": 6579,
      "▁convert": 6580,
      "▁existing": 6581,
      "RNA": 6582,
      "▁extrem": 6583,
      "▁지점": 6584,
      "▁원칙": 6585,
      "opic": 6586,
      "▁rule": 6587,
      "▁확실": 6588,
      "▁individuals": 6589,
      "▁여론": 6590,
      "▁협약": 6591,
      "secut": 6592,
      "▁formation": 6593,
      "▁calling": 6594,
      "▁thous": 6595,
      "▁February": 6596,
      "▁inform": 6597,
      "운드": 6598,
      "▁volume": 6599,
      "▁dro": 6600,
      "▁Mac": 6601,
      "▁꼽": 6602,
      "height": 6603,
      "▁happened": 6604,
      "product": 6605,
      "▁나타나": 6606,
      "▁injury": 6607,
      "▁giving": 6608,
      "▁원자": 6609,
      "▁mac": 6610,
      "▁somet": 6611,
      "▁href": 6612,
      "▁KBS": 6613,
      "article": 6614,
      "▁리그": 6615,
      "▁reaction": 6616,
      "pload": 6617,
      "터리": 6618,
      "▁majority": 6619,
      "▁Black": 6620,
      "Int": 6621,
      "Request": 6622,
      "▁만족": 6623,
      "▁특수": 6624,
      "▁앤": 6625,
      "Over": 6626,
      "▁repl": 6627,
      "joy": 6628,
      "▁named": 6629,
      "▁cele": 6630,
      "▁Up": 6631,
      "▁Americans": 6632,
      "▁편의": 6633,
      "▁subjects": 6634,
      "▁무기": 6635,
      "▁기억": 6636,
      "alle": 6637,
      "▁ign": 6638,
      "▁receptor": 6639,
      "▁High": 6640,
      "▁url": 6641,
      "▁rare": 6642,
      "수록": 6643,
      "nOne": 6644,
      "▁뉴욕": 6645,
      "▁Open": 6646,
      "▁neuro": 6647,
      "▁결혼": 6648,
      "▁옮": 6649,
      "▁qual": 6650,
      "omas": 6651,
      "oes": 6652,
      "▁컬": 6653,
      "▁famil": 6654,
      "▁fixed": 6655,
      "▁량": 6656,
      "▁immediately": 6657,
      "▁명령": 6658,
      "▁showing": 6659,
      "▁주문": 6660,
      "atin": 6661,
      "▁failure": 6662,
      "▁meaning": 6663,
      "▁towards": 6664,
      "▁아버지": 6665,
      "▁노인": 6666,
      "▁components": 6667,
      "document": 6668,
      "▁bur": 6669,
      "▁통일": 6670,
      "▁catch": 6671,
      "SD": 6672,
      "▁refe": 6673,
      "cope": 6674,
      "▁Pat": 6675,
      "▁구간": 6676,
      "acher": 6677,
      "▁선발": 6678,
      "▁상호": 6679,
      "▁카메라": 6680,
      "SP": 6681,
      "▁bal": 6682,
      "▁수원": 6683,
      "ync": 6684,
      "▁insert": 6685,
      "▁정비": 6686,
      "rief": 6687,
      "▁Day": 6688,
      "nb": 6689,
      "▁기여": 6690,
      "▁창출": 6691,
      "}$.": 6692,
      "▁곤": 6693,
      "create": 6694,
      "▁q": 6695,
      "▁심리": 6696,
      "▁movement": 6697,
      "▁mort": 6698,
      "▁functional": 6699,
      "▁앱": 6700,
      "▁Det": 6701,
      "pack": 6702,
      "▁나섰": 6703,
      "▁express": 6704,
      "▁보고서": 6705,
      "▁infection": 6706,
      "▁rob": 6707,
      "rency": 6708,
      "▁View": 6709,
      "▁hol": 6710,
      "\\\".\\": 6711,
      "ios": 6712,
      "▁plasma": 6713,
      "▁Bro": 6714,
      "▁가져": 6715,
      "▁machine": 6716,
      "▁언제": 6717,
      "▁hon": 6718,
      "▁계열": 6719,
      "▁지켜": 6720,
      "▁접수": 6721,
      "▁Sand": 6722,
      "▁relig": 6723,
      "dev": 6724,
      "▁인권": 6725,
      "▁rapid": 6726,
      "▁상장": 6727,
      "▁decreased": 6728,
      "▁lives": 6729,
      "▁dim": 6730,
      "▁기계": 6731,
      "▁lip": 6732,
      "▁except": 6733,
      "bran": 6734,
      "▁Senate": 6735,
      "▁살펴": 6736,
      "▁ein": 6737,
      "▁male": 6738,
      "▁stuff": 6739,
      "click": 6740,
      "▁성능": 6741,
      "라마": 6742,
      "Manager": 6743,
      "▁스토": 6744,
      "▁전혀": 6745,
      "▁겸": 6746,
      "\\\"/": 6747,
      "▁equal": 6748,
      "▁매장": 6749,
      "▁Democratic": 6750,
      "stract": 6751,
      "▁purpose": 6752,
      "▁땅": 6753,
      "da": 6754,
      "▁controls": 6755,
      "▁Tur": 6756,
      "▁dose": 6757,
      "▁연금": 6758,
      "rier": 6759,
      "▁measures": 6760,
      "▁는가": 6761,
      "▁closed": 6762,
      "▁apply": 6763,
      "▁fully": 6764,
      "▁다이": 6765,
      "▁안내": 6766,
      "▁female": 6767,
      "▁interaction": 6768,
      "▁욕": 6769,
      "▁applications": 6770,
      "No": 6771,
      "raz": 6772,
      "▁당선": 6773,
      "▁economy": 6774,
      "▁롤": 6775,
      "▁optim": 6776,
      "▁forces": 6777,
      "▁불구": 6778,
      "▁인물": 6779,
      "▁library": 6780,
      "nel": 6781,
      "level": 6782,
      "▁induced": 6783,
      "▁그림": 6784,
      "eria": 6785,
      "wide": 6786,
      "TC": 6787,
      "▁advant": 6788,
      "아들": 6789,
      "onto": 6790,
      "▁si": 6791,
      "▁suspect": 6792,
      "▁je": 6793,
      "▁예비": 6794,
      "▁올랐": 6795,
      "▁passed": 6796,
      "▁&&": 6797,
      "▁Bu": 6798,
      "▁severe": 6799,
      "▁비상": 6800,
      "dem": 6801,
      "의원": 6802,
      "▁나온다": 6803,
      "▁arriv": 6804,
      "▁fr": 6805,
      "iments": 6806,
      "base": 6807,
      "▁최저": 6808,
      "총리": 6809,
      "▁Copyrights": 6810,
      "▁시절": 6811,
      "▁Although": 6812,
      "ante": 6813,
      "▁launch": 6814,
      "inct": 6815,
      "][": 6816,
      "▁올리": 6817,
      "▁nature": 6818,
      "▁wonder": 6819,
      "▁Fe": 6820,
      "▁finally": 6821,
      "▁src": 6822,
      "ridge": 6823,
      "▁eight": 6824,
      "▁yield": 6825,
      "avig": 6826,
      "DP": 6827,
      "▁넓": 6828,
      "elligence": 6829,
      "▁전압": 6830,
      "▁hab": 6831,
      "▁초등": 6832,
      "▁딸": 6833,
      "▁갔": 6834,
      "▁계기": 6835,
      "▁인하": 6836,
      "▁${\\\\": 6837,
      "▁RE": 6838,
      "▁허용": 6839,
      "▁civil": 6840,
      "▁Mor": 6841,
      "▁requires": 6842,
      "▁이끌": 6843,
      "vec": 6844,
      "▁오르": 6845,
      "▁】": 6846,
      "▁이재": 6847,
      "Auto": 6848,
      "▁calc": 6849,
      "▁가이드": 6850,
      "▁huge": 6851,
      "▁parents": 6852,
      "▁대변인": 6853,
      "▁combination": 6854,
      "AG": 6855,
      "iques": 6856,
      "▁wave": 6857,
      "▁Play": 6858,
      "▁고등": 6859,
      "▁고요": 6860,
      "▁메모": 6861,
      "pping": 6862,
      "▁해소": 6863,
      "leq": 6864,
      "chen": 6865,
      "▁corresponding": 6866,
      "▁trial": 6867,
      "▁휘": 6868,
      "▁park": 6869,
      "All": 6870,
      "▁전반": 6871,
      "▁concentrations": 6872,
      "▁단말기": 6873,
      "orter": 6874,
      "ago": 6875,
      "▁animals": 6876,
      "tes": 6877,
      "▁화합물": 6878,
      "reedom": 6879,
      "config": 6880,
      "chain": 6881,
      "▁【": 6882,
      "nThanks": 6883,
      "아가": 6884,
      "▁bud": 6885,
      "▁스위": 6886,
      "▁generated": 6887,
      "▁소중": 6888,
      "iring": 6889,
      "▁육성": 6890,
      "▁maximum": 6891,
      "▁묻": 6892,
      "▁prol": 6893,
      ")(": 6894,
      "iler": 6895,
      "cat": 6896,
      ":\\\\": 6897,
      "▁월드": 6898,
      "▁teams": 6899,
      "▁ON": 6900,
      "▁survival": 6901,
      "icity": 6902,
      "▁국장": 6903,
      "▁turned": 6904,
      "▁농업": 6905,
      "▁lymph": 6906,
      "▁준다": 6907,
      "▁아울러": 6908,
      "▁ri": 6909,
      "▁장소": 6910,
      "▁근거": 6911,
      "▁education": 6912,
      "▁File": 6913,
      "▁lock": 6914,
      "▁expand": 6915,
      "▁소유": 6916,
      "▁촉구": 6917,
      "▁technique": 6918,
      "▁activities": 6919,
      "Line": 6920,
      "▁Ac": 6921,
      "▁carry": 6922,
      "▁수술": 6923,
      "▁distance": 6924,
      "▁experimental": 6925,
      "▁처분": 6926,
      "▁records": 6927,
      "OW": 6928,
      "uster": 6929,
      "tra": 6930,
      "▁했으나": 6931,
      "▁agreement": 6932,
      "▁SD": 6933,
      "▁바이오": 6934,
      "▁hundred": 6935,
      "▁visual": 6936,
      "▁빼": 6937,
      "▁download": 6938,
      "▁채권": 6939,
      "▁이어지": 6940,
      "▁화재": 6941,
      "▁sec": 6942,
      "di": 6943,
      "▁resources": 6944,
      "lient": 6945,
      "include": 6946,
      "ᄏᄏ": 6947,
      "▁분명": 6948,
      "hold": 6949,
      "▁imag": 6950,
      "nAdvertisement": 6951,
      "▁Party": 6952,
      "iated": 6953,
      "▁switch": 6954,
      "▁weap": 6955,
      "▁God": 6956,
      "▁이른": 6957,
      "oom": 6958,
      "▁domain": 6959,
      "▁classes": 6960,
      "nAt": 6961,
      "▁원내대표": 6962,
      "ctors": 6963,
      "▁cop": 6964,
      "bi": 6965,
      "tml": 6966,
      "▁NH": 6967,
      "▁af": 6968,
      "▁bul": 6969,
      "서관": 6970,
      "▁happens": 6971,
      "section": 6972,
      "▁costs": 6973,
      "▁상세": 6974,
      "▁찍": 6975,
      "▁equation": 6976,
      "rep": 6977,
      "▁헬": 6978,
      "▁nucle": 6979,
      "▁cere": 6980,
      "▁core": 6981,
      "▁exception": 6982,
      "▁handle": 6983,
      "roy": 6984,
      "사자": 6985,
      "▁student": 6986,
      "▁압력": 6987,
      "▁pit": 6988,
      "▁choose": 6989,
      "▁resol": 6990,
      "▁drugs": 6991,
      "▁kin": 6992,
      "rench": 6993,
      "▁progress": 6994,
      "▁mur": 6995,
      "▁devices": 6996,
      "▁검출": 6997,
      "ulin": 6998,
      "rect": 6999,
      "MC": 7000,
      "세서": 7001,
      "▁회로": 7002,
      "▁교육청": 7003,
      "▁highest": 7004,
      "▁fa": 7005,
      "▁교회": 7006,
      "▁는데요": 7007,
      "▁Further": 7008,
      "▁cas": 7009,
      "▁Add": 7010,
      "▁나선": 7011,
      "▁correl": 7012,
      "▁susp": 7013,
      "▁실질": 7014,
      "current": 7015,
      "▁Two": 7016,
      "▁연구소": 7017,
      "▁패널": 7018,
      "▁plant": 7019,
      "▁승리": 7020,
      "Def": 7021,
      "rec": 7022,
      "▁공시": 7023,
      "aturday": 7024,
      "ocy": 7025,
      "▁아주": 7026,
      "▁Times": 7027,
      "▁CP": 7028,
      "▁detected": 7029,
      "▁발행": 7030,
      "ifest": 7031,
      "▁cast": 7032,
      "▁drive": 7033,
      "▁reduction": 7034,
      "cdot": 7035,
      "▁session": 7036,
      "▁자격": 7037,
      "▁저희": 7038,
      "while": 7039,
      "urt": 7040,
      "▁evaluated": 7041,
      "▁fear": 7042,
      "▁텔레": 7043,
      "▁웹": 7044,
      "▁legis": 7045,
      "드시": 7046,
      "▁recommend": 7047,
      "▁smaller": 7048,
      "abled": 7049,
      "hent": 7050,
      "▁slight": 7051,
      "Activity": 7052,
      "});\\": 7053,
      "▁morning": 7054,
      "▁produce": 7055,
      "stream": 7056,
      "▁객": 7057,
      "▁kg": 7058,
      "▁무료": 7059,
      "▁rout": 7060,
      "cW": 7061,
      "▁학년": 7062,
      "▁식당": 7063,
      "▁symptoms": 7064,
      "▁Lib": 7065,
      "▁bus": 7066,
      "▁무대": 7067,
      "▁DB": 7068,
      "▁여름": 7069,
      "ME": 7070,
      "▁growing": 7071,
      "rivate": 7072,
      "▁Form": 7073,
      "going": 7074,
      "▁법무": 7075,
      "▁internal": 7076,
      "▁collect": 7077,
      "▁appreci": 7078,
      "▁David": 7079,
      "▁exerc": 7080,
      "▁요인": 7081,
      "▁반드시": 7082,
      "▁고민": 7083,
      "니스": 7084,
      "▁vector": 7085,
      "nand": 7086,
      "ERE": 7087,
      "▁daily": 7088,
      "▁힘들": 7089,
      "▁Your": 7090,
      "▁삭": 7091,
      "Row": 7092,
      "▁bone": 7093,
      "());\\": 7094,
      "blog": 7095,
      "웨어": 7096,
      "▁)\\": 7097,
      "▁aren": 7098,
      "ryst": 7099,
      "TH": 7100,
      "!!": 7101,
      "▁explain": 7102,
      "▁나머": 7103,
      "▁’,": 7104,
      "ographic": 7105,
      "▁cris": 7106,
      "▁셔": 7107,
      "▁||": 7108,
      "▁Dr": 7109,
      "▁procedure": 7110,
      "▁군사": 7111,
      "▁died": 7112,
      "ascript": 7113,
      "▁claims": 7114,
      "▁solutions": 7115,
      "▁constit": 7116,
      "▁심각": 7117,
      "core": 7118,
      "▁Are": 7119,
      "▁나머지": 7120,
      "acing": 7121,
      "Log": 7122,
      "▁PR": 7123,
      "▁British": 7124,
      "▁모집": 7125,
      "▁instit": 7126,
      "▁중간": 7127,
      "▁runs": 7128,
      "▁exhib": 7129,
      "▁strategy": 7130,
      "pace": 7131,
      "ella": 7132,
      "nclass": 7133,
      "▁적절": 7134,
      "▁긴급": 7135,
      "▁wid": 7136,
      "▁filter": 7137,
      "▁불안": 7138,
      "▁uns": 7139,
      "ota": 7140,
      "img": 7141,
      "▁늦": 7142,
      "pling": 7143,
      "▁reasons": 7144,
      "▁전면": 7145,
      "ampions": 7146,
      "cb": 7147,
      "▁Ben": 7148,
      "▁유사": 7149,
      "▁포스": 7150,
      "▁긍": 7151,
      "▁serum": 7152,
      "▁트리": 7153,
      "▁spent": 7154,
      "avascript": 7155,
      "▁작동": 7156,
      "▁아침": 7157,
      "▁os": 7158,
      "▁nom": 7159,
      "▁eth": 7160,
      "▁intra": 7161,
      "▁beta": 7162,
      "eader": 7163,
      "▁스테": 7164,
      "▁승인": 7165,
      "▁Why": 7166,
      "nm": 7167,
      "▁ple": 7168,
      "▁degree": 7169,
      "▁letter": 7170,
      "▁Thus": 7171,
      "▁습니까": 7172,
      "▁Air": 7173,
      "▁Sec": 7174,
      "▁토지": 7175,
      "무리": 7176,
      "▁membran": 7177,
      "▁Don": 7178,
      "▁ast": 7179,
      "een": 7180,
      "▁확장": 7181,
      "▁Mat": 7182,
      "va": 7183,
      "nEx": 7184,
      "▁앵커": 7185,
      "▁USA": 7186,
      "▁quantum": 7187,
      "▁갈등": 7188,
      "▁유도": 7189,
      "\\\\])": 7190,
      "▁동의": 7191,
      "▁proteins": 7192,
      "▁겁": 7193,
      "▁개념": 7194,
      "fa": 7195,
      "mand": 7196,
      "band": 7197,
      "ifying": 7198,
      "▁재난": 7199,
      "zen": 7200,
      "isation": 7201,
      "▁약속": 7202,
      "free": 7203,
      "▁마치": 7204,
      "▁태양": 7205,
      "▁빠르": 7206,
      "▁healthy": 7207,
      "▁꽃": 7208,
      "|\\\\": 7209,
      "▁mes": 7210,
      "LS": 7211,
      "▁탄소": 7212,
      "kin": 7213,
      "▁개시": 7214,
      "▁추출": 7215,
      "▁교체": 7216,
      "▁resear": 7217,
      ".)\\": 7218,
      "▁품질": 7219,
      "▁개방": 7220,
      "▁International": 7221,
      "▁restrict": 7222,
      "▁sometimes": 7223,
      "▁잃": 7224,
      "rd": 7225,
      "▁apparent": 7226,
      "apping": 7227,
      "▁Test": 7228,
      "▁끊": 7229,
      "▁충남": 7230,
      "▁suggests": 7231,
      "▁aware": 7232,
      "▁moving": 7233,
      "환경": 7234,
      "iae": 7235,
      "▁의지": 7236,
      "▁clearly": 7237,
      "kg": 7238,
      "▁beyond": 7239,
      "▁whereas": 7240,
      "▁Ham": 7241,
      "abil": 7242,
      "▁prem": 7243,
      "aneous": 7244,
      "▁becomes": 7245,
      "▁collection": 7246,
      "▁discussed": 7247,
      "▁Indian": 7248,
      "▁미리": 7249,
      "▁밝혀": 7250,
      "ragment": 7251,
      "▁주의": 7252,
      "▁maybe": 7253,
      "▁드리": 7254,
      "find": 7255,
      "▁Sur": 7256,
      "▁monitor": 7257,
      "▁citiz": 7258,
      "imensional": 7259,
      "▁Android": 7260,
      "▁exposure": 7261,
      "iral": 7262,
      "▁나갈": 7263,
      "▁AD": 7264,
      "▁마찬": 7265,
      ")^": 7266,
      "▁시켰": 7267,
      "▁chronic": 7268,
      "▁heard": 7269,
      "▁throughout": 7270,
      "nWhile": 7271,
      "요일": 7272,
      "▁부여": 7273,
      "▁candidate": 7274,
      "mas": 7275,
      "▁Fran": 7276,
      "▁County": 7277,
      "▁!=": 7278,
      "▁expressed": 7279,
      "raint": 7280,
      "▁여의": 7281,
      "▁Any": 7282,
      "▁Web": 7283,
      "Hand": 7284,
      "ja": 7285,
      "▁journal": 7286,
      "▁efforts": 7287,
      "LC": 7288,
      "▁Apple": 7289,
      "▁define": 7290,
      "eller": 7291,
      "▁strugg": 7292,
      "▁마찬가지": 7293,
      "▁구역": 7294,
      "▁processes": 7295,
      "▁전부": 7296,
      "object": 7297,
      "▁skin": 7298,
      "sers": 7299,
      "▁매년": 7300,
      "▁표준": 7301,
      "Test": 7302,
      "▁세트": 7303,
      "▁acqu": 7304,
      "▁나이": 7305,
      "▁ensure": 7306,
      "▁tag": 7307,
      "▁supported": 7308,
      "▁projects": 7309,
      "▁시리": 7310,
      "▁SBS": 7311,
      "▁electron": 7312,
      "hr": 7313,
      "▁actions": 7314,
      "▁법안": 7315,
      "▁nan": 7316,
      "▁containing": 7317,
      "▁실험": 7318,
      "▁(\\\\[": 7319,
      "▁Germany": 7320,
      "▁unf": 7321,
      "▁정리": 7322,
      "▁노래": 7323,
      "▁소통": 7324,
      "▁League": 7325,
      "▁detection": 7326,
      "itivity": 7327,
      "▁comparison": 7328,
      "▁nic": 7329,
      "ainer": 7330,
      "▁조성물": 7331,
      "▁chief": 7332,
      "▁CBS": 7333,
      "▁판정": 7334,
      "itors": 7335,
      "▁roll": 7336,
      "fb": 7337,
      "war": 7338,
      "▁Work": 7339,
      "uman": 7340,
      "oz": 7341,
      "▁매각": 7342,
      "nCh": 7343,
      "▁기소": 7344,
      "▁bottom": 7345,
      "▁출발": 7346,
      "ilder": 7347,
      "▁picture": 7348,
      "▁면적": 7349,
      "▁Ed": 7350,
      "▁투명": 7351,
      "▁수정": 7352,
      "▁문제점": 7353,
      "▁ban": 7354,
      "fort": 7355,
      "▁동아": 7356,
      "▁UI": 7357,
      "▁둘러": 7358,
      "▁indicate": 7359,
      "▁behavi": 7360,
      "▁꼭": 7361,
      "▁career": 7362,
      "▁거부": 7363,
      "▁긍정": 7364,
      "▁ready": 7365,
      "▁toward": 7366,
      "▁대중": 7367,
      "▁End": 7368,
      "▁liver": 7369,
      "orge": 7370,
      "▁만드": 7371,
      "ifically": 7372,
      "omic": 7373,
      "iny": 7374,
      "▁리얼": 7375,
      "▁ideas": 7376,
      "▁신경": 7377,
      "▁steps": 7378,
      "▁flo": 7379,
      "▁한나라": 7380,
      "UN": 7381,
      "▁미세": 7382,
      "란다": 7383,
      "▁한나라당": 7384,
      "maz": 7385,
      "▁none": 7386,
      "FT": 7387,
      "aching": 7388,
      "▁Australia": 7389,
      "▁attacks": 7390,
      "▁틀": 7391,
      "▁opportunity": 7392,
      "▁의식": 7393,
      "▁ahead": 7394,
      "%\\": 7395,
      "━━": 7396,
      ")}": 7397,
      "▁μ": 7398,
      "show": 7399,
      "▁labor": 7400,
      "orders": 7401,
      "▁alpha": 7402,
      "▁successful": 7403,
      "▁mi": 7404,
      "▁theore": 7405,
      "▁충북": 7406,
      "aved": 7407,
      "▁hands": 7408,
      "▁Islam": 7409,
      "pg": 7410,
      "▁join": 7411,
      "vas": 7412,
      "▁화면": 7413,
      "▁chrom": 7414,
      "▁감지": 7415,
      "▁박근": 7416,
      "inion": 7417,
      "ufact": 7418,
      "▁타이": 7419,
      "iden": 7420,
      "▁critic": 7421,
      "racy": 7422,
      "ford": 7423,
      "emp": 7424,
      "Table": 7425,
      "iders": 7426,
      "▁신설": 7427,
      "CE": 7428,
      "▁molecular": 7429,
      "esis": 7430,
      "▁역량": 7431,
      "▁dark": 7432,
      "▁브라": 7433,
      "▁doll": 7434,
      "▁resistance": 7435,
      "▁처벌": 7436,
      "▁wide": 7437,
      "▁increases": 7438,
      "▁sch": 7439,
      "pret": 7440,
      "▁chain": 7441,
      "▁beginning": 7442,
      "▁Phil": 7443,
      "▁thinking": 7444,
      "yr": 7445,
      "▁입주": 7446,
      "▁짜": 7447,
      "itude": 7448,
      "▁Tex": 7449,
      "enty": 7450,
      "▁뮤": 7451,
      "▁모드": 7452,
      "▁talking": 7453,
      "▁birth": 7454,
      "▁허가": 7455,
      "▁양성": 7456,
      "aste": 7457,
      "▁equival": 7458,
      "▁UN": 7459,
      "▁affected": 7460,
      "ugin": 7461,
      "▁tempor": 7462,
      "화점": 7463,
      "▁샤": 7464,
      "▁미치": 7465,
      "케이션": 7466,
      "▁영어": 7467,
      "▁베이": 7468,
      "▁largest": 7469,
      "▁죄": 7470,
      "▁combined": 7471,
      "Bu": 7472,
      "▁shift": 7473,
      "▁Even": 7474,
      "▁Saturday": 7475,
      "▁수수": 7476,
      "ki": 7477,
      "bum": 7478,
      "▁마무리": 7479,
      "pan": 7480,
      "▁shared": 7481,
      "▁acute": 7482,
      "▁layer": 7483,
      "▁Del": 7484,
      "▁examined": 7485,
      "▁이메": 7486,
      "','": 7487,
      "▁요금": 7488,
      "▁jobs": 7489,
      "▁권리": 7490,
      "▁synd": 7491,
      "▁Net": 7492,
      "▁operations": 7493,
      "▁내리": 7494,
      "▁Most": 7495,
      "Ser": 7496,
      "▁violence": 7497,
      "▁King": 7498,
      "▁interface": 7499,
      "---\\": 7500,
      "New": 7501,
      "▁분류": 7502,
      "▁purch": 7503,
      "▁Her": 7504,
      "▁felt": 7505,
      "▁상반기": 7506,
      "▁매체": 7507,
      "▁장착": 7508,
      "▁enjoy": 7509,
      "▁consequ": 7510,
      "rage": 7511,
      "▁improved": 7512,
      "\\\":\\\"": 7513,
      "▁challenge": 7514,
      "▁그냥": 7515,
      "▁families": 7516,
      "▁relevant": 7517,
      "▁이메일": 7518,
      "▁결제": 7519,
      "▁얼마나": 7520,
      "▁필름": 7521,
      "▁strength": 7522,
      "▁crisis": 7523,
      "▁미만": 7524,
      "▁appropriate": 7525,
      "▁소자": 7526,
      "Or": 7527,
      "](": 7528,
      "▁speech": 7529,
      "▁strateg": 7530,
      "▁Port": 7531,
      "▁공단": 7532,
      "▁AND": 7533,
      "▁exists": 7534,
      "▁implic": 7535,
      "stant": 7536,
      "▁France": 7537,
      "▁충전": 7538,
      "gency": 7539,
      "▁SQL": 7540,
      "itable": 7541,
      "▁셈": 7542,
      "▁순간": 7543,
      "▁드라마": 7544,
      "▁캐릭": 7545,
      "▁brought": 7546,
      "▁PM": 7547,
      "▁AR": 7548,
      "▁noted": 7549,
      "▁부인": 7550,
      "▁trou": 7551,
      "▁weak": 7552,
      "▁걸쳐": 7553,
      "▁지요": 7554,
      "▁father": 7555,
      "▁수업": 7556,
      "▁Also": 7557,
      "▁norm": 7558,
      "▁movie": 7559,
      "▁구분": 7560,
      "▁유일": 7561,
      "normal": 7562,
      "nLet": 7563,
      "▁※": 7564,
      "▁outcome": 7565,
      "▁empty": 7566,
      "▁배경": 7567,
      "▁질환": 7568,
      "istered": 7569,
      "icip": 7570,
      "▁빠른": 7571,
      "▁마감": 7572,
      "산물": 7573,
      "ini": 7574,
      "build": 7575,
      "▁efficient": 7576,
      "▁histor": 7577,
      "▁quarter": 7578,
      "▁delay": 7579,
      "▁근로자": 7580,
      "▁\\\\\\\\\\": 7581,
      "▁삽입": 7582,
      "▁laun": 7583,
      "ooth": 7584,
      "▁regul": 7585,
      "▁modern": 7586,
      "▁impos": 7587,
      "▁디바": 7588,
      "▁Tor": 7589,
      "▁rise": 7590,
      "bra": 7591,
      "********": 7592,
      "▁Associ": 7593,
      "▁adjust": 7594,
      "회장": 7595,
      "▁계산": 7596,
      "▁박근혜": 7597,
      "▁green": 7598,
      "▁Met": 7599,
      "▁hous": 7600,
      "▁alternative": 7601,
      "iled": 7602,
      "first": 7603,
      "▁▷": 7604,
      "▁려면": 7605,
      "▁공부": 7606,
      "▁실행": 7607,
      "▁alleged": 7608,
      "spring": 7609,
      "▁조작": 7610,
      "▁한다면": 7611,
      "▁SC": 7612,
      "▁Using": 7613,
      "▁straight": 7614,
      "▁Gr": 7615,
      "▁걱": 7616,
      "result": 7617,
      "▁radio": 7618,
      "▁냈": 7619,
      "▁suff": 7620,
      "▁지시": 7621,
      "▁으면서": 7622,
      "▁removed": 7623,
      "Index": 7624,
      "▁guess": 7625,
      "cap": 7626,
      "▁팀장": 7627,
      "chi": 7628,
      "ya": 7629,
      "▁auto": 7630,
      "▁errors": 7631,
      "▁conference": 7632,
      "▁frame": 7633,
      "▁메모리": 7634,
      "▁물량": 7635,
      "▁캐릭터": 7636,
      "▁crim": 7637,
      "void": 7638,
      "####": 7639,
      "▁tools": 7640,
      "▁걱정": 7641,
      "uts": 7642,
      "▁directory": 7643,
      "▁하반기": 7644,
      "stitute": 7645,
      "▁유동": 7646,
      "▁대기": 7647,
      "▁Sup": 7648,
      "arian": 7649,
      "▁diab": 7650,
      "▁English": 7651,
      "ani": 7652,
      "▁epis": 7653,
      "PE": 7654,
      "phone": 7655,
      "▁갤": 7656,
      "▁sleep": 7657,
      "istant": 7658,
      "vo": 7659,
      "▁implementation": 7660,
      "▁졸업": 7661,
      "▁벨": 7662,
      "▁받아들": 7663,
      "izer": 7664,
      "AutoNews": 7665,
      "eed": 7666,
      "▁cool": 7667,
      "▁crypt": 7668,
      "▁smart": 7669,
      "▁<-": 7670,
      "▁운전": 7671,
      "▁wouldn": 7672,
      "MD": 7673,
      "▁대우": 7674,
      "▁임시": 7675,
      "cS": 7676,
      "▁generally": 7677,
      "▁confirm": 7678,
      "▁bacter": 7679,
      "▁auth": 7680,
      "eles": 7681,
      "▁Street": 7682,
      "Content": 7683,
      "▁SE": 7684,
      "▁설비": 7685,
      "▁대법": 7686,
      "ido": 7687,
      "▁집계": 7688,
      "▁모터": 7689,
      "▁해요": 7690,
      "▁biggest": 7691,
      "▁사과": 7692,
      "▁취소": 7693,
      "▁tox": 7694,
      "cis": 7695,
      "▁occurred": 7696,
      "▁보증": 7697,
      "▁혹은": 7698,
      "▁손실": 7699,
      "▁축구": 7700,
      "▁returned": 7701,
      "onal": 7702,
      "주시": 7703,
      "abs": 7704,
      "era": 7705,
      "▁paid": 7706,
      "▁나와": 7707,
      "▁genes": 7708,
      "▁util": 7709,
      "amine": 7710,
      "▁모양": 7711,
      "sen": 7712,
      "ua": 7713,
      "▁Mex": 7714,
      "▁강한": 7715,
      "▁CI": 7716,
      "▁함유": 7717,
      "▁);\\": 7718,
      "▁유가": 7719,
      "rightarrow": 7720,
      "▁앉": 7721,
      "last": 7722,
      "etch": 7723,
      "▁세월": 7724,
      "embly": 7725,
      "▁older": 7726,
      "▁blog": 7727,
      "epsilon": 7728,
      "VER": 7729,
      "ulf": 7730,
      "▁자녀": 7731,
      "▁어부": 7732,
      "▁챔": 7733,
      "▁pregn": 7734,
      "▁안보": 7735,
      "exp": 7736,
      "▁롭": 7737,
      "▁어도": 7738,
      "▁tend": 7739,
      "▁spokes": 7740,
      "▁굴": 7741,
      "▁시트": 7742,
      "▁순위": 7743,
      "▁cru": 7744,
      "▁wild": 7745,
      "회사": 7746,
      "▁investigate": 7747,
      "▁배터리": 7748,
      "arg": 7749,
      "▁coronavirus": 7750,
      "▁continued": 7751,
      "▁exchange": 7752,
      "▁sed": 7753,
      "▁das": 7754,
      "▁AT": 7755,
      "▁불편": 7756,
      "▁통계": 7757,
      "▁정기": 7758,
      "Script": 7759,
      "▁sets": 7760,
      "ala": 7761,
      "▁빅": 7762,
      "Stream": 7763,
      "▁직장": 7764,
      "ustr": 7765,
      "▁programs": 7766,
      "\\\"]": 7767,
      "▁minor": 7768,
      "▁benefits": 7769,
      "▁시리즈": 7770,
      "▁hear": 7771,
      "▁touch": 7772,
      "▁transc": 7773,
      "▁solve": 7774,
      "▁correlation": 7775,
      "▁aspect": 7776,
      "▁stock": 7777,
      "▁distribut": 7778,
      "▁digital": 7779,
      "▁줬": 7780,
      "▁chemical": 7781,
      "▁looked": 7782,
      "▁검색": 7783,
      "▁neur": 7784,
      "▁여의도": 7785,
      "▁고속": 7786,
      "▁디바이스": 7787,
      "uled": 7788,
      "▁perhaps": 7789,
      "▁→": 7790,
      "▁Na": 7791,
      "enu": 7792,
      "otes": 7793,
      "담회": 7794,
      "CS": 7795,
      "▁보통": 7796,
      "nPro": 7797,
      "aci": 7798,
      "md": 7799,
      "▁부처": 7800,
      "▁responses": 7801,
      "▁princ": 7802,
      "▁couldn": 7803,
      "▁piece": 7804,
      "▁단일": 7805,
      "▁핀": 7806,
      "▁교환": 7807,
      "▁이내": 7808,
      "▁Bel": 7809,
      "FP": 7810,
      "▁인공": 7811,
      "▁철도": 7812,
      "▁마이크": 7813,
      "▁net": 7814,
      "▁changing": 7815,
      "▁conducted": 7816,
      "Listener": 7817,
      "▁심의": 7818,
      "공사": 7819,
      "▁:\\": 7820,
      "▁사라": 7821,
      "room": 7822,
      "학생": 7823,
      "▁자율": 7824,
      "▁야당": 7825,
      "▁소장": 7826,
      "icks": 7827,
      "▁전지": 7828,
      "▁module": 7829,
      "▁prefer": 7830,
      "▁song": 7831,
      "▁mobile": 7832,
      "ructure": 7833,
      "▁Green": 7834,
      "▁definit": 7835,
      "▁취지": 7836,
      "};\\": 7837,
      "▁국회의원": 7838,
      "((": 7839,
      "▁±": 7840,
      "inner": 7841,
      "inn": 7842,
      "▁수립": 7843,
      "▁kid": 7844,
      "dered": 7845,
      "▁실패": 7846,
      "fcr": 7847,
      "▁반복": 7848,
      "▁마리": 7849,
      "▁Time": 7850,
      "▁이탈": 7851,
      "▁Star": 7852,
      "ells": 7853,
      "▁NULL": 7854,
      "▁obtain": 7855,
      "dc": 7856,
      "agram": 7857,
      "▁Ber": 7858,
      "▁East": 7859,
      "▁종류": 7860,
      "▁지자": 7861,
      "▁주차": 7862,
      "otype": 7863,
      "▁generate": 7864,
      "▁거주": 7865,
      "▁줄이": 7866,
      "▁activation": 7867,
      "▁가공": 7868,
      "▁trust": 7869,
      "legal": 7870,
      "리카": 7871,
      "▁degrees": 7872,
      "▁evaluate": 7873,
      "▁split": 7874,
      "space": 7875,
      "alax": 7876,
      "▁쌓": 7877,
      "VID": 7878,
      "▁react": 7879,
      "des": 7880,
      "▁어머니": 7881,
      "▁아마": 7882,
      "▁somew": 7883,
      "Count": 7884,
      "▁describe": 7885,
      "▁음성": 7886,
      "▁General": 7887,
      "bed": 7888,
      "▁advance": 7889,
      "▁finding": 7890,
      "osing": 7891,
      "ostic": 7892,
      "▁교류": 7893,
      "▁》": 7894,
      "▁Dan": 7895,
      "▁relatively": 7896,
      "home": 7897,
      "▁테이": 7898,
      "▁친환경": 7899,
      "▁blue": 7900,
      "ersion": 7901,
      "▁춘": 7902,
      "▁선생": 7903,
      "▁미술": 7904,
      "▁IL": 7905,
      "▁간담회": 7906,
      "iling": 7907,
      "▁regions": 7908,
      "▁leads": 7909,
      "▁건조": 7910,
      "icians": 7911,
      "▁짓": 7912,
      "▁vel": 7913,
      "▁brand": 7914,
      "wood": 7915,
      "▁기타": 7916,
      "▁mentioned": 7917,
      "▁operator": 7918,
      "▁■": 7919,
      "▁rock": 7920,
      "▁regarding": 7921,
      "▁danger": 7922,
      "▁OS": 7923,
      "▁voters": 7924,
      "▁association": 7925,
      "▁established": 7926,
      "▁()": 7927,
      "kt": 7928,
      "카오": 7929,
      "▁오픈": 7930,
      "~~": 7931,
      "▁forms": 7932,
      "▁survey": 7933,
      "▁responsible": 7934,
      "▁decrease": 7935,
      "▁certainly": 7936,
      "Web": 7937,
      "▁muscle": 7938,
      "▁《": 7939,
      "▁타임": 7940,
      "▁달라": 7941,
      "▁science": 7942,
      "▁resulting": 7943,
      "▁URL": 7944,
      "▁channel": 7945,
      "▁Because": 7946,
      "▁rank": 7947,
      "rape": 7948,
      "▁닷컴": 7949,
      "▁전하": 7950,
      "▁vi": 7951,
      "DE": 7952,
      "▁Michael": 7953,
      "▁Sing": 7954,
      "▁capacity": 7955,
      "▁일으": 7956,
      "▁establish": 7957,
      "ban": 7958,
      "▁reached": 7959,
      "반도": 7960,
      "▁충격": 7961,
      "▁뜨": 7962,
      "▁초과": 7963,
      "▁consistent": 7964,
      "▁scene": 7965,
      "▁benefit": 7966,
      "▁혼합": 7967,
      "▁조기": 7968,
      "nAny": 7969,
      "),\\": 7970,
      "▁엔진": 7971,
      "▁획득": 7972,
      "▁로봇": 7973,
      "▁mist": 7974,
      "▁이곳": 7975,
      "▁취재": 7976,
      "▁연간": 7977,
      "▁definition": 7978,
      "▁골프": 7979,
      "▁remember": 7980,
      "▁knew": 7981,
      "▁summer": 7982,
      "▁Muslim": 7983,
      "▁assume": 7984,
      "▁CS": 7985,
      "▁YTN": 7986,
      "stein": 7987,
      "▁경로": 7988,
      "▁그린": 7989,
      "▁pun": 7990,
      "UE": 7991,
      "▁산화": 7992,
      "Be": 7993,
      "▁헌법": 7994,
      "Run": 7995,
      "▁최선": 7996,
      "▁구청": 7997,
      "ados": 7998,
      "▁이루어지": 7999,
      "TO": 8000,
      "overnment": 8001,
      "▁electric": 8002,
      "▁용기": 8003,
      "();": 8004,
      "▁Mal": 8005,
      "ih": 8006,
      "rend": 8007,
      "▁easier": 8008,
      "heet": 8009,
      "AutoNewspaper": 8010,
      "]:": 8011,
      "▁generation": 8012,
      "▁발굴": 8013,
      "▁나무": 8014,
      "▁shape": 8015,
      "▁customers": 8016,
      "unc": 8017,
      ".']\\": 8018,
      "▁measurements": 8019,
      "▁완성": 8020,
      "opath": 8021,
      "psi": 8022,
      "ita": 8023,
      "▁lic": 8024,
      "▁세종": 8025,
      "▁총선": 8026,
      "quad": 8027,
      "▁pow": 8028,
      "▁충분히": 8029,
      "▁’(": 8030,
      "atterns": 8031,
      "다고": 8032,
      "▁eyes": 8033,
      "▁manager": 8034,
      "▁신속": 8035,
      "▁yourself": 8036,
      "▁font": 8037,
      "▁thousands": 8038,
      "▁감안": 8039,
      "\\\"/>\\": 8040,
      "pol": 8041,
      "UI": 8042,
      "▁reflect": 8043,
      "▁환율": 8044,
      "▁external": 8045,
      "Size": 8046,
      "airs": 8047,
      "▁shut": 8048,
      "▁부대": 8049,
      "▁극복": 8050,
      "▁firm": 8051,
      "ishing": 8052,
      "▁Police": 8053,
      "▁괴": 8054,
      "▁|\\": 8055,
      "▁appeared": 8056,
      "▁arr": 8057,
      "▁변형": 8058,
      "▁유로": 8059,
      "▁Therefore": 8060,
      "▁미사": 8061,
      "▁techniques": 8062,
      "zer": 8063,
      "▁감정": 8064,
      "▁Cup": 8065,
      "▁organization": 8066,
      "▁evolution": 8067,
      "CL": 8068,
      "UM": 8069,
      "emia": 8070,
      "lorida": 8071,
      "▁형사": 8072,
      "리어": 8073,
      "Message": 8074,
      "▁一": 8075,
      "▁Log": 8076,
      "produ": 8077,
      "ione": 8078,
      "▁convers": 8079,
      "▁Set": 8080,
      "child": 8081,
      "▁증거": 8082,
      "▁통하": 8083,
      "▁Texas": 8084,
      "sey": 8085,
      "▁template": 8086,
      "PG": 8087,
      "▁개편": 8088,
      "XX": 8089,
      "▁왼": 8090,
      "▁Republicans": 8091,
      "▁incor": 8092,
      "▁필터": 8093,
      "▁therm": 8094,
      "▁incident": 8095,
      "▁가상": 8096,
      "dependent": 8097,
      "▁부지": 8098,
      "▁carbon": 8099,
      "▁맞춰": 8100,
      "▁부회장": 8101,
      "▁연료": 8102,
      "▁password": 8103,
      "block": 8104,
      "▁criminal": 8105,
      "▁참고": 8106,
      "uses": 8107,
      "▁생태": 8108,
      "▁trend": 8109,
      "▁grand": 8110,
      "▁continues": 8111,
      "▁framework": 8112,
      "▁driver": 8113,
      "▁일상": 8114,
      "▁겨울": 8115,
      "▁떨어지": 8116,
      "▁봉사": 8117,
      "nThen": 8118,
      "cA": 8119,
      "urance": 8120,
      "inant": 8121,
      "Map": 8122,
      "▁chos": 8123,
      "▁내일": 8124,
      "▁성적": 8125,
      "▁아름": 8126,
      "▁Fire": 8127,
      "▁isolated": 8128,
      "▁Service": 8129,
      "▁User": 8130,
      "▁현대차": 8131,
      "▁Class": 8132,
      "mega": 8133,
      "▁experiments": 8134,
      "▁agency": 8135,
      "▁노출": 8136,
      "▁lung": 8137,
      "▁주년": 8138,
      "*]{}": 8139,
      "▁부부": 8140,
      "▁prison": 8141,
      "▁Text": 8142,
      "▁구입": 8143,
      "hetic": 8144,
      "▁백화점": 8145,
      "fill": 8146,
      "▁folder": 8147,
      "▁profile": 8148,
      "▁FROM": 8149,
      "▁configuration": 8150,
      "▁commer": 8151,
      "▁실현": 8152,
      "▁asking": 8153,
      "▁nor": 8154,
      "▁conflic": 8155,
      "▁검증": 8156,
      "▁폐지": 8157,
      "ilter": 8158,
      "▁vitro": 8159,
      "oi": 8160,
      "gress": 8161,
      "▁엄마": 8162,
      "▁늘어나": 8163,
      "▁ng": 8164,
      "▁쏟": 8165,
      "▁한반도": 8166,
      "프라": 8167,
      "▁Other": 8168,
      "ipe": 8169,
      "▁통제": 8170,
      "▁sales": 8171,
      "CP": 8172,
      "untu": 8173,
      "▁기온": 8174,
      "▁drink": 8175,
      "under": 8176,
      "▁그럼": 8177,
      "care": 8178,
      "▁minimum": 8179,
      "▁기부": 8180,
      "ocytes": 8181,
      "▁algorithm": 8182,
      "▁흘": 8183,
      "▁개별": 8184,
      "erved": 8185,
      "▁불리": 8186,
      "source": 8187,
      "▁뒷": 8188,
      "▁묘": 8189,
      "▁옆": 8190,
      "▁쓴": 8191,
      "▁예약": 8192,
      "▁고위": 8193,
      "▁르": 8194,
      "Code": 8195,
      "inst": 8196,
      "EW": 8197,
      "▁주거": 8198,
      "▁haven": 8199,
      "anges": 8200,
      "▁지자체": 8201,
      "▁rows": 8202,
      "nfor": 8203,
      "▁감염증": 8204,
      "DS": 8205,
      "▁꾸준": 8206,
      "▁structures": 8207,
      "▁Lin": 8208,
      "▁바닥": 8209,
      "▁알리": 8210,
      "▁concerns": 8211,
      "izations": 8212,
      "pa": 8213,
      "▁minister": 8214,
      "▁reli": 8215,
      "튜브": 8216,
      "fs": 8217,
      "▁아프": 8218,
      "▁statist": 8219,
      "Method": 8220,
      "▁estimated": 8221,
      "▁MB": 8222,
      "▁우승": 8223,
      "▁Object": 8224,
      "▁explained": 8225,
      "▁resolution": 8226,
      "▁바란다": 8227,
      "▁encou": 8228,
      "▁Mart": 8229,
      "▁늘어": 8230,
      "▁바다": 8231,
      "▁협의회": 8232,
      "라스": 8233,
      "▁진입": 8234,
      "ador": 8235,
      "▁celebr": 8236,
      "▁pod": 8237,
      "win": 8238,
      "anging": 8239,
      "▁발광": 8240,
      "▁피고": 8241,
      "▁budget": 8242,
      "▁adapt": 8243,
      "▁upper": 8244,
      "▁heavy": 8245,
      "mazon": 8246,
      "TS": 8247,
      "css": 8248,
      "▁무슨": 8249,
      "▁carcin": 8250,
      "▁다니": 8251,
      "▁repeated": 8252,
      "▁세력": 8253,
      "raq": 8254,
      "Out": 8255,
      "▁traditional": 8256,
      "▁developing": 8257,
      "etes": 8258,
      "▁sun": 8259,
      "GB": 8260,
      "▁browser": 8261,
      "▁brief": 8262,
      "Up": 8263,
      "▁Direct": 8264,
      "▁officers": 8265,
      "lands": 8266,
      "▁characteristics": 8267,
      "▁에스": 8268,
      "▁철저": 8269,
      "▁whatever": 8270,
      "▁나누": 8271,
      "▁compare": 8272,
      "▁DC": 8273,
      "▁차관": 8274,
      "▁노동자": 8275,
      "▁French": 8276,
      "▁자주": 8277,
      "▁Super": 8278,
      "ometry": 8279,
      "▁agents": 8280,
      "▁브리": 8281,
      "▁점수": 8282,
      "▁farm": 8283,
      "▁alert": 8284,
      "▁carried": 8285,
      "▁Found": 8286,
      "nWhy": 8287,
      "undle": 8288,
      "▁수소": 8289,
      "iance": 8290,
      "▁버리": 8291,
      "▁Mil": 8292,
      "▁MBC": 8293,
      ")$,": 8294,
      "(),": 8295,
      "▁diet": 8296,
      "ptions": 8297,
      "▁subsequ": 8298,
      "SQL": 8299,
      "▁지키": 8300,
      "▁Ver": 8301,
      "▁써": 8302,
      "yan": 8303,
      "illa": 8304,
      "▁이외": 8305,
      "▁제재": 8306,
      "▁Both": 8307,
      "eless": 8308,
      "dat": 8309,
      "[\\\"": 8310,
      "▁hour": 8311,
      "▁학부": 8312,
      "▁간단": 8313,
      "rive": 8314,
      "▁SS": 8315,
      "Pl": 8316,
      "▁electro": 8317,
      "▁불가": 8318,
      "▁키로": 8319,
      "ansion": 8320,
      "▁에어": 8321,
      "▁김영": 8322,
      "▁connected": 8323,
      "▁주행": 8324,
      "ackage": 8325,
      "▁Ev": 8326,
      "▁deploy": 8327,
      "▁prepar": 8328,
      "▁맨": 8329,
      "otherapy": 8330,
      "▁Mad": 8331,
      "▁powerful": 8332,
      "emy": 8333,
      "▁School": 8334,
      "▁presidential": 8335,
      "▁panel": 8336,
      "▁부과": 8337,
      "=\\": 8338,
      "▁mechanisms": 8339,
      "DB": 8340,
      "▁myself": 8341,
      "▁People": 8342,
      "▁fra": 8343,
      "▁된다는": 8344,
      "▁입자": 8345,
      "model": 8346,
      "Donald": 8347,
      "▁Every": 8348,
      "▁스타일": 8349,
      "ifier": 8350,
      "▁셋": 8351,
      "▁오래": 8352,
      "▁Ap": 8353,
      "▁Ke": 8354,
      "wa": 8355,
      "lt": 8356,
      "orial": 8357,
      "node": 8358,
      "ById": 8359,
      "▁져": 8360,
      "▁internet": 8361,
      "▁debate": 8362,
      "▁진정": 8363,
      "▁Je": 8364,
      "api": 8365,
      "▁controller": 8366,
      "▁defense": 8367,
      "edia": 8368,
      "▁그만": 8369,
      "▁Read": 8370,
      "▁analys": 8371,
      "▁부착": 8372,
      "▁views": 8373,
      ".',": 8374,
      "▁Good": 8375,
      "▁simpl": 8376,
      "real": 8377,
      "▁취득": 8378,
      "nson": 8379,
      "istr": 8380,
      "▁happy": 8381,
      "▁According": 8382,
      "▁stories": 8383,
      "▁네이": 8384,
      "▁캡": 8385,
      "▁출마": 8386,
      "▁부상": 8387,
      "▁columns": 8388,
      "▁nice": 8389,
      "▁선박": 8390,
      "▁맺": 8391,
      "allel": 8392,
      "▁causes": 8393,
      "agen": 8394,
      "▁James": 8395,
      "author": 8396,
      "▁전투": 8397,
      "▁places": 8398,
      "▁GM": 8399,
      "▁manufact": 8400,
      "타임": 8401,
      "▁실시간": 8402,
      "lets": 8403,
      "ponse": 8404,
      "▁gone": 8405,
      "▁entry": 8406,
      "inger": 8407,
      "▁Date": 8408,
      "▁커버": 8409,
      "▁calculated": 8410,
      "Dis": 8411,
      "▁당연": 8412,
      "▁respond": 8413,
      "FO": 8414,
      "▁surg": 8415,
      "▁accom": 8416,
      "▁카카오": 8417,
      "▁margin": 8418,
      "▁손해": 8419,
      "▁prove": 8420,
      "▁움직임": 8421,
      "nRe": 8422,
      "▁HD": 8423,
      "▁Jack": 8424,
      "imer": 8425,
      "▁onto": 8426,
      "▁Tom": 8427,
      "▁CR": 8428,
      "▁Bill": 8429,
      "▁pour": 8430,
      "▁지상": 8431,
      "▁천만": 8432,
      "CA": 8433,
      "▁이용자": 8434,
      "rl": 8435,
      "▁청장": 8436,
      "▁syndrome": 8437,
      "idel": 8438,
      "▁helped": 8439,
      "▁부르": 8440,
      "ologic": 8441,
      "▁German": 8442,
      "agement": 8443,
      "▁오염": 8444,
      "utm": 8445,
      "▁개정안": 8446,
      "▁meant": 8447,
      "▁helps": 8448,
      "▁spot": 8449,
      "udo": 8450,
      "▁Rober": 8451,
      "nCon": 8452,
      "▁tick": 8453,
      "▁arm": 8454,
      "nAccording": 8455,
      "▁moved": 8456,
      "▁완전히": 8457,
      "ivery": 8458,
      "ortunately": 8459,
      "▁nm": 8460,
      "▁기지": 8461,
      "▁reality": 8462,
      "▁Di": 8463,
      "▁station": 8464,
      "니아": 8465,
      "---": 8466,
      "▁코드": 8467,
      "▁노선": 8468,
      "▁Bay": 8469,
      "▁opening": 8470,
      "etime": 8471,
      "Ent": 8472,
      "▁가동": 8473,
      "Hz": 8474,
      "hell": 8475,
      "▁interested": 8476,
      "iform": 8477,
      "▁supposed": 8478,
      "▁evaluation": 8479,
      "▁asiae": 8480,
      "▁liqu": 8481,
      "▁au": 8482,
      "▁involve": 8483,
      "▁제일": 8484,
      "adding": 8485,
      "▁peak": 8486,
      "▁accur": 8487,
      "={": 8488,
      "Override": 8489,
      "nfunction": 8490,
      "▁선진": 8491,
      "▁employees": 8492,
      "▁문학": 8493,
      "▁거든": 8494,
      "▁diss": 8495,
      "▁래": 8496,
      "▁eye": 8497,
      "▁kids": 8498,
      "▁massive": 8499,
      "▁medic": 8500,
      "▁균형": 8501,
      "▁camera": 8502,
      "▁파일": 8503,
      "▁emot": 8504,
      "▁...\\": 8505,
      "▁개국": 8506,
      "▁다소": 8507,
      "럴드": 8508,
      "ker": 8509,
      "▁당부": 8510,
      "▁학원": 8511,
      "▁DE": 8512,
      "ameter": 8513,
      "Bar": 8514,
      "iced": 8515,
      "▁heat": 8516,
      "▁뽑": 8517,
      "▁breast": 8518,
      "▁봄": 8519,
      "▁officer": 8520,
      "직원": 8521,
      "▁돕": 8522,
      "▁페이스": 8523,
      "▁advantage": 8524,
      "▁bra": 8525,
      "▁Press": 8526,
      "▁변동": 8527,
      "weight": 8528,
      "▁decades": 8529,
      "zyme": 8530,
      "ochem": 8531,
      "venue": 8532,
      "▁Rem": 8533,
      "mary": 8534,
      "▁interactions": 8535,
      "gers": 8536,
      "▁schools": 8537,
      "▁밝히": 8538,
      "▁이명": 8539,
      "▁charges": 8540,
      "▁Inte": 8541,
      "▁flag": 8542,
      "gent": 8543,
      "▁거기": 8544,
      "▁ded": 8545,
      "▁계층": 8546,
      "▁실천": 8547,
      "▁자는": 8548,
      "▁으니": 8549,
      "▁부위": 8550,
      "▁벤처": 8551,
      "asp": 8552,
      "▁examples": 8553,
      "▁cycle": 8554,
      "▁located": 8555,
      "▁훨": 8556,
      "▁stack": 8557,
      "▁매매": 8558,
      "▁강제": 8559,
      "stitution": 8560,
      "▁기상": 8561,
      "▁재무": 8562,
      "▁mount": 8563,
      "▁protocol": 8564,
      "ye": 8565,
      "▁집회": 8566,
      "▁reb": 8567,
      "ndef": 8568,
      "▁Earth": 8569,
      "▁tree": 8570,
      "ateral": 8571,
      "▁mouse": 8572,
      "▁town": 8573,
      "▁Syria": 8574,
      "nCan": 8575,
      "▁adult": 8576,
      "estic": 8577,
      "▁느끼": 8578,
      "▁느낌": 8579,
      "▁위협": 8580,
      "▁vert": 8581,
      "▁횡": 8582,
      "▁매출액": 8583,
      "▁plane": 8584,
      "▁outcomes": 8585,
      "▁providing": 8586,
      "gun": 8587,
      "▁연대": 8588,
      "▁indicated": 8589,
      "▁Sal": 8590,
      "iate": 8591,
      "▁football": 8592,
      "\\\"}": 8593,
      "▁gluc": 8594,
      "bn": 8595,
      "nhttp": 8596,
      "▁seconds": 8597,
      "▁san": 8598,
      "▁제약": 8599,
      "▁Law": 8600,
      "itect": 8601,
      "▁installed": 8602,
      "▁Uk": 8603,
      "▁selection": 8604,
      "▁발사": 8605,
      "▁units": 8606,
      "▁Spec": 8607,
      "grad": 8608,
      "▁society": 8609,
      "▁patterns": 8610,
      "▁の": 8611,
      "▁현금": 8612,
      "det": 8613,
      "ologies": 8614,
      "▁비행": 8615,
      "}}\\\\": 8616,
      "▁비즈": 8617,
      "▁터치": 8618,
      "google": 8619,
      "▁Iraq": 8620,
      "range": 8621,
      "▁엑": 8622,
      "▁한테": 8623,
      "▁이행": 8624,
      "▁오프": 8625,
      "▁*/\\": 8626,
      "▁PS": 8627,
      "▁xml": 8628,
      "Inter": 8629,
      "▁jump": 8630,
      "▁tro": 8631,
      "▁assign": 8632,
      "mittee": 8633,
      "▁헤럴드": 8634,
      "▁훨씬": 8635,
      "▁mostly": 8636,
      "▁settings": 8637,
      "▁게이트": 8638,
      "▁밑": 8639,
      "▁agent": 8640,
      "▁signed": 8641,
      "▁equivalent": 8642,
      "▁한계": 8643,
      "▁이게": 8644,
      "▁exercise": 8645,
      "▁__": 8646,
      "▁지표": 8647,
      "▁forced": 8648,
      "▁inflam": 8649,
      "riend": 8650,
      "▁인프라": 8651,
      "▁stable": 8652,
      "▁residents": 8653,
      "▁slightly": 8654,
      "▁を": 8655,
      "▁updated": 8656,
      "▁반발": 8657,
      "jection": 8658,
      "▁wife": 8659,
      "Trans": 8660,
      "▁crow": 8661,
      "▁Alex": 8662,
      "▁모임": 8663,
      "▁출범": 8664,
      "▁analyzed": 8665,
      "▁취임": 8666,
      "▁%(": 8667,
      "aughter": 8668,
      "▁researchers": 8669,
      "▁interpret": 8670,
      "▁세금": 8671,
      "▁ped": 8672,
      "Info": 8673,
      "oster": 8674,
      "En": 8675,
      "▁본다": 8676,
      "▁grad": 8677,
      "▁introduced": 8678,
      "▁是": 8679,
      "▁offers": 8680,
      "▁Canad": 8681,
      "▁세기": 8682,
      "▁그때": 8683,
      "inity": 8684,
      "▁네요": 8685,
      "▁나요": 8686,
      "▁빚": 8687,
      "▁Commun": 8688,
      "▁citizens": 8689,
      "ello": 8690,
      "▁extension": 8691,
      "▁추세": 8692,
      "oral": 8693,
      "langle": 8694,
      "________": 8695,
      "▁절반": 8696,
      "▁remark": 8697,
      "ouble": 8698,
      "▁corpor": 8699,
      "▁베트": 8700,
      "▁flex": 8701,
      "▁senior": 8702,
      "chnology": 8703,
      "▁guy": 8704,
      "▁harm": 8705,
      "nIm": 8706,
      "▁시위": 8707,
      "▁tun": 8708,
      "▁otherwise": 8709,
      "▁imaging": 8710,
      "▁저항": 8711,
      "▁잖": 8712,
      "▁Internet": 8713,
      "▁Bitcoin": 8714,
      "▁relation": 8715,
      "▁종래": 8716,
      "▁Array": 8717,
      "▁coach": 8718,
      "▁꺼": 8719,
      "▁공직": 8720,
      "▁shock": 8721,
      "▁prime": 8722,
      "▁장점": 8723,
      "▁variety": 8724,
      "▁charged": 8725,
      "iveness": 8726,
      "▁mortality": 8727,
      "리트": 8728,
      "▁조제": 8729,
      "▁밸브": 8730,
      "liament": 8731,
      "▁Secret": 8732,
      "▁Union": 8733,
      "▁eventually": 8734,
      "IF": 8735,
      "▁악화": 8736,
      "ingly": 8737,
      "▁주말": 8738,
      "▁conver": 8739,
      "▁문서": 8740,
      "▁정지": 8741,
      ")/": 8742,
      "▁Fin": 8743,
      "▁Big": 8744,
      "▁재생": 8745,
      "▁Rel": 8746,
      "▁odd": 8747,
      "▁tit": 8748,
      "▁옷": 8749,
      "CR": 8750,
      "If": 8751,
      "▁팩": 8752,
      "▁polar": 8753,
      "▁soc": 8754,
      "▁joint": 8755,
      "email": 8756,
      "▁serve": 8757,
      "▁proof": 8758,
      "specific": 8759,
      "%.": 8760,
      "▁train": 8761,
      "osa": 8762,
      "gar": 8763,
      "▁wel": 8764,
      "rapeut": 8765,
      "▁멤": 8766,
      "▁커피": 8767,
      "▁possibility": 8768,
      "▁명칭": 8769,
      "asis": 8770,
      "▁HTML": 8771,
      "▁예요": 8772,
      "▁membrane": 8773,
      "ideos": 8774,
      "▁guys": 8775,
      "▁raised": 8776,
      "▁적합": 8777,
      "▁shooting": 8778,
      "▁만약": 8779,
      "루션": 8780,
      "▁단기": 8781,
      "▁spectrum": 8782,
      "▁lov": 8783,
      "▁Arab": 8784,
      "▁인원": 8785,
      "▁직업": 8786,
      "▁판사": 8787,
      "Not": 8788,
      "▁executive": 8789,
      "idation": 8790,
      "▁diseases": 8791,
      "▁processing": 8792,
      "house": 8793,
      "person": 8794,
      "▁une": 8795,
      "▁impl": 8796,
      "▁민족": 8797,
      "▁파트": 8798,
      "▁맞춤": 8799,
      "▁전형": 8800,
      "▁posted": 8801,
      "▁Rob": 8802,
      "▁도착": 8803,
      "anta": 8804,
      "▁예시": 8805,
      "▁혁명": 8806,
      "▁리더": 8807,
      "uries": 8808,
      "▁Bank": 8809,
      "Client": 8810,
      "request": 8811,
      "akistan": 8812,
      "▁storage": 8813,
      "▁런": 8814,
      "▁mel": 8815,
      "rey": 8816,
      "▁origin": 8817,
      "▁elev": 8818,
      "ville": 8819,
      "▁versus": 8820,
      "▁블랙": 8821,
      "omal": 8822,
      "▁approximately": 8823,
      "▁펼쳐": 8824,
      "▁placed": 8825,
      "▁사법": 8826,
      "].\\": 8827,
      "inte": 8828,
      "▁boy": 8829,
      "▁수집": 8830,
      "=\\\"@": 8831,
      "▁distinct": 8832,
      "▁사유": 8833,
      "▁morph": 8834,
      "▁gain": 8835,
      "▁모니": 8836,
      "Sub": 8837,
      "▁창원": 8838,
      "olf": 8839,
      "▁faster": 8840,
      "ista": 8841,
      "▁박사": 8842,
      "▁Rich": 8843,
      "▁Cap": 8844,
      "▁dys": 8845,
      "▁seeing": 8846,
      "▁Image": 8847,
      "▁dynamic": 8848,
      "▁줘": 8849,
      "▁벌이": 8850,
      "▁は": 8851,
      "▁menu": 8852,
      "▁virtual": 8853,
      "▁gold": 8854,
      "▁TR": 8855,
      "ben": 8856,
      "▁누적": 8857,
      "▁재미": 8858,
      "World": 8859,
      "▁비트": 8860,
      "▁어제": 8861,
      "▁베트남": 8862,
      "▁기울": 8863,
      "aren": 8864,
      "look": 8865,
      "▁의심": 8866,
      "cluded": 8867,
      "▁텐": 8868,
      "▁냉각": 8869,
      "▁linked": 8870,
      "▁Microsoft": 8871,
      "▁섬유": 8872,
      "▁successfully": 8873,
      "ko": 8874,
      "rovers": 8875,
      "▁Gold": 8876,
      "foot": 8877,
      "itness": 8878,
      "▁plate": 8879,
      "▁순환": 8880,
      "ipher": 8881,
      "aby": 8882,
      "▁족": 8883,
      "▁cook": 8884,
      "▁notice": 8885,
      "▁credit": 8886,
      "ston": 8887,
      "▁stars": 8888,
      "▁진료": 8889,
      "▁Council": 8890,
      "▁레벨": 8891,
      "▁authors": 8892,
      "▁gast": 8893,
      "▁explicit": 8894,
      "▁bond": 8895,
      "어지": 8896,
      "▁translate": 8897,
      "▁plot": 8898,
      "▁Hy": 8899,
      "▁두께": 8900,
      "iency": 8901,
      "▁된다고": 8902,
      "▁Jer": 8903,
      "cohol": 8904,
      "▁environmental": 8905,
      "▁gly": 8906,
      "▁Id": 8907,
      "sible": 8908,
      "▁우주": 8909,
      "▁symmet": 8910,
      "▁correctly": 8911,
      "▁extends": 8912,
      "EE": 8913,
      "([": 8914,
      "▁hearing": 8915,
      "▁신한": 8916,
      "▁짧": 8917,
      "URL": 8918,
      "frame": 8919,
      "▁documents": 8920,
      "MR": 8921,
      "▁Security": 8922,
      "<?": 8923,
      "▁identity": 8924,
      "**]{}": 8925,
      "overy": 8926,
      "▁으므로": 8927,
      "▁authorities": 8928,
      "▁메이": 8929,
      "usr": 8930,
      "Create": 8931,
      "▁candidates": 8932,
      "▁운행": 8933,
      "▁선임": 8934,
      "▁Main": 8935,
      "asy": 8936,
      "▁회계": 8937,
      "apse": 8938,
      "▁reson": 8939,
      "▁protected": 8940,
      "▁유출": 8941,
      "icago": 8942,
      "▁edge": 8943,
      "▁가로": 8944,
      "At": 8945,
      "CO": 8946,
      "▁arrested": 8947,
      "▁Fore": 8948,
      "struct": 8949,
      "▁펜": 8950,
      "nCom": 8951,
      "▁해제": 8952,
      "▁motion": 8953,
      "▁starts": 8954,
      "▁district": 8955,
      "nex": 8956,
      "▁굉": 8957,
      "▁assessment": 8958,
      "lock": 8959,
      "▁automatically": 8960,
      "▁폭력": 8961,
      "▁꼬": 8962,
      "uters": 8963,
      "▁증상": 8964,
      "▁tab": 8965,
      "Omega": 8966,
      "write": 8967,
      "exec": 8968,
      "▁von": 8969,
      "){": 8970,
      "▁관광객": 8971,
      "NG": 8972,
      "▁messages": 8973,
      "ima": 8974,
      "jo": 8975,
      "▁collected": 8976,
      "icy": 8977,
      "LT": 8978,
      "Load": 8979,
      "▁겁니다": 8980,
      "▁Dist": 8981,
      "▁neighbor": 8982,
      "▁cu": 8983,
      "▁Research": 8984,
      "▁animal": 8985,
      "▁goals": 8986,
      "▁상당히": 8987,
      "▁policies": 8988,
      "▁hem": 8989,
      "▁용어": 8990,
      "티브": 8991,
      "▁veloc": 8992,
      "▁쓸": 8993,
      "▁prepared": 8994,
      "▁wat": 8995,
      "next": 8996,
      "isted": 8997,
      "▁원고": 8998,
      "▁조명": 8999,
      "▁불러": 9000,
      "▁CT": 9001,
      "▁경선": 9002,
      "▁왼쪽": 9003,
      "▁취약": 9004,
      "▁Gra": 9005,
      "▁mental": 9006,
      "▁LED": 9007,
      "▁Game": 9008,
      "▁Sanders": 9009,
      "ambda": 9010,
      "▁radi": 9011,
      "▁surgical": 9012,
      "info": 9013,
      "▁Dev": 9014,
      "▁일어나": 9015,
      "▁attribut": 9016,
      "cut": 9017,
      "▁pet": 9018,
      "▁elim": 9019,
      "Source": 9020,
      "uls": 9021,
      "▁proport": 9022,
      "osh": 9023,
      "▁door": 9024,
      "▁Korean": 9025,
      "▁extremely": 9026,
      "▁스러운": 9027,
      "▁전제": 9028,
      "▁프리미": 9029,
      "▁income": 9030,
      "▁literature": 9031,
      "▁gradu": 9032,
      "▁패션": 9033,
      "▁미사일": 9034,
      "▁ion": 9035,
      "EX": 9036,
      "▁축소": 9037,
      "▁나노": 9038,
      "lee": 9039,
      "nAlso": 9040,
      "▁hypot": 9041,
      "▁surround": 9042,
      "itative": 9043,
      "}(\\\\": 9044,
      "▁향해": 9045,
      "ellular": 9046,
      "▁dram": 9047,
      "abilities": 9048,
      "uby": 9049,
      "osite": 9050,
      "▁tom": 9051,
      "▁JSON": 9052,
      "▁뿌": 9053,
      "▁recorded": 9054,
      "▁knows": 9055,
      "▁기다립니다": 9056,
      "amily": 9057,
      "▁떠나": 9058,
      "▁Sam": 9059,
      "▁construction": 9060,
      "▁폐기": 9061,
      "▁MP": 9062,
      "ao": 9063,
      "▁warn": 9064,
      "▁Pet": 9065,
      "orthern": 9066,
      "adow": 9067,
      "▁Britain": 9068,
      "▁지배": 9069,
      "▁직무": 9070,
      "▁assessed": 9071,
      "▁partners": 9072,
      "▁tweet": 9073,
      "▁occup": 9074,
      "}}$": 9075,
      "▁genetic": 9076,
      "▁$('": 9077,
      "▁물리": 9078,
      "▁college": 9079,
      "▁probability": 9080,
      "▁옛": 9081,
      "▁Office": 9082,
      "▁pharm": 9083,
      "▁alter": 9084,
      "▁Florida": 9085,
      "ela": 9086,
      "mal": 9087,
      "▁모니터": 9088,
      "$_": 9089,
      "▁Vis": 9090,
      "▁plays": 9091,
      "▁물가": 9092,
      "신문": 9093,
      "grade": 9094,
      "DIT": 9095,
      "▁동부": 9096,
      "otyp": 9097,
      "▁소설": 9098,
      "▁권한": 9099,
      "▁명예": 9100,
      "IST": 9101,
      "▁총회": 9102,
      "▁beaut": 9103,
      "▁공인": 9104,
      "▁duration": 9105,
      "▁홍콩": 9106,
      "▁Rad": 9107,
      "nBy": 9108,
      "▁바뀌": 9109,
      "asion": 9110,
      "▁prices": 9111,
      "ette": 9112,
      "▁상하": 9113,
      "idget": 9114,
      "▁광역": 9115,
      "▁당초": 9116,
      "▁Show": 9117,
      "ora": 9118,
      "▁agree": 9119,
      "▁매입": 9120,
      "lik": 9121,
      "▁임명": 9122,
      "▁absor": 9123,
      "Handler": 9124,
      "▁즈": 9125,
      "wer": 9126,
      "▁medium": 9127,
      "cknow": 9128,
      "▁OR": 9129,
      "event": 9130,
      "cp": 9131,
      "iful": 9132,
      "▁살펴보": 9133,
      "▁leaving": 9134,
      "▁리얼타임": 9135,
      "apache": 9136,
      "ears": 9137,
      "creen": 9138,
      "connect": 9139,
      "▁밥": 9140,
      "▁GS": 9141,
      "▁굉장": 9142,
      "▁depends": 9143,
      "gi": 9144,
      "Action": 9145,
      "▁sensitivity": 9146,
      "▁유형": 9147,
      "▁materials": 9148,
      "Thread": 9149,
      "▁테크": 9150,
      "▁단부": 9151,
      "▁바꾸": 9152,
      "ruit": 9153,
      "▁Br": 9154,
      "▁specifically": 9155,
      "▁사정": 9156,
      "reated": 9157,
      "vari": 9158,
      "▁Type": 9159,
      "▁본체": 9160,
      "▁fresh": 9161,
      "▁kept": 9162,
      "▁belong": 9163,
      "helial": 9164,
      "▁Name": 9165,
      "hydro": 9166,
      "▁sust": 9167,
      "▁법무부": 9168,
      "▁인재": 9169,
      "▁como": 9170,
      "append": 9171,
      "▁nine": 9172,
      "▁crime": 9173,
      "AND": 9174,
      "▁Committee": 9175,
      "scrib": 9176,
      "▁수학": 9177,
      "▁description": 9178,
      "▁books": 9179,
      "▁벗어나": 9180,
      "▁의도": 9181,
      "▁Mo": 9182,
      "▁장면": 9183,
      "▁빨리": 9184,
      "▁attract": 9185,
      "▁cert": 9186,
      "▁Back": 9187,
      "▁안타": 9188,
      "▁potentially": 9189,
      "▁포기": 9190,
      "king": 9191,
      "▁pages": 9192,
      "ointer": 9193,
      "▁spending": 9194,
      "▁og": 9195,
      "▁department": 9196,
      "▁득": 9197,
      "▁England": 9198,
      "dr": 9199,
      "▁properly": 9200,
      "How": 9201,
      "세스": 9202,
      "▁실리": 9203,
      "▁주주": 9204,
      "▁shop": 9205,
      "▁adults": 9206,
      "▁종료": 9207,
      "Trump": 9208,
      "tilde": 9209,
      "▁칭": 9210,
      "▁importance": 9211,
      "▁군수": 9212,
      "▁성격": 9213,
      "▁links": 9214,
      "nNote": 9215,
      "▁achieved": 9216,
      "▁질병": 9217,
      "▁Che": 9218,
      "ups": 9219,
      "▁funding": 9220,
      "▁텍스트": 9221,
      "▁멘": 9222,
      "story": 9223,
      "▁vehicle": 9224,
      "▁권력": 9225,
      "▁보관": 9226,
      "▁스크": 9227,
      "Group": 9228,
      "root": 9229,
      "▁조차": 9230,
      "▁strongly": 9231,
      "▁reform": 9232,
      "▁남편": 9233,
      "▁Mer": 9234,
      "▁不": 9235,
      "▁answers": 9236,
      "▁route": 9237,
      "▁intelligence": 9238,
      "fit": 9239,
      "▁twice": 9240,
      "Pr": 9241,
      "▁completed": 9242,
      "▁Long": 9243,
      "▁메틸": 9244,
      "▁농협": 9245,
      "▁Si": 9246,
      "▁documentation": 9247,
      "▁cities": 9248,
      "▁buff": 9249,
      "자기": 9250,
      "▁vacc": 9251,
      "▁절대": 9252,
      "▁단독": 9253,
      "icated": 9254,
      "▁managed": 9255,
      "▁완전": 9256,
      "NET": 9257,
      "ventional": 9258,
      "▁생기": 9259,
      "roke": 9260,
      "resents": 9261,
      "▁fraction": 9262,
      "▁농도": 9263,
      "▁accused": 9264,
      "▁솔루션": 9265,
      "▁FBI": 9266,
      "framework": 9267,
      "bled": 9268,
      "▁NOT": 9269,
      "escription": 9270,
      "▁공약": 9271,
      "▁amb": 9272,
      "▁Los": 9273,
      "▁트랜": 9274,
      "uracy": 9275,
      "olean": 9276,
      "▁protection": 9277,
      "▁유엔": 9278,
      "std": 9279,
      "▁문자": 9280,
      "▁관람": 9281,
      "iliar": 9282,
      "▁께서": 9283,
      "Input": 9284,
      "▁demonstrate": 9285,
      "▁억제": 9286,
      "▁단면": 9287,
      "▁pas": 9288,
      "▁planning": 9289,
      "▁야구": 9290,
      "▁univers": 9291,
      "컨대": 9292,
      "▁battle": 9293,
      "▁경고": 9294,
      "▁톤": 9295,
      "▁답변": 9296,
      "▁카페": 9297,
      "▁이란": 9298,
      "▁peace": 9299,
      "▁』": 9300,
      "▁Amazon": 9301,
      "▁THE": 9302,
      "arc": 9303,
      "고기": 9304,
      "▁징역": 9305,
      "ampionship": 9306,
      "▁밝힌": 9307,
      "▁cir": 9308,
      "search": 9309,
      "▁필수": 9310,
      "From": 9311,
      "oking": 9312,
      "▁fundament": 9313,
      "▁CNN": 9314,
      "MI": 9315,
      "Rec": 9316,
      "▁석유": 9317,
      "▁supply": 9318,
      "nSh": 9319,
      "icial": 9320,
      "▁に": 9321,
      "▁Su": 9322,
      "Config": 9323,
      "▁confidence": 9324,
      "▁이뤄지": 9325,
      "▁edaily": 9326,
      "▁politics": 9327,
      "Factory": 9328,
      "ito": 9329,
      "well": 9330,
      "olds": 9331,
      "▁Mag": 9332,
      "▁은데": 9333,
      "▁infect": 9334,
      "스타": 9335,
      "▁gender": 9336,
      "▁Develop": 9337,
      "\\\\,": 9338,
      "long": 9339,
      "icate": 9340,
      "jected": 9341,
      "▁첨가": 9342,
      "▁『": 9343,
      "▁이사장": 9344,
      ")$.": 9345,
      "▁변환": 9346,
      "▁syn": 9347,
      "▁FC": 9348,
      "▁emergency": 9349,
      "aven": 9350,
      "▁Sil": 9351,
      "▁Kim": 9352,
      "▁lif": 9353,
      "▁owners": 9354,
      "elect": 9355,
      "▁marked": 9356,
      "▁단전": 9357,
      "▁sell": 9358,
      "▁html": 9359,
      "▁Institute": 9360,
      "nAll": 9361,
      "▁중구": 9362,
      "Application": 9363,
      "NT": 9364,
      "▁넷": 9365,
      "▁거든요": 9366,
      "세대": 9367,
      "▁ven": 9368,
      "nSince": 9369,
      "Number": 9370,
      "▁deriv": 9371,
      "▁stored": 9372,
      "▁돼야": 9373,
      "▁teacher": 9374,
      "▁traffic": 9375,
      "An": 9376,
      "▁ended": 9377,
      "▁강원도": 9378,
      "▁현황": 9379,
      "▁허브": 9380,
      "igrants": 9381,
      "Phone": 9382,
      "▁fan": 9383,
      "▁코스피": 9384,
      "png": 9385,
      "▁particles": 9386,
      "▁tal": 9387,
      "Gamma": 9388,
      "nSome": 9389,
      "▁ing": 9390,
      "▁Cr": 9391,
      "▁SP": 9392,
      "▁직후": 9393,
      "▁주어진": 9394,
      "▁modified": 9395,
      "Att": 9396,
      "▁빠져": 9397,
      "▁사실상": 9398,
      "▁수직": 9399,
      "▁wind": 9400,
      "▁텔레콤": 9401,
      "On": 9402,
      "▁로드": 9403,
      "▁상위": 9404,
      "▁KB": 9405,
      "achment": 9406,
      "▁advanced": 9407,
      "▁allowing": 9408,
      "▁Python": 9409,
      "▁possibly": 9410,
      "▁motor": 9411,
      "▁truth": 9412,
      "▁새롭": 9413,
      "▁interval": 9414,
      "▁폐쇄": 9415,
      "▁bug": 9416,
      "▁지주": 9417,
      "▁소프트웨어": 9418,
      "plete": 9419,
      "bal": 9420,
      "clusive": 9421,
      "▁요즘": 9422,
      "▁Many": 9423,
      "xit": 9424,
      "▁연말": 9425,
      "Result": 9426,
      "$$\\\\": 9427,
      "kl": 9428,
      "▁출입": 9429,
      "Click": 9430,
      "▁Ret": 9431,
      "Default": 9432,
      "▁방사": 9433,
      "chron": 9434,
      "▁preval": 9435,
      "▁력": 9436,
      "▁주파": 9437,
      "▁alleg": 9438,
      "▁Leg": 9439,
      "▁주간": 9440,
      "align": 9441,
      "▁pH": 9442,
      "▁controlled": 9443,
      "iot": 9444,
      "▁저녁": 9445,
      "▁늘어난": 9446,
      "▁대리": 9447,
      "▁ran": 9448,
      "▁감시": 9449,
      "▁항목": 9450,
      "▁편집": 9451,
      "ords": 9452,
      "▁percentage": 9453,
      "▁remaining": 9454,
      "appe": 9455,
      "▁전해졌": 9456,
      "▁During": 9457,
      "outhern": 9458,
      "ferent": 9459,
      "▁부진": 9460,
      "])": 9461,
      ",'": 9462,
      "▁부서": 9463,
      "▁participants": 9464,
      "older": 9465,
      "▁discussion": 9466,
      "▁조립": 9467,
      "▁sin": 9468,
      "▁metal": 9469,
      "appro": 9470,
      "len": 9471,
      "lines": 9472,
      "alls": 9473,
      "▁여당": 9474,
      "rapeutic": 9475,
      "▁league": 9476,
      "▁하늘": 9477,
      "dimensional": 9478,
      "endo": 9479,
      "널리": 9480,
      "▁뱅": 9481,
      "▁기금": 9482,
      "lat": 9483,
      "abour": 9484,
      "▁Under": 9485,
      "▁외환": 9486,
      "tyle": 9487,
      "▁Science": 9488,
      "▁pure": 9489,
      "▁Mu": 9490,
      "▁대안": 9491,
      "▁assault": 9492,
      "▁연출": 9493,
      "▁professional": 9494,
      "yer": 9495,
      "▁spend": 9496,
      "▁코스닥": 9497,
      "▁돌파": 9498,
      "▁비대": 9499,
      "▁draft": 9500,
      "faces": 9501,
      "▁signs": 9502,
      "▁weekend": 9503,
      "▁통해서": 9504,
      "▁oxy": 9505,
      "iro": 9506,
      "▁worse": 9507,
      "▁derived": 9508,
      "▁단속": 9509,
      "▁renal": 9510,
      "cles": 9511,
      "▁.\\": 9512,
      "nint": 9513,
      "▁resulted": 9514,
      "▁Justice": 9515,
      "/\\\\": 9516,
      "alysis": 9517,
      "nw": 9518,
      "▁칠": 9519,
      "▁이송": 9520,
      "ulture": 9521,
      "▁로운": 9522,
      "▁웨이": 9523,
      "▁tens": 9524,
      "matory": 9525,
      "▁관측": 9526,
      "▁vul": 9527,
      "▁cos": 9528,
      "jar": 9529,
      "▁deliver": 9530,
      "▁album": 9531,
      "▁청약": 9532,
      "▁Only": 9533,
      "▁강도": 9534,
      "▁announce": 9535,
      "{{\\\\": 9536,
      "ocs": 9537,
      "▁receiving": 9538,
      "life": 9539,
      "▁setup": 9540,
      "▁underw": 9541,
      "▁평소": 9542,
      "nNo": 9543,
      "enter": 9544,
      "▁arguments": 9545,
      "▁abuse": 9546,
      "▁communities": 9547,
      "▁pictures": 9548,
      "▁굉장히": 9549,
      "▁연락": 9550,
      "▁중공": 9551,
      "▁전류": 9552,
      "▁investment": 9553,
      "▁rough": 9554,
      "▁모아": 9555,
      "▁물류": 9556,
      "▁lose": 9557,
      "pled": 9558,
      "PT": 9559,
      "▁Prime": 9560,
      "inations": 9561,
      "▁Please": 9562,
      "리케이션": 9563,
      "▁예컨대": 9564,
      "▁controvers": 9565,
      "▁opened": 9566,
      "▁rend": 9567,
      "▁nit": 9568,
      "biz": 9569,
      "estion": 9570,
      "레이드": 9571,
      "twitter": 9572,
      "anted": 9573,
      "▁가수": 9574,
      "▁thick": 9575,
      "▁촉진": 9576,
      "raine": 9577,
      "▁캠페인": 9578,
      "brid": 9579,
      "▁서울대": 9580,
      "▁다운": 9581,
      "▁정해": 9582,
      "▁claimed": 9583,
      "▁coe": 9584,
      "▁○": 9585,
      "Control": 9586,
      "▁핫": 9587,
      "▁위안": 9588,
      "▁대북": 9589,
      "scopy": 9590,
      "▁represents": 9591,
      "pected": 9592,
      "ariju": 9593,
      "▁Western": 9594,
      "▁offered": 9595,
      "▁scores": 9596,
      "▁Johnson": 9597,
      "DR": 9598,
      "▁depending": 9599,
      "▁한겨": 9600,
      "println": 9601,
      "▁비난": 9602,
      "omatic": 9603,
      "nFrom": 9604,
      "▁실내": 9605,
      "▁수수료": 9606,
      "▁짐": 9607,
      "▁서류": 9608,
      "▁점유": 9609,
      "▁delivery": 9610,
      "증권": 9611,
      "▁III": 9612,
      "river": 9613,
      "▁unless": 9614,
      "▁한겨레": 9615,
      "▁항상": 9616,
      "▁아름다": 9617,
      "forcement": 9618,
      "cT": 9619,
      "▁픽": 9620,
      "▁electr": 9621,
      "▁상임": 9622,
      "arijuana": 9623,
      "FI": 9624,
      "▁흡수": 9625,
      "false": 9626,
      "Filter": 9627,
      "Sp": 9628,
      "▁hat": 9629,
      "▁주관": 9630,
      "▁쌀": 9631,
      "▁Pati": 9632,
      "▁네이버": 9633,
      "▁focused": 9634,
      "ictionary": 9635,
      "▁sufficient": 9636,
      "▁bed": 9637,
      "▁pool": 9638,
      "▁멤버": 9639,
      "▁vill": 9640,
      "PL": 9641,
      "▁스프": 9642,
      "rip": 9643,
      "after": 9644,
      "▁페이스북": 9645,
      "▁에요": 9646,
      "iverse": 9647,
      "▁了": 9648,
      "▁speak": 9649,
      "▁걷": 9650,
      "▁cryst": 9651,
      "defined": 9652,
      "hal": 9653,
      "▁부채": 9654,
      "▁Eq": 9655,
      "▁behaviour": 9656,
      "▁Mult": 9657,
      "▁stre": 9658,
      "ws": 9659,
      "▁opinion": 9660,
      "▁sched": 9661,
      "▁disp": 9662,
      "▁거듭": 9663,
      "▁om": 9664,
      "elled": 9665,
      "▁주력": 9666,
      "sts": 9667,
      "▁형식": 9668,
      "▁Server": 9669,
      "ushed": 9670,
      "isher": 9671,
      "▁국방부": 9672,
      "articles": 9673,
      "lar": 9674,
      "▁hack": 9675,
      "▁PHP": 9676,
      "▁Furthermore": 9677,
      "▁sentence": 9678,
      "System": 9679,
      "▁herald": 9680,
      "ghan": 9681,
      "▁종교": 9682,
      "▁editor": 9683,
      "▁포항": 9684,
      "▁진짜": 9685,
      "▁합리": 9686,
      "▁annual": 9687,
      "다가": 9688,
      "▁symbol": 9689,
      "▁라면서": 9690,
      "▁SU": 9691,
      "▁아내": 9692,
      "▁동원": 9693,
      "▁Commission": 9694,
      "Point": 9695,
      "▁sensitive": 9696,
      "has": 9697,
      "▁Note": 9698,
      "▁Smith": 9699,
      "nth": 9700,
      "▁민원": 9701,
      "appa": 9702,
      "▁whom": 9703,
      "GE": 9704,
      "뮤니": 9705,
      "▁한화": 9706,
      "▁happening": 9707,
      "▁expansion": 9708,
      "hens": 9709,
[...]
